#version: 0.2
t h
w h
th e</w>
i s</w>
a n
o f</w>
a t</w>
a t
r e
i n
a r
e r
m o
wh at</w>
e r</w>
s t
v i
o n</w>
i t
o r
i c
e s</w>
e n
o r</w>
i l
c o
i n</w>
mo vi
r o
s t</w>
h o
e d</w>
d i
a m
l a
o n
a s</w>
a l
| |</w>
| ||</w>
' s</w>
c t
i on</w>
u n
ho w</w>
m an
e l
f il
e n</w>
movi e</w>
ic h</w>
wh ich</w>
e a
in g</w>
f or</w>
c h
r a
w as</w>
at e</w>
i r
man y</w>
i g
m a
fil m</w>
d e
wh o</w>
a l</w>
an d</w>
am e</w>
b o
r i
l i
movi es</w>
l o
p ro
u r
t i
co m
p o
n ame</w>
d u
a n</w>
u s
b y</w>
c e</w>
l e
s p
d ate</w>
en t</w>
2 0
s h
e m
at ion</w>
u m
f ir
c a
d o
s o
u s</w>
di re
it h</w>
l e</w>
fir st</w>
dire ct
t o</w>
s i
di d</w>
en t
pro du
wh en</w>
e t
er s</w>
f o
th at</w>
w ith</w>
v e</w>
e d
f a
t o
d e</w>
e st</w>
e c
r it
i on
ig h
a g
er e</w>
i s
p u
n e
i c</w>
q u
w or
ea s
h a
w rit
e l</w>
i t</w>
p h
bo o
20 1
g u
t a
p la
ar t</w>
t h</w>
un d
i es</w>
s e
f or
u m</w>
ar e</w>
r an
direct or</w>
th is</w>
g ra
co n
r u
p er
produ c
a c
n o
a u
s er
re c
m ar
st ate</w>
m e</w>
v er
a d
e s
/ 1
re d</w>
it y</w>
al l</w>
igh t</w>
fil m
b u
a ct
o l
re l
a s
at ion
j o
com p
b er</w>
s u
e x
ma n</w>
k s</w>
l an
s c
h as</w>
s on</w>
k e</w>
s ig
p re
n er</w>
re n
mo us</w>
fa mous</w>
la st</w>
d a
in e</w>
l at
c h</w>
b e
do es</w>
r y</w>
fo und
in g
u t</w>
c k</w>
m us
di s
or s</w>
o p
de sig
g e</w>
wh ere</w>
c re
n um
rel eas
u t
w ar
e st
ar t
boo k</w>
i d
la r</w>
a r</w>
t ra
num ber</w>
mo st</w>
en g
it s</w>
f ro
h e
b er
i m
at ed</w>
s s</w>
a p
or y</w>
on g</w>
g o
ct ion</w>
gra ph
lat est</w>
d s</w>
a b
un t
l u
on e</w>
co l
ser ies</w>
at o
po pu
am es</w>
lo c
c in
popu lar</w>
comp an
t ea
i a</w>
in t
fro m</w>
ag e</w>
20 0
t en</w>
u l
r ic
e ?</w>
ed it
al l
tea m</w>
co unt
w e
e v
produc er</w>
i z
f f
n ation
li st</w>
film s</w>
pu b
writ ten</w>
p e</w>
ic s</w>
e p
1 9
r e</w>
po s
g e
cin em
writ er</w>
a bo
m ent</w>
p a
w a
o t
ti me</w>
abo ut</w>
k e
i f
ch ar
g en
v el
d er</w>
s y
compan y</w>
cinem ato
releas e</w>
b e</w>
u re
desig ner</w>
t it
dis co
e ct
t y
g ame</w>
pla y
s ion</w>
ha ve</w>
cinemato graph
st ory</w>
c la
li sh
y o
w il
v e
s e</w>
g an
g re
m e
l es</w>
boo ks</w>
t s</w>
an d
h ar
1 /1
c ar
c or
lan gu
b ro
k ed</w>
for m
ur e</w>
m in
ea r</w>
pla ce</w>
jo h
201 7</w>
ec t</w>
b a
n e</w>
p ar
u ti
rec ent</w>
f e
v er</w>
ex ec
ic al</w>
m ent
a re
j u
m et
exec uti
l in
i p
st e
d y</w>
b ir
ca st
th e
or gan
l d</w>
wor k</w>
s a
cre at
co st
t e</w>
found ed</w>
d o</w>
c i
w at
executi ve</w>
nation al</w>
el l
r at
t on</w>
cinematograph er</w>
produ ction</w>
b all</w>
au th
l eng
mus ic</w>
ar y</w>
um e</w>
loc ation</w>
m y</w>
t ru
on g
a ir
organ iz
mo n
s eas
s si
l ea
p or
i v
il l
b r
m i
b el
il d
ca p
m u
leng th</w>
t e
f i
st ar</w>
com pos
b ri
l ic
he ight</w>
tra ck</w>
w n
ment ion</w>
seas on</w>
k ing</w>
tru e</w>
st ar
l y
cost ume</w>
th er</w>
b i
produc ed</w>
w ere</w>
un i
sp ec
g r
u r</w>
wor ld</w>
s s
pub lish
p e
a war
are a</w>
u p</w>
da y</w>
count ry</w>
be en</w>
m p
la ke</w>
on s</w>
c al
cast ing</w>
us e</w>
organiz ation</w>
langu age</w>
a m</w>
t er</w>
char act
y ear</w>
d d
t y</w>
f in
lo w
c ity</w>
el l</w>
in c
ic e</w>
em ent</w>
w in
o l</w>
ty pe</w>
/1 9
ne w</w>
or ig
m is
b est</w>
l and</w>
s k
o b
mus e
j ect</w>
o ff
int er
a st
t er
b re
un d</w>
us ed</w>
i d</w>
ion s</w>
i e</w>
edit or</w>
ar ch
an g
al b
en ti
sh i
de vel
w n</w>
at h</w>
f t</w>
com ics</w>
play ed</w>
en n
i so
ar d</w>
ver s
mo un
ea n</w>
devel op
com ic</w>
f ran
c ent
c k
t v</w>
ro n
o d</w>
an n
l y</w>
t a</w>
ar ti
r un
w o
joh n</w>
muse um</w>
d ge</w>
t ion</w>
u p
qu el</w>
il l</w>
gra m</w>
direct ed</w>
l ong</w>
co de</w>
m ic
v el</w>
pro gram</w>
arch it
am er
de ath</w>
h e</w>
direct ors</w>
b ar
s ong</w>
ri ver</w>
i l</w>
ep iso
sp e
1 0
wor ked</w>
pa ren
s co
m il
m at
u g
lea gu
i st
i al</w>
creat or</w>
l ine</w>
bu ild
s ho
th ere</w>
desig n
to m</w>
j ames</w>
disco ve
su b
i ve</w>
am p
ne y</w>
to p</w>
charact er</w>
t ri
sp a
it e</w>
ing s</w>
d re
d ?</w>
l l
vi e
ha d</w>
ta in
g ro
in a</w>
z e</w>
sc ho
fo ot
c ur
pla y</w>
b ur
st art</w>
f ic
. 0</w>
ta in</w>
a d</w>
leagu e</w>
g a
st ru
c an</w>
so und
i i</w>
uni vers
shi p</w>
el d</w>
i m</w>
f lo
c y</w>
st a
f l
er ?</w>
ure s</w>
i an</w>
b or
e t</w>
an ce</w>
ri st
e g
b le</w>
l a</w>
am s</w>
p art
it ed</w>
spa ce</w>
it al</w>
d r
d en
episo de</w>
o c
v ent
ma de</w>
at es</w>
ed ?</w>
c ra
n a
cre ated</w>
c an
it ion</w>
tit le</w>
th o
g ames</w>
so ur
l ar
it ?</w>
d ea
la un
f re
auth or</w>
y mp
s h</w>
c at
par k</w>
n ing</w>
arti st</w>
act ion</w>
i o
f est
amer ic
rec or
ma g
e ar
d a</w>
an t</w>
sound track</w>
le y</w>
inter national</w>
ation s</w>
st u
ran k</w>
l it
ren ce</w>
h er
fest iv
bir th</w>
compos er</w>
bri dge</w>
ma j
k a
h is</w>
awar d</w>
an t
k o
b la
p er</w>
festiv al</w>
wa y</w>
la s</w>
h igh
v o
spe ed</w>
si d
foot ball</w>
archit ect
mo n</w>
g ar
we ight</w>
di e</w>
yo u</w>
sp or
met ers</w>
fe at
ol ymp
gen re</w>
d er
count y</w>
p ho
lo g
in t</w>
al s</w>
h ea
ber t</w>
- 1
c o</w>
c es</w>
v ol
w i
1/1 /19
so ci
d on
man u
st art
releas ed</w>
univers ity</w>
scho ol</w>
vi ce</w>
s ch
j a
an e</w>
film ed</w>
w er</w>
w al
fa ct
de l</w>
ch rist
y ?</w>
s um
n or
b at
0 0
ra l</w>
n et
b as
t al</w>
p ic
le t
t r
form at</w>
rat ing</w>
f u
d en</w>
vi sion</w>
d ed</w>
fo l
di um</w>
com e</w>
s ?</w>
g ol
t or
s m
maj or</w>
c lo
act or</w>
i o</w>
ge or
m s</w>
el ement</w>
al e</w>
wil li
p ri
l er</w>
ap p
o g
ent s</w>
m c
found er</w>
wh o
ca st</w>
19 9
th an</w>
rec t</w>
cor rect</w>
an a</w>
alb um</w>
w ro
produ ct
h ig
201 4</w>
i r</w>
qu ot
f f</w>
vi de
sp on
d on</w>
wro te</w>
cla ssi
z o
k in
es s
paren t</w>
b on
ca re
to tal</w>
m er
fol low
v al
t ing</w>
op en
m el
di a</w>
wor ks</w>
moun t</w>
m a</w>
col le
st y
spec if
d ar
th er
h or
c t</w>
ri p
h y
w s</w>
s ur
ong s</w>
l or
k no
k er</w>
el s</w>
ag es</w>
specif y</w>
et er</w>
b b
1/1 /
c e
s on
orig in
ob ject</w>
ic ial</w>
s in
pre sid
o per
mu ch</w>
u red</w>
t all</w>
for m</w>
em p
an s</w>
im um</w>
201 8</w>
el ect
cap ital</w>
be g
a ch
r y
ge t</w>
u de</w>
ke y</w>
i de</w>
publish ed</w>
orig in</w>
t w
es s</w>
st er</w>
s qu
ran king</w>
discove red</w>
m er</w>
m as</w>
g er
care er</w>
manu fact
est ab
estab lish
cla ss</w>
b ac
un ited</w>
il y</w>
da vi
ch em
j ac
t le</w>
por t</w>
ma ke</w>
a z
t re
st er
found ing</w>
for d</w>
build ing</w>
follow ing</w>
vie w</w>
p r
k en</w>
en d</w>
wat er</w>
s .</w>
product ions</w>
h u
m en
j e
a f
b ea
a k
writ ers</w>
r ing</w>
n ic
n ames</w>
bir th
un g</w>
th em
se quel</w>
tit les</w>
ma x
f er
laun ch</w>
g er</w>
disco ver
davi d</w>
bu t
y a</w>
sc rip
o red</w>
is h</w>
fl ight</w>
per son</w>
d ing</w>
b ra
pub lic
air cra
per for
o ut</w>
o ut
joh n
col or</w>
ent er
el e
ti m
s o</w>
ir e</w>
ev ent</w>
auth ored</w>
si ze</w>
n i
fin al</w>
in st
ho l
geor ge</w>
d ra
bo dy</w>
h i
g i
wil l</w>
f am
chem ical</w>
o s</w>
wa y
r is</w>
p p
z one</w>
p it
edit ion</w>
v en
ro le</w>
pic t
n am
hig h</w>
s or
pe op
f e</w>
di st
d at
re n</w>
pos ition</w>
o k</w>
bro ad
n ight</w>
mo r
m o</w>
c ru
s il
m eas
do wn
w ar</w>
r .</w>
perfor man
il d</w>
i um</w>
classi fic
ro bert</w>
or e</w>
di vision</w>
a th
ste m</w>
pre quel</w>
p an
col ors</w>
sy stem</w>
p au
f if
al ity</w>
g o</w>
bi g</w>
the at
is e</w>
ad dre
t ran
m ic</w>
film ?</w>
c er
ro ck</w>
max imum</w>
n at
b us
wn ed</w>
ho me</w>
ba se
vide o</w>
p as
langu ages</w>
fi eld</w>
cat eg
c ul
re s</w>
fe rence</w>
re spon
off icial</w>
base ball</w>
r a</w>
peop le</w>
mic ha
mar y</w>
d an
h el
st re
pro f
no vel</w>
enter tain
public ation</w>
po int</w>
aircra ft</w>
m en</w>
i st</w>
gr and</w>
en s</w>
stru ction</w>
ma ss</w>
id enti
americ an</w>
y s</w>
w on</w>
t em
st s</w>
m em
design ed</w>
all s</w>
s an
p i
micha el</w>
f ul
entertain ment</w>
v ed</w>
j i</w>
high est</w>
g n
g ary</w>
con st
- 2
wat ch</w>
v y</w>
meas ure
k a</w>
discover y</w>
d el
c lu
a v
vel s</w>
se a</w>
presid ent</w>
cur ren
c up</w>
squ are</w>
in o</w>
ho use</w>
fa ther</w>
sy m
star red</w>
j im</w>
ip s</w>
br and</w>
air port</w>
ut e</w>
t ur
t on
st or
st at
p ra
la n</w>
d ur
v est
s a</w>
ic ip
har d</w>
at ure</w>
pict ures</w>
ph il
lo ve</w>
c y
b ill</w>
performan ce</w>
p at
mu st</w>
measure ment</w>
mar k</w>
l in</w>
b lu
1 2
k i</w>
in vent
ic k</w>
le e</w>
j enn
igh t
sym bo
fam ily</w>
edit ed</w>
con ference</w>
0 0</w>
vi n</w>
mo re</w>
h al
disco graph
co p
t ro
t al
ma x</w>
dd dd
moun tain</w>
m ed
li e</w>
go t</w>
a ca
them e</w>
t en
li fe</w>
d es</w>
ch ild</w>
c lic
ver sion</w>
sty le</w>
sc i
l on
comp le
act ed</w>
who m</w>
war d</w>
vi l
sta dium</w>
sour ce</w>
pau l</w>
li c</w>
inc .</w>
gro up</w>
feat ured</w>
e u
comp et
ch ild
bu il
ly ric
in e
ch amp
b il
201 6</w>
. .
way ne</w>
ta ke</w>
p art</w>
l o</w>
ev er</w>
sc re
prof es
manufact ure
ang el
willi am</w>
war s</w>
u ral</w>
nation ality</w>
it ies</w>
du c
dis ney</w>
u e</w>
sm ith</w>
in ?</w>
ga la
t ed</w>
symbo l</w>
st o
l ong
4 0</w>
st ates</w>
s at
o w
develop er</w>
design ers</w>
awar ds</w>
x x</w>
wh ite</w>
u th</w>
il s</w>
aca de
y or
su per
star s</w>
s am
or b
ed s</w>
ju st
discove re
ac h</w>
u be</w>
start ed</w>
p eter</w>
n y</w>
m y
clic ked</w>
a po
si de</w>
mar t
k et
el ev
c le
as on</w>
al e
w el
ro y
ra di
publish er</w>
p en
no vels</w>
mis sion</w>
j un
all y</w>
man ag
john son</w>
clu b</w>
b ru
n a</w>
ma sco
ation ?</w>
st r
s al
ing ton</w>
am a</w>
vi ty</w>
s ing</w>
m ur
f an
th re
pho ne</w>
o d
is land</w>
g h
c en
a ver
1 1
w id
stru ct
so l
ri al</w>
re qu
pre s
kno wn</w>
c el
bla ck</w>
ta ils</w>
t t</w>
t ar
ic a</w>
gre at
dr .</w>
der n</w>
const ell
wo od</w>
si ons</w>
qu els</w>
p h</w>
loc ated</w>
h im
es e</w>
sho w
sh a
s po
produc t</w>
or ?</w>
in di
ful l</w>
ca use</w>
architect ure</w>
v an</w>
sum mer</w>
part icip
gala x
d ro
creat ors</w>
r o</w>
if er</w>
y s
tem per
sin ce</w>
j on
de tails</w>
compan ies</w>
/ 2
ul d</w>
tim es</w>
net work</w>
k ing
elev ation</w>
201 0</w>
19 7
tran s
run ner</w>
on ?</w>
k u
e y</w>
d in
b et
aver age</w>
yor k</w>
ty p
s an</w>
i e
g le</w>
we b
th ro
so f
i pe</w>
alb um
tr il
ke t</w>
jenn ifer</w>
1/1 /1
t el
go ver
f ar
down lo
de st
d one</w>
bel ongs</w>
19 8
1/1/ 200
tril og
re g
h ur
201 2</w>
wid th</w>
qu art
establish ment</w>
cent er</w>
cap tain</w>
c ro
3 5
’ s</w>
sh ips</w>
k ar
il ing</w>
gre at</w>
g ir
en ce</w>
c u
build ings</w>
201 5</w>
1 8
.. .</w>
t ell</w>
movi e?</w>
flo w</w>
f l</w>
cru ise</w>
co ach
c all</w>
b ec
ut ion</w>
sub ject</w>
spor t</w>
r us
r on</w>
p lan
o ff</w>
child ren</w>
c ho
au to
y l
trilog y</w>
er up
rec ipe</w>
j er
i es
de gre
ber g</w>
ss es</w>
le t</w>
hea d
co ach</w>
b rit
an s
am az
201 3</w>
play er</w>
lo u
la st
fa ce</w>
v a</w>
th ers</w>
s how</w>
s en
ron au
galax y</w>
fif a</w>
at s</w>
al d</w>
p ac
m id
k il
j ason</w>
ug h</w>
ru n</w>
pe ar
mo ther</w>
lo y
jo b</w>
categ ory</w>
v ac
ric hard</w>
recor d</w>
paren ts</w>
li m
le d?</w>
him ?</w>
h eld</w>
cal led?</w>
c um
c all
ast ronau
an o</w>
ti c</w>
te ams</w>
open ing</w>
ne w
id er</w>
film ing</w>
f el
d i</w>
con tain
bon d</w>
b en
u e
ser vice</w>
pro gr
con tri
b el</w>
at ing</w>
v an
per form
mil es</w>
le vel</w>
for ce</w>
ch an
c l
bru ce</w>
bor n</w>
ar i
thre e</w>
t el</w>
spor ts</w>
sk i</w>
pub lic</w>
or ies</w>
n o</w>
head quart
d man</w>
4 0
t ex
r ated</w>
m ir
int ro
inst it
st ev
scrip t
s w
re no
m it
k id
buil t</w>
to wer</w>
sy l
s ed</w>
k ir
h en
eng ine</w>
colle ge</w>
bus in
bel ong</w>
b lo
recor ds</w>
on line</w>
ha m</w>
constell ation</w>
b an
an im
zo o</w>
w on
gol den</w>
fran co</w>
us s</w>
tho mas</w>
stu di
oc c
man ji</w>
ju manji</w>
it ion
ch lor
beg in
a k</w>
yo ut
reno wned</w>
olymp ics</w>
mo del</w>
l t
er o
el em
classific ation</w>
birth day</w>
bel ong
b lin
b ill
pre ss</w>
lan ds</w>
just ice</w>
jac k
degre e</w>
ct or</w>
c ri
200 0</w>
temper ature</w>
st on</w>
origin al</w>
m m</w>
li br
et s</w>
dat e?</w>
d .</w>
addre ss</w>
start ing</w>
soci al</w>
se y</w>
r ight</w>
n fl</w>
li sh</w>
h an
h am
char les</w>
v ing</w>
us a</w>
to m
rec e
hur ric
f ri
dea d</w>
cor respon
bo iling</w>
win ner</w>
vi r
un de
theat re</w>
t s
sh ap
p ea
ol dman</w>
o x
laun ch
in f
f y</w>
en cy</w>
d or
album s</w>
w in</w>
ro ck
p ric
mart in</w>
ill er
er al</w>
a h</w>
200 9</w>
yout ube</w>
x xx</w>
s ite</w>
g ri
f li
eu ro
and re
201 1</w>
1 0</w>
st .</w>
ric k</w>
po t
per i
p ur
o ther</w>
mus ical</w>
mem ber</w>
me dia</w>
k en
gover n
d v
broad cast</w>
b al
b a</w>
art s</w>
al i
si ble</w>
s ar
mat t</w>
in s</w>
i ma
g est</w>
f al
dea d
ch ris</w>
ato mic</w>
ag ent</w>
tw o</w>
ti m</w>
libr ary</w>
har ry</w>
fan ta
christ mas</w>
1 5
w ol
to p
the y</w>
pra ct
n it
iller mo</w>
gu illermo</w>
develop ing</w>
d ic
charact ers</w>
americ a</w>
tor o</w>
st all
s ity</w>
p lat
li ve</w>
k ?</w>
h all</w>
f -
cor por
co uld</w>
as h</w>
vi s
t an
ste ph
st ra
shap e</w>
open ed</w>
op en</w>
mel ting</w>
k o</w>
jo se
hurric ane</w>
ho tel</w>
great est</w>
g ran
g la
g h</w>
develop ers</w>
de p
blu e</w>
b l
ap pear
al ex
a ir</w>
200 8</w>
yo ung</w>
un t</w>
so und</w>
r s</w>
lit er
h er</w>
g at
co m</w>
as soci
wa sh
w est</w>
o ph
is m</w>
in c</w>
com po
bre eds</w>
acade my</w>
sp la
ser ies
scre en
re ad
on al</w>
lit tle</w>
inc lu
g a</w>
eng ine
ac c
a mount</w>
win d</w>
th ?</w>
st an
s ongs</w>
profes sion</w>
pas s</w>
no min
lon don</w>
ed y</w>
do ug
do l
co ur
yo ur</w>
ssi l</w>
ran ks</w>
h d</w>
d un
con cer
com pu
champ ion
archit ect</w>
a ff
3 0
typ es</w>
su per</w>
stall one</w>
me mo
m ill
ly n
ing re
h in
g es</w>
fo ssil</w>
emp loy
contri but
vest er</w>
re al</w>
ran ge</w>
r d
quot e</w>
qu e</w>
le g
do m</w>
d ru
. s.</w>
syl vester</w>
si r</w>
s ing
ro se</w>
ra y</w>
p l
oper a</w>
o wn
ll c</w>
ing ?</w>
il e</w>
fran c
z z
wor d</w>
ti ons</w>
te ch
t u
stev en</w>
o k
la w
ed i</w>
200 4</w>
y ear
star ring</w>
ro ad</w>
r ate</w>
ne ss</w>
n ia</w>
g am
d ri
c .</w>
an ne</w>
sour i</w>
per io
p al
mis souri</w>
lo s</w>
dv d</w>
discograph ies</w>
con t
begin ning</w>
wash ington</w>
s em
s ec
ll o</w>
kid s</w>
ingre di
doug las</w>
cla ss
ch ic
ch e
b en</w>
z u
s and
qu e
olymp ic</w>
masco t</w>
jun gle</w>
gu ar
fo unde
con struction</w>
b ran
ab le</w>
3 0</w>
w ell</w>
un its</w>
pro ject</w>
ol d</w>
no w</w>
ma in</w>
log y</w>
le on
ju d
compos ers</w>
c a</w>
bac k</w>
apo llo</w>
s en</w>
requ i
n y
la dy</w>
ir o</w>
igh ts</w>
g l
et h</w>
establish ed</w>
do u
comp let
bro wn</w>
at or</w>
app ear</w>
w a</w>
vil le</w>
v is</w>
ur y</w>
th or</w>
sur face</w>
oc cur
mi ke</w>
long est</w>
kin d</w>
i al
go od</w>
erup tion</w>
ear th</w>
cal i
c ir
architect ural</w>
9 9
t un
ow ner</w>
occ up
mo d
k y</w>
identi fy</w>
i el</w>
gra vity</w>
go og
flo or</w>
enti al</w>
ent ?</w>
di spla
ch er</w>
at lan
. com</w>
wo man</w>
vo ice</w>
ul a</w>
st one</w>
s ac
ri de</w>
r or</w>
nic o
l ed</w>
k at
ho n
ch u
blin dern</w>
200 5</w>
w an</w>
ta ble</w>
sco tt</w>
n er
comple tion</w>
c e?</w>
ast ro
ar ds</w>
amaz on</w>
ug h
sp an</w>
s el
s ab
m un
m al
launch ed</w>
k es</w>
ic h
d ash</w>
d am
c ket</w>
c amp
a i
won der</w>
u d</w>
sp ider</w>
sh er
s :</w>
pric e</w>
manufacture r</w>
lin es</w>
la bel</w>
k le</w>
j es
j edi</w>
j ean</w>
ho ne</w>
goog le</w>
f c</w>
eng ers</w>
curren cy</w>
c ks</w>
au to</w>
a ren
ste ve</w>
s y</w>
ri es</w>
p in
p et
out side</w>
me th
jose ph</w>
i ii</w>
har dy</w>
fo und</w>
compu ter</w>
ar my</w>
al so</w>
ag o</w>
v al</w>
so lu
sk y</w>
show man</w>
s -
re public</w>
p s</w>
o us</w>
ne t</w>
it y?</w>
hi story</w>
h ic
gr a</w>
g g
f ed
ent ly</w>
eng lish</w>
1/1/19 9
willi ams</w>
spec im
scrip t</w>
po lit
kir k</w>
f ig
d y
cali for
a sh
vi ii</w>
tw are</w>
steph en</w>
stat ist
sof tware</w>
se t</w>
s us</w>
ro o
rel ig
re ti
pre mi
g s</w>
f alls</w>
e duc
du e</w>
di ed</w>
den sity</w>
chlor ide</w>
ch est
b and</w>
ann a</w>
8 0
vi l</w>
to ur</w>
ro b
mo v
mar vel</w>
man n</w>
low er</w>
k he
identi fi
fu l</w>
fran k</w>
c ess
bu rial</w>
sp ac
pre quels</w>
min ist
jon es</w>
hy dro
ge o
du ction</w>
dru g</w>
d wayne</w>
co unt</w>
call ing</w>
c am
ber ry</w>
ar do</w>
ter a</w>
t am
stre et</w>
sp ir
sci enti
m r.</w>
int er</w>
instit ute</w>
ho st</w>
e ing</w>
dur ation</w>
c amer
b ies</w>
as s
ac id</w>
wel come</w>
und er</w>
stu dy</w>
script writer</w>
ran ked</w>
produc ers</w>
ne gra</w>
lyric ist</w>
is lands</w>
id a</w>
headquart ers</w>
g al
dest in
con way</w>
su p
su l
sp in</w>
si an</w>
s ,</w>
per f
nomin ated</w>
mar ine</w>
k y
k er
ho st
gre en</w>
enn is</w>
dra g
del ta</w>
ct or
complet ed</w>
clo sed</w>
b alls</w>
an cy</w>
al th</w>
we en</w>
vi ation</w>
t ic
statist ics</w>
so uth</w>
ser v
se e</w>
s l
s es</w>
ri ed</w>
publish ers</w>
o t</w>
mis si
lin col
li ber
last est</w>
jack son</w>
j r.</w>
high er</w>
euro p
downlo ad</w>
da mon</w>
d k
correspon ds</w>
concer t</w>
bir d</w>
beg in</w>
be come</w>
b o</w>
1 2</w>
. c.</w>
tit an
ri c</w>
pro cess
perf ect</w>
pan tera</w>
off ice</w>
ma c
m ean</w>
k m</w>
k id</w>
i el
guar di
fil e</w>
f ic</w>
dist ance</w>
cen sus</w>
califor nia</w>
busin ess</w>
bo y</w>
bo b</w>
ann i
am i</w>
ad a</w>
un it</w>
u n</w>
tra ct</w>
re ?</w>
po lic
po int
p on
mag ic</w>
m ig
lar gest</w>
ke vin</w>
jo ur
jac k</w>
i sh
ch ina</w>
ch ie
a c</w>
y ard</w>
v en</w>
u el</w>
sp ar
sor t</w>
solu bil
rece iv
re y</w>
re d
no t
li ke</w>
identifi er</w>
gir l</w>
fa st</w>
f at
e qu
dur ing</w>
d an</w>
cent ral</w>
cal ories</w>
ca ge</w>
bo eing</w>
af ter</w>
200 6</w>
1/1/1 8
tit ude</w>
ti al</w>
spec ial
ser ved</w>
scienti fic</w>
s la
re sort</w>
re ment</w>
p age</w>
oph er</w>
o wned</w>
mo uth</w>
lou is</w>
lincol n</w>
jo e</w>
ip e
fu el</w>
feat ures</w>
f all</w>
e -
d ers</w>
bur gh</w>
ag ency</w>
ad vis
ad es</w>
200 7</w>
1 6</w>
v inc
spo ken</w>
si a</w>
sh or
r um
pre vent
pit ch</w>
or der</w>
nam e?</w>
m pa
m ed</w>
h its</w>
h il
ed ward</w>
christ opher</w>
ch ur
bla de</w>
ber lin</w>
2 0</w>
wat ers</w>
super man</w>
ste in</w>
part y</w>
n ell</w>
d al
colle ction</w>
class ics</w>
ch as
c lar
bat man</w>
b un
am ?</w>
al titude</w>
al ities</w>
ver se</w>
ta ken</w>
spec ies</w>
sp ea
solubil ity</w>
sk y
pot ter</w>
o s
n ed</w>
j ect
inclu ded</w>
govern ment</w>
for e</w>
fanta sy</w>
f red</w>
f la
en e</w>
e bb
dis eas
de ?</w>
c ame</w>
at a</w>
astro no
art work</w>
6 0</w>
1 1</w>
% 2
z e
war ri
w est
so u
s k</w>
ry an</w>
ro dr
ri o</w>
ph ys
p s
orb it</w>
mpa a</w>
l s</w>
l am
j ane</w>
ho ur</w>
f a</w>
di son</w>
cap ac
b le
addre sses</w>
ur a</w>
ro w</w>
quot ation</w>
lt d.</w>
l l</w>
id ent</w>
gen eral</w>
gen e</w>
g iv
g en</w>
ell s</w>
ell a</w>
desig n</w>
d ates</w>
corpor ation</w>
bel l</w>
b s</w>
av engers</w>
7 0</w>
0 .
who se</w>
w er
val ue</w>
ur i</w>
u .s.</w>
the ft</w>
t ill</w>
sp ring</w>
sat ur
respon sible</w>
n ar
mic ro
j im
g ers</w>
ebb ing</w>
ea red</w>
displa c
compet ition</w>
clo ud</w>
cinematograph y</w>
bo ards</w>
bill boards</w>
belong ?</w>
be fore</w>
1 6
year s</w>
wat er
us es</w>
um in
tel ep
stu d
so dium</w>
r in
pr inc
play s</w>
particip ated</w>
or i
ne l</w>
ha w
flo ors</w>
fer red</w>
f le
ect ed</w>
e y
e k</w>
ba y</w>
app eared</w>
ac t</w>
5 /
4 5
1 5</w>
%2 f
w inter</w>
v o</w>
tech no
sub marine</w>
se quels</w>
roy al</w>
on ey</w>
lo w</w>
jer ry</w>
c le</w>
an n</w>
an g</w>
vir g
ton y</w>
t le
st ic</w>
st a</w>
run ning</w>
rodr ig
ri f
re r</w>
re gu
pre gn
ph a</w>
perform ed</w>
pac if
p ir
lor d</w>
kil o
k enn
invent or</w>
et y</w>
ero id</w>
compos ed</w>
bas ket
au str
ath let
at ed?</w>
ast eroid</w>
a lan</w>
8 0</w>
wh ats</w>
w e</w>
telep hone</w>
t ?</w>
st em
pit ts
o f
le gen
ingredi ents</w>
g ab
form ula</w>
fo re
fir e</w>
en g</w>
elect ron
dead line</w>
cinematograph ers</w>
ch i</w>
ch a
c er</w>
bri an</w>
bec ame</w>
basket ball</w>
ad vent
ad o</w>
a x
a qu
y u
win n
ut es</w>
th ing</w>
t ti
stor my</w>
sec re
run s</w>
pregn ancy</w>
pitts burgh</w>
per son
pacif ic</w>
oc ean</w>
n ut
mon d</w>
mar tial</w>
m s
it ions</w>
in du
hea d</w>
g y</w>
es ?</w>
ent ed</w>
emp ire</w>
di am
da ys</w>
bo x</w>
astronau t</w>
an der</w>
3 5</w>
ta il</w>
t i</w>
sour ces</w>
sc ar
s us
mo a</w>
met e
leon ardo</w>
king dom</w>
jud icial</w>
j an
ig h</w>
h an</w>
g all
fif ty</w>
er n
de struction</w>
dar k
champion ships</w>
angel o</w>
al pha</w>
1 4
1 3</w>
wi k
v es</w>
um es</w>
to ur
t ele
sh ades</w>
sac rif
sacrif ice</w>
s un
ro cket</w>
r ms</w>
polic e</w>
play ing</w>
n s</w>
mo on</w>
le st</w>
is su
in fin
giv en</w>
elect ron</w>
e p</w>
dun kirk</w>
discograph y</w>
creat ive</w>
cop y
char lie</w>
arti sts</w>
ad am</w>
acc ident</w>
ab bre
3 d</w>
3 .
z a</w>
y an</w>
v enti
ti onal</w>
ster io
sh ir
sh ar
s le
s it
s et
ra gn
ragn ar
ragnar ok</w>
occur rence</w>
nor th</w>
lim ited</w>
j am
is p</w>
il ity</w>
i er</w>
g is
g il
fli x</w>
dist ric
di c</w>
dep th</w>
compo und</w>
chur ch</w>
c ut</w>
boo k?</w>
bas in</w>
austr al
a .</w>
1 /
war ner</w>
ve hic
vac ant</w>
ter ry</w>
st ation</w>
sh e
po wer</w>
mar s</w>
liber ty</w>
l t</w>
il i
hea vy</w>
fir m</w>
en er
d u</w>
contain s</w>
cle vel
bro thers</w>
b ab
vi ctor
v or
ue z</w>
th y</w>
techno logy</w>
series )</w>
sc ale</w>
rodrig uez</w>
ri son</w>
r am
quot es</w>
pr in
pp i</w>
par is</w>
or a</w>
nico las</w>
intro duction</w>
in i</w>
in form
ic o</w>
g as</w>
founde ds</w>
found ation</w>
f un
europ ean</w>
e th
do g</w>
displac ement</w>
cul a</w>
cap it
bri d
bi o
ast er</w>
af ric
- 0
tra cks</w>
titan ic</w>
ste w
st and
specim ens</w>
sa m</w>
rel ation
receiv ed</w>
radi us</w>
p ap
occup ation</w>
net flix</w>
na vy</w>
mo moa</w>
mete or</w>
mat the
lyric s</w>
k i
ir on</w>
intro duc
i vity</w>
h it
g an</w>
fic tional</w>
f en
f .c.</w>
en a</w>
dra cula</w>
do m
chie f</w>
c ed</w>
bo ard</w>
at ory</w>
ar s</w>
abbre viation</w>
a i</w>
3 3</w>
2 5
1 7
y l</w>
y a
vide o
ty pho
typho on</w>
t emp
sur vi
struct ure</w>
ser vi
ro ll
pro file</w>
peri od</w>
oper ating</w>
on a</w>
off ic
mov ement</w>
matthe w</w>
ma dison</w>
m .</w>
j a</w>
id en</w>
i x</w>
guardi ans</w>
de part
dan iel</w>
copy right</w>
capac ity</w>
bre ak</w>
ba by</w>
b is
ale x</w>
ac k</w>
35 mm</w>
win do
w ing</w>
tal lest</w>
sy stem
sty les</w>
stew art</w>
ssi um</w>
son y</w>
so ft</w>
san ta</w>
ri st</w>
reti rement</w>
plat form</w>
nam ed</w>
ma r</w>
kin s</w>
introduc ed</w>
g or
fre d
franc is</w>
er son</w>
ent ary</w>
el iz
bas e</w>
astronau ts</w>
aren a</w>
ad el
0 .0</w>
yl or</w>
wik ipe
wh e
und er
screen writer</w>
s ean</w>
radi o</w>
pract ition
ph ia</w>
perio dic</w>
pe z</w>
off spring</w>
o ver
nit ude</w>
mo dern</w>
min utes</w>
mag nitude</w>
ma y
loc khe
lo st</w>
li st
le ?</w>
in es</w>
ima l</w>
fro n
e state</w>
drag on</w>
dist ri
contribut or</w>
comple te</w>
clevel and</w>
ch el
c ing</w>
bla ck
bi e</w>
a -
2 6
y el
to ?</w>
t t
t ennis</w>
st ron
se con
rel l</w>
olymp i
nation s</w>
m ul
loc ated?</w>
lo ck</w>
liter ature</w>
le ss</w>
ir a</w>
infin ity</w>
h un
gol d</w>
g ent
fre e</w>
fre e
fo c
ele ction</w>
dis sol
diam eter</w>
chic ago</w>
ca pe</w>
c at</w>
ar th
ad minist
1 .
- 10
y land</w>
wikipe dia</w>
wal t</w>
vol ume</w>
vinc ent</w>
to wn</w>
thro ugh</w>
ther n</w>
sum mary</w>
stor m</w>
spea k</w>
sp ect
si mp
que en</w>
progr ams</w>
premi ere</w>
pir ates</w>
micro soft</w>
m es</w>
m ?</w>
log ical</w>
lo pez</w>
kilo meters</w>
k al
jour n
i p</w>
h im</w>
gu ide</w>
g au
fl or
ec ra
discovere r</w>
di a
destin ation</w>
d son</w>
d d</w>
cla ude</w>
ch ap
c ities</w>
ar a</w>
an th
an imal</w>
aff ected</w>
3 7
w it
tom b</w>
ta ylor</w>
t ure</w>
run time</w>
relation ship</w>
re st
rat io</w>
pro vi
prin ce</w>
por tra
out flow</w>
mo bil
mer cur
lockhe ed</w>
ju li
iz ation</w>
it a</w>
i -
f ame</w>
ent in</w>
en ds</w>
e ver
di vi
com mon</w>
coach ed</w>
classific ations</w>
camer on</w>
bur g</w>
bon us</w>
b ia</w>
associ ated</w>
acade mic</w>
a il
a du
3 /
x o
w ers</w>
w all</w>
ur us</w>
st ers</w>
sp iel
satur n</w>
s ell</w>
relig ion</w>
re ss</w>
prevent ion</w>
o ver</w>
mur der</w>
mi x</w>
mi sterio
mercur y</w>
k ans
j .</w>
int en
i v</w>
gol f</w>
fi ed</w>
f ren
er s?</w>
do b</w>
dic ap
dicap rio</w>
cost umes</w>
ci al</w>
cent re</w>
car ol
auth ors</w>
au gh
ation al</w>
as cen
ar med</w>
ant ino</w>
ab eth</w>
4 9</w>
2 7
y an
warri ors</w>
u k</w>
top ic</w>
to ok</w>
tar antino</w>
ssi ppi</w>
re t
pre ferred</w>
ph an
nor ton</w>
nat al
misterio so</w>
missi ssippi</w>
min imum</w>
met ro
ment s</w>
manufact ured</w>
m es
legen d</w>
le w
la ce</w>
l ight
inst rum
hen ry</w>
h n</w>
h all
ger man</w>
g ate</w>
ex press</w>
elem ents</w>
distric t</w>
de gis
cum ul
con ta
com mon
brit ish</w>
ber n
b au
ag u
2 4</w>
1 7</w>
y er</w>
wat son</w>
war f
w ic
w d</w>
vol can
vie ws</w>
victor ia</w>
tele vision</w>
te en</w>
t ig
sh i</w>
ser ve</w>
sa int</w>
qu entin</w>
pl us</w>
mar ried</w>
k ong</w>
j ap
in flow</w>
et te</w>
ell o</w>
e e</w>
do ctor</w>
de x
dddd dddd
dar k</w>
da m</w>
d ance</w>
b us</w>
b li
b ers</w>
alex and
air lines</w>
a wa
a ve
3 9
2 5</w>
19 5
we alth</w>
tex t</w>
su n</w>
secre t</w>
s er</w>
ro man
ren t</w>
pur chas
organiz ations</w>
mo ti
ma y</w>
low s</w>
l ing</w>
l ight</w>
k ur
k an
ist on</w>
invent ed</w>
inform ation</w>
go ing</w>
fig ur
fed er
eliz abeth</w>
d ney</w>
curren t</w>
con si
com man
car ri
bu ff
arth ur</w>
ar man
ag an</w>
ad ap
a y</w>
/1 /
' t</w>
zu ki</w>
v in
te am?</w>
st ri
sp ect</w>
sci ence</w>
s man</w>
re view</w>
produc er?</w>
por t
phil adel
orb ital</w>
mon y</w>
mon t
manufacture rs</w>
ma iden</w>
let t</w>
l is</w>
kans as</w>
ing er</w>
i us</w>
host ed</w>
he art</w>
har ris</w>
hal f</w>
h ill</w>
f ut
f ra
direct or?</w>
d as</w>
common wealth</w>
coach ing</w>
ch in
ch es</w>
c lim
c it
bro s.</w>
b all
ant on
act ions</w>
4 7</w>
1 4</w>
windo ws</w>
w ish</w>
virg in
v ar
uni verse</w>
u ch
sp r
servi ces</w>
sc ore</w>
s ung</w>
ro t
ro e</w>
releas es</w>
read ing</w>
re tail</w>
progr am
profes si
practition ers</w>
mis sions</w>
liter ary</w>
li bre
k ill
jim my</w>
j or
i mag
har rison</w>
f igh
ex p
er n</w>
em ma</w>
dou ble</w>
dea th?</w>
count ries</w>
con n
chu ck</w>
christ ian</w>
chan nel</w>
cal ci
ca r</w>
c c</w>
broad cast
ban k</w>
augh ter</w>
angel es</w>
ag e?</w>
advis or</w>
4 .
199 6</w>
19 6
00 0</w>
z er</w>
y n</w>
y d</w>
xo don
xodon ta</w>
venti ons</w>
tri bu
tre k</w>
to ge
toge ther</w>
ta ssium</w>
so me</w>
sil ver</w>
s n
requi red</w>
r i</w>
pre p
prep are</w>
po tassium</w>
of ?</w>
ob ama</w>
o h
mar kle</w>
lo xodonta</w>
lew is</w>
kno t
john ny</w>
jo se</w>
il le</w>
hol ly
h p</w>
gh an</w>
ger many</w>
g lo
fren ch</w>
fo x</w>
fic tion</w>
feat ure</w>
er y</w>
engine er</w>
dre w</w>
dest roy
de vice</w>
cour t</w>
c on</w>
bet ween</w>
be ing</w>
b ing</w>
b ig
atlan ta</w>
associ ation</w>
andre w</w>
and a</w>
a in</w>
" "</w>
" ""</w>
web page</w>
wal ter</w>
video game</w>
vi i</w>
v ino</w>
v ers</w>
v ari
us h
t ly</w>
sy dney</w>
sul f
su zuki</w>
studi os</w>
spiel berg</w>
scho ol
s mo
po st
phan tom</w>
o li
ne gat
mc don
ma il</w>
ma ch
libre tti
law rence</w>
k el
ish ed</w>
inc ep
in vol
ha pp
gu it
f lu
ener gy</w>
don na</w>
d le</w>
con tra
con figur
ch rist</w>
ch o</w>
ch air
b y
auto mat
ath le
and y</w>
a way</w>
wel les</w>
val ley</w>
v i</w>
us er</w>
ur l</w>
tex as</w>
shor t</w>
sho wer</w>
roo m</w>
qu ant
pres ented</w>
polit an</w>
philadel phia</w>
or son</w>
o u
ne x
natal ie</w>
men 's</w>
me ghan</w>
manag ement</w>
m ing</w>
lo t</w>
ion ?</w>
ight ?</w>
her cul
hercul es</w>
han ks</w>
go d
gir ls</w>
geor g
g ar</w>
fin ished</w>
ent ity</w>
e m</w>
develop ed</w>
d c</w>
d aughter</w>
co ck</w>
boo k
bac k
b in
ar ch</w>
anni hil
an ces</w>
8 /
6 0
5 0
2 /
2 .
z en</w>
y n
writ er?</w>
wor th</w>
wo men</w>
wil d</w>
wh it
virgin ia</w>
ue fa</w>
th i
th a</w>
t .</w>
sy n
sp an
s ons</w>
re sid
re k</w>
r ation</w>
princ ess</w>
person ?</w>
or chest
nic k</w>
mir a</w>
metro politan</w>
memo rial</w>
ill a</w>
guit ar</w>
go als</w>
fir ms</w>
fat alities</w>
educ ational</w>
ear li
dk dk
discovere d?</w>
dark est</w>
d ry</w>
classi c</w>
ck y</w>
ch am
car din
bu ll
bo x
bo at</w>
bat tle</w>
annihil ation</w>
anim als</w>
an iston</w>
act ress</w>
200 2</w>
1 8</w>
water fall</w>
vi k
tho use</w>
theat er</w>
th s</w>
sto ck</w>
ster n</w>
se arch</w>
ra bb
min or</w>
mil it
mic hig
michig an</w>
med al</w>
ma ster</w>
log o</w>
lar ge</w>
k or
k in</w>
ject s</w>
ja ke</w>
indu st
her o
flor ida</w>
do w</w>
diseas e</w>
conta ct</w>
col um
chair man</w>
ce re
bro n
act ive</w>
a 3
2 8
2 1</w>
1 3
/19 9
z er
x i</w>
wil son</w>
vo y
ve y</w>
v on</w>
sor vino</w>
si mon</w>
secon d</w>
ro negat
ri ous</w>
r ich</w>
p lu
ne so
n as
mon roe</w>
min neso
manag ing</w>
lea der</w>
jer sey</w>
incep tion</w>
in vest
ich iro</w>
ho mo</w>
h at
gre y</w>
gran t</w>
for ?</w>
foot balls</w>
fo ur</w>
fi ve</w>
ess es</w>
ell y</w>
elect ronegat
ecra ft</w>
dom est
discovere rs</w>
di t</w>
di men
di es</w>
d ame</w>
cent ury</w>
categ ories</w>
bu l
beg an</w>
ax is</w>
app le</w>
w ick</w>
v s</w>
trans vers
ti l</w>
sy no
spir it</w>
soci ety</w>
sh e</w>
sar ah</w>
s ea
ro ger</w>
reg ion</w>
recor ding</w>
po st</w>
ox ide</w>
or ity</w>
ne ed</w>
mod els</w>
mis s</w>
milit ary</w>
memo ry</w>
mc go
m ical</w>
lyn n</w>
k night</w>
in -
i a
ho u
headquart er</w>
gro und</w>
fron t</w>
fal con</w>
fa c
et t</w>
et a</w>
e con
econ o
downlo ad
d ley</w>
cont ent</w>
compos ition</w>
champ ion</w>
c ele
bro ok
appear ances</w>
ans son</w>
ang le</w>
all en</w>
7 7
y e
we igh</w>
w ell
ur s</w>
univers al</w>
tur n</w>
system s</w>
sam uel</w>
s we
rel ated</w>
re st</w>
re gar
ra m</w>
plu to</w>
ph y</w>
on y</w>
ob serv
mi ami</w>
mcgo wan</w>
mcdon nell</w>
l igh
king sman</w>
kenn edy</w>
k ers</w>
jes us</w>
indi ana</w>
if ic
holly wood</w>
ha y
gre g
gen res</w>
gar den</w>
form ed</w>
en ded</w>
e b
di ana</w>
dam me</w>
d ean</w>
ch eng</w>
ca b</w>
c lin
c ia</w>
bu la</w>
bo ys</w>
astrono mical</w>
6 5</w>
- 2</w>
z el</w>
wi th
vi a</w>
up s</w>
ter min
sh ut
scar lett</w>
sa y
s u</w>
releas ed?</w>
read y</w>
re d?</w>
qu el
ph en
p a</w>
no t</w>
ne bula</w>
mo ney</w>
mit ch
med ical</w>
mar ia</w>
lin d
li e
l en
k rist
journ al</w>
joh ansson</w>
in sur
in de
ho ld</w>
he im</w>
h a</w>
great er</w>
er ing</w>
employ ment</w>
dat ing</w>
curren tly</w>
configur ation</w>
com ing</w>
ci er</w>
car ol</w>
call ed</w>
c ent</w>
busin esses</w>
buil der</w>
bo t
bo m
bea ch</w>
as ?</w>
ar no
an a
amaz ing</w>
am ing</w>
al li
al bert</w>
adap t
z ine</w>
winn ers</w>
ven ue</w>
ve gas</w>
v a
ugh t</w>
tra il</w>
the m</w>
t or</w>
spec ial</w>
si z
se ven</w>
sco red</w>
s v
rock ets</w>
ro ss</w>
ro oney</w>
ri an</w>
quant ity</w>
pri mary</w>
po ol</w>
po ke
pla ce?</w>
on ly</w>
ol a</w>
n el
manag er</w>
lin s</w>
li fe
j ess
invol ved</w>
in ed</w>
hu man</w>
ho ward</w>
gu l
g un
form er</w>
fi sh
fa ir
f ly</w>
eg o</w>
e k
de rek</w>
cri min
com mun
cent a
bur ton</w>
awar ded</w>
automat ive</w>
athlet ics</w>
ar o
ar i</w>
ang el</w>
an y</w>
an ts</w>
advent ures</w>
a b</w>
5 0</w>
2 2</w>
vi ch</w>
un til</w>
u al</w>
tribu te</w>
the ory</w>
th or
th er?</w>
sup por
stre am</w>
stra ct</w>
spon so
sponso red</w>
s no
r d</w>
pri ze</w>
pri se</w>
poke mon</w>
per man
p sy
olympi ad</w>
olymp ia</w>
my ster
moti ve</w>
minneso ta</w>
mill er</w>
med ic
m tv</w>
je ff</w>
is s
i b
hit ch
gu y</w>
graph y</w>
fu rious</w>
fri ends</w>
found ers</w>
f ips</w>
f er</w>
f -1
en z
electronegat ivity</w>
el der</w>
educ ation</w>
edit ors</w>
e ,</w>
do or</w>
d l
compet ed</w>
com edy</w>
cir cle</w>
cinem a</w>
cere mony</w>
bat ting</w>
appear ance</w>
anth ony</w>
al umin
ab stract</w>
a than</w>
8 1</w>
7 /
4 /
2 .0</w>
writ e</w>
w iz
vel y</w>
us ement</w>
um p</w>
tel es
ss ing</w>
special ization</w>
si x</w>
sc or
sa y</w>
ri m</w>
ri a</w>
rd -1
qu i
point s</w>
po la</w>
pat rick</w>
ori ent</w>
op er</w>
no lan</w>
n ific
mor gan</w>
mobil e</w>
masco ts</w>
ma ze</w>
ma ga
m l</w>
m it</w>
lyn ch</w>
ly n</w>
li sa</w>
k n
ju lie</w>
jon athan</w>
j en
ition ?</w>
indi an</w>
ho pe</w>
ha v
h ms</w>
h ill
g if
fran ce</w>
fic ation</w>
eng land</w>
electron ic</w>
ea l</w>
down s</w>
do wn</w>
di g
de t
con ne
champion ship</w>
ch er
ch en</w>
ch e</w>
can ada</w>
cal or
c li
c art
buff al
br a</w>
bill y</w>
bat tle
b les</w>
b an</w>
b al</w>
av ail
arman do</w>
am usement</w>
ag a</w>
6 6</w>
6 /
3 2</w>
2 4
x ton</w>
wi tho
witho ut</w>
warf are</w>
w w
ut y</w>
un a</w>
ther ine</w>
tea cher</w>
tal es</w>
sub mission</w>
stron g</w>
st rat
spar knot
sparknot es</w>
shut tle</w>
sho ws</w>
seas ons</w>
sat ell
s lo
rus sell</w>
rabb it</w>
r b</w>
ps is</w>
perman ently</w>
perform er</w>
p y
p us</w>
o h</w>
ne s
ne ed
mo ved</w>
ma d</w>
la u
k ill</w>
jess ica</w>
j o</w>
j i
j ar
it ude</w>
it al
insur ance</w>
in ventions</w>
im ent</w>
il lu
hou ston</w>
hor se</w>
ho me
her o</w>
h ed
georg ia</w>
fli es</w>
f on
f ight</w>
ex peri
es rb</w>
es cape</w>
ep tions</w>
ea gle</w>
e vil</w>
don ald</w>
distri bu
dire ct</w>
cop pola</w>
com mission</w>
car rey</w>
c key</w>
c as</w>
bea uty</w>
b c</w>
at ?</w>
a h
9 0</w>
9 /
3 8</w>
- 1</w>
y -
wol f</w>
v amp
up on</w>
tr a</w>
t il
syno psis</w>
stre aming</w>
sof ia</w>
so x</w>
sh a</w>
series ?</w>
se x</w>
sand ler</w>
sam sung</w>
sa int
s i</w>
run ner
ro ber
ri dge</w>
ra il
phys ic
phil li
on es</w>
num ber
muse um
mo ore</w>
meth od</w>
ma l</w>
log an</w>
lin i</w>
ligh thouse</w>
k u</w>
je ff
ima ge</w>
illu str
hy dr
hu dson</w>
hol mes</w>
hi b
gri p</w>
graph ic</w>
gen re?</w>
g et
g are
fran k
found er?</w>
fin ish</w>
episo des</w>
enn a</w>
ea stern</w>
e a</w>
e .</w>
de d?</w>
cumul us</w>
cul ture</w>
contain ed</w>
consi sts</w>
clo se</w>
calci um</w>
c v
bo ur
bo b
bar ack</w>
arno ld</w>
a la
7 1</w>
5 .
4 /1
3 9</w>
197 4</w>
00 .0</w>
zo o
w ski</w>
ur o</w>
tra il
tour nam
t ale</w>
sy mp
so lar</w>
si um</w>
sher lock</w>
scre en</w>
re mix</w>
re ad</w>
rat ive</w>
process or</w>
pres ent</w>
pla n</w>
phil ip
pa xton</w>
observ atory</w>
nor th
n u
n ile</w>
n c
mic hel
met ro</w>
ma ver
m uni
loc ations</w>
leng th?</w>
k g</w>
jo an</w>
im er</w>
i ed</w>
h t
gen er
g y
f ts</w>
ev es</w>
er i
elem entary</w>
du ty</w>
dre am
dig ital</w>
depart ment</w>
da vis</w>
correspon ding</w>
co u
co st</w>
clar k</w>
ch i
car d</w>
calor ie</w>
bus h</w>
bor n
bo ston</w>
blo od</w>
ba d</w>
b lan
b i</w>
ar kansas</w>
al fred</w>
adapt ations</w>
9 7
199 9</w>
199 5</w>
10 0</w>
zz ard</w>
yan ke
y ang
y ,</w>
x x
wor k?</w>
west ern</w>
w ing
to uch
tit led</w>
ti sta</w>
th ings</w>
ten ded</w>
t ut
t at
t ag
stand ard</w>
satell ite</w>
sab ath
sabath ia</w>
ron ald</w>
po l
par a
p uni
p .</w>
oper ation</w>
o m
o f-
nex t</w>
n d</w>
mur phy</w>
mil li
maga zine</w>
ma la
m um
lan d
la w</w>
ja y</w>
i do
i bb
he art
h unt
gen o
fred die</w>
fac ility</w>
fa r</w>
f ury</w>
f s</w>
f at</w>
experi ence</w>
e ful</w>
do cum
de ep</w>
da ily</w>
d ick</w>
cy cl
cru is
crimin al</w>
co pe</w>
chest er</w>
cast le</w>
can on
buffal o</w>
brid ges</w>
bac h</w>
ba chel
b ed
ari ane</w>
anim ated</w>
al ing</w>
7 0
4 9
4 5</w>
3 4</w>
20 49</w>
z y</w>
wil ight</w>
tournam ent</w>
teles cope</w>
t wilight</w>
t is</w>
stan ley</w>
sta red</w>
sil ent</w>
sh ip
s ong
ro y</w>
rin kle</w>
ra y
ra p
ra ider</w>
puni sh
or ion</w>
o z</w>
o wn</w>
myster y</w>
muni z</w>
mo le
mo l
mar ch</w>
m el</w>
light ning</w>
li am</w>
l .</w>
k .</w>
k ,</w>
instit ution</w>
inde pen
ic ar
i i
hor ror</w>
ho ckey</w>
hitch cock</w>
ger ald</w>
gen der</w>
g one</w>
g io
founde d?</w>
for t</w>
f low
ever y
ed die</w>
e i</w>
e ers</w>
du ck</w>
distribu tion</w>
di o</w>
di an</w>
dex tro
ct ed</w>
cre m
conn ors</w>
com mer
cardin als</w>
capit als</w>
canon ical</w>
brook lyn</w>
blu es</w>
bau tista</w>
bachel or</w>
b ble</w>
at o</w>
ar gent
and ro
ali en</w>
a mo
8 7
4 1</w>
1/1/19 8
z inc</w>
yang t
yangt ze</w>
y p
we igh
w y
un ion</w>
u ary</w>
u ally</w>
tun e</w>
tre ss</w>
transvers ed</w>
trans form
tra ck
th r
th al</w>
sulf ur</w>
sl ams</w>
s und
ro w
ro ute</w>
regu lar</w>
rece ive</w>
qu it</w>
pr int</w>
pos itions</w>
pi er
ph i</w>
p per</w>
origin s</w>
ni k</w>
nat ural</w>
mig uel</w>
mar yland</w>
ma s
ma in
ma donna</w>
ma c</w>
lo t
lat ive</w>
k it
is a
inf ant
gu n</w>
gu ard</w>
fut ure</w>
fa ther?</w>
ex hib
et ?</w>
est im
ea st
di ego</w>
con tain</w>
con sum
ca th
bro o
brit ain</w>
b on</w>
auto motive</w>
atlan tic</w>
ar ium</w>
ar ies</w>
ann y</w>
ann i</w>
an -
am ine</w>
am ent</w>
al one</w>
afric a</w>
5 5
4 2</w>
200 1</w>
web site</w>
wa h
val er
v ent</w>
u k
t v
t et
survi v
sub titles</w>
span ish</w>
sound tracks</w>
si mil
shir t</w>
sh ell</w>
script writers</w>
s .
rus sian</w>
rob in</w>
ro ss
rel la</w>
rec ently</w>
rat ing?</w>
r ?</w>
pu t</w>
produ ce</w>
presid ential</w>
portra it</w>
pen gu
p le</w>
p ad
ob served</w>
o sts</w>
ne il</w>
met er</w>
mar gare
manu el</w>
mag ne
m in</w>
m b
m all</w>
lo sses</w>
libretti st</w>
leg is
lat er</w>
lan e</w>
jap an</w>
j eter</w>
infant ry</w>
ho t</w>
her man</w>
he ights</w>
hal lo
h o</w>
h art
gre g</w>
g d
franc is
fed eral</w>
f ly
ep or
en n</w>
ea st</w>
e f</w>
do s</w>
dis aster</w>
de s
dal las</w>
d t</w>
d r</w>
cycl one</w>
consum er</w>
co ver</w>
ca sp
ca se</w>
bun ning</w>
br ight
big gest</w>
ato s</w>
as cent</w>
architect s</w>
app a</w>
andre as</w>
alex ander</w>
6 4</w>
1/1/19 5
- 5
z el
wo od
wil d
wic ked</w>
w rinkle</w>
w ed
w ea
vol .</w>
vik ings</w>
vie wer</w>
v re</w>
v on
v .</w>
ti fication</w>
tho mp
thomp son</w>
th ames</w>
t man
t ers</w>
stu art</w>
struct ural</w>
sta dia</w>
st ran
st in</w>
sou thern</w>
sor ority</w>
sin o</w>
sel f</w>
se ats</w>
s r</w>
s in</w>
ric o</w>
re turn</w>
re agan</w>
ra n</w>
plat form
phil ip</w>
pas s
p ine</w>
p ep
or an
number ?</w>
ne ws</w>
ne ar
movi e
mod ine</w>
mo lar</w>
mir ror</w>
mem ber
mar io</w>
mar in
legis lative</w>
lar ry</w>
j on</w>
invent ion</w>
in to</w>
im a</w>
ig n</w>
i or</w>
i f</w>
hallo ween</w>
h um
h i</w>
gro ups</w>
gla cier</w>
gl en</w>
g li
g ie</w>
fo od</w>
ff y</w>
fer din
er man</w>
ep er</w>
en ix</w>
ell en</w>
elect ric</w>
econo my</w>
e ce</w>
do min
di sc
den zel</w>
dea ths</w>
d b</w>
d ale</w>
cri me</w>
cra ft</w>
com es</w>
clin t</w>
ch ev
ch ann
cel est
c rit
bur n</w>
born ?</w>
bli zzard</w>
battle ship</w>
austral ia</w>
at las</w>
al -
a a</w>
a .
8 9
3 1</w>
200 9
200 8
200 3</w>
199 4</w>
1/1/19 7
1 .0</w>
wil is</w>
wh ile</w>
vamp ire</w>
und ?</w>
u x</w>
tre at</w>
tman .com</w>
tic ker</w>
th in
st ine</w>
st ,</w>
sm all</w>
screen writers</w>
sch war
s dddddddd
sdddddddd dl
s au
ro me</w>
qu a
program me</w>
pict ure</w>
per ry</w>
ot a</w>
or din
o m</w>
o ds</w>
nat ali
natali epor
nataliepor tman.com</w>
mid dle</w>
met al</w>
mem bers</w>
l ds</w>
ke y
k im</w>
jo sh</w>
is s</w>
in ity</w>
imag ine</w>
ill er</w>
i que</w>
hor n</w>
hin d</w>
he alth</w>
hav e?</w>
hall mark</w>
h it</w>
h and
gio v
gall ery</w>
fre ed</w>
f r
ep ted</w>
engine ers</w>
en ding</w>
el y</w>
e z</w>
du gg
domest ic</w>
do do</w>
dis ne
dimen sions</w>
de ep
dan ube</w>
corpor ate</w>
compan y?</w>
colum bia</w>
co oper</w>
char ge</w>
cel er
can a
c us</w>
c i</w>
blo x</w>
bl u</w>
birth date</w>
be hind</w>
at ive</w>
as e</w>
al a</w>
ag en</w>
8 7</w>
6 7</w>
6 .
40 -
19 0
yel low</w>
won der
wh y</w>
volcan ic</w>
ven us</w>
track ?</w>
ti me
the ir</w>
t z</w>
t -
stud ents</w>
si er</w>
si bl
sh el
sc ene</w>
s is</w>
s by</w>
ry p
ro l</w>
ro ad
ric al</w>
ri sk</w>
re y
re si
re ed</w>
r p</w>
publish ing</w>
pla ces</w>
pengu in</w>
particip ate</w>
pap er</w>
p il
p g</w>
p and
pand ora</w>
own s</w>
oh io</w>
offic er</w>
o dy</w>
net t</w>
n i</w>
mun icip
mon t</w>
mitch ell</w>
ma ss
loc ation?</w>
la ure
l ion</w>
ky o</w>
ko re
j an</w>
inf lu
in struction</w>
ig e
ic es</w>
i k
hon g</w>
he it</w>
gre ss</w>
g rat
g host</w>
fro zen</w>
francis co</w>
fa h
f it</w>
executi vely</w>
estim ated</w>
erup tions</w>
er ic</w>
el li
dugg ar</w>
divi sions</w>
dissol ution</w>
develop ment</w>
da wn</w>
d ine</w>
crem ation</w>
cour se</w>
centa uri</w>
casp ian</w>
ca used</w>
broad casting</w>
bre ak
bo w
athle tic</w>
astrono my</w>
architect ures</w>
an ti
an i</w>
album ?</w>
a u</w>
a spect</w>
a ar
6 3</w>
3 6</w>
3 4
2 9
197 2</w>
z z</w>
z en
writ ing</w>
w ells</w>
vi tam
vehic le</w>
vac u
touch downs</w>
ter ror</w>
spo on</w>
sp id
sol ute</w>
sno w
sla m</w>
simil ar</w>
sig ned</w>
sh u
sa la
s son</w>
s c</w>
rec eptions</w>
purchas ed</w>
pro x
pa int</w>
p lot</w>
p ed
own ers</w>
organiz ation?</w>
o z
nut ri
nel son</w>
n ie</w>
mur ray</w>
mo t
mar vin</w>
m ine</w>
k elly</w>
just in</w>
iss ance</w>
is a</w>
in o
ic k
giov anni</w>
g ive</w>
g est
fanta stic</w>
f it
ex tended</w>
enn y</w>
eng er</w>
ell er</w>
el le</w>
e vi
e red</w>
e is
e er</w>
don 't</w>
di aling</w>
den ce</w>
degis n</w>
d w
d le
d ent</w>
cre ek</w>
cor p</w>
cop per</w>
contribut ors</w>
colle ct
col ts</w>
ci l</w>
camp bell</w>
bra d</w>
b y?</w>
b -2
ascen der</w>
as cent
ar sen
anton io</w>
anim ation</w>
ak i</w>
administ rative</w>
act ors</w>
9 5
6 8</w>
1 9</w>
-1 3</w>
yanke es</w>
y e</w>
with in</w>
wal ker</w>
w is
vers ary</w>
valer ian</w>
vacu um</w>
v ine</w>
v at
ut ch</w>
un known</w>
tur key</w>
transform ers</w>
suppor ted</w>
studi o</w>
sto p</w>
st e</w>
st an</w>
spar row</w>
spac e
so da</w>
so c
sk i
sk a</w>
si m
sem i-
semi- major</w>
se at
sci en
school s</w>
s or</w>
requ est
regar ds</w>
ra w</w>
ra ssi
ra h</w>
professi onal</w>
process ing</w>
po p</w>
pi ano</w>
particip ating</w>
p el
p c</w>
oran ge</w>
ne p
na z
n inten
ninten do</w>
n ba</w>
n am</w>
mi um</w>
mi r</w>
mar sh
magne sium</w>
ma d
m am
lin ked</w>
leg al</w>
le ft</w>
la ura</w>
k an</w>
k am
j r</w>
is on</w>
i max</w>
i as</w>
ho us
h us
gre en
gr in
go d</w>
gla ss</w>
gar den
g ed</w>
fro m?</w>
fre qu
ff ic
fe et</w>
fa ce
f ine</w>
er a</w>
el vis</w>
ed mon
e es</w>
dri ve</w>
destroy ed</w>
de rella</w>
de fen
contra ctor</w>
commer cial</w>
col lins</w>
co lo
co de?</w>
classific ation?</w>
ch ess</w>
celest ial</w>
car bon</w>
c -
bu ried</w>
bro wn
bro ther</w>
bright ness</w>
bo ur</w>
bel t</w>
bat s</w>
b or</w>
b ean</w>
ast er
aqu arium</w>
anni versary</w>
angel ina</w>
andro med
and ro</w>
al ist</w>
adu lt</w>
ad er</w>
ab solute</w>
a vi
a o</w>
a e</w>
8 5
2 2
1/1/200 9</w>
% 3
y ton</w>
win s</w>
we in
wal king</w>
w .</w>
vitam in</w>
vie w
vehic les</w>
v et
ur an
typ e?</w>
tut or</w>
tor on
tom my</w>
to kyo</w>
to d</w>
th ir
ten ure</w>
ten nes
tennes see</w>
ta xi</w>
sup port</w>
su gar</w>
stan ford</w>
sp ap
sm ells</w>
ru th</w>
rot ation</w>
rest ric
ren heit</w>
reg iment</w>
re vol
re com
re ason</w>
ra in
pu er
pro te
pre par
pr o</w>
phys ical</w>
pho to
pea vy</w>
par amount</w>
p rec
p at</w>
o st</w>
no red</w>
new ton</w>
new spap
ms rp</w>
mo tion</w>
mo s</w>
member ship</w>
margare t</w>
mar i
mar c</w>
manu al</w>
m ut
m i</w>
li ons</w>
laure n</w>
l umin
k ham</w>
k ar</w>
k appa</w>
jo in</w>
je re
is sa</w>
indi ans</w>
inclu des</w>
in it
in dia</w>
in come</w>
hon or</w>
ho od</w>
hero es</w>
ha i</w>
h ann
gri ff
grat eful</w>
gra y</w>
gover ning</w>
ge un</w>
ferdin and</w>
feder ico</w>
fah renheit</w>
face book</w>
fa thers</w>
f u</w>
f rat
ent ry</w>
ect ive</w>
east wood</w>
e tic</w>
e mail</w>
e ine</w>
di r
de mo
d river</w>
d -
contri bu
compet itions</w>
col ate</w>
co co</w>
cin derella</w>
ci vil</w>
cho colate</w>
chic ken</w>
chan ge</w>
ch and
car los</w>
cana dian</w>
bu c
br y
bor o
bas es</w>
bar bar
b ren
b log
b let</w>
at or
argent ina</w>
an u</w>
al ong</w>
advent ure</w>
administ ration</w>
ac et
a y
40- yard</w>
wiz ard</w>
wing span</w>
vi su
ver y</w>
vac ation</w>
v ol</w>
uni form</w>
tri angle</w>
tra in</w>
toron to</w>
til die</w>
ti um</w>
ti ff
tiff any</w>
them es
t ons</w>
t ,</w>
studi es</w>
st ro
st and</w>
st ages</w>
so li
so ames</w>
sig nific
signific ant</w>
sha ke
sh an
ser vo
se x
sc en
saint s</w>
roy ale</w>
ro let</w>
ro d
ri ver
requ est</w>
re servo
re ese</w>
ra j
ra ce</w>
r ig
r al
puer to</w>
po mp
plan et</w>
perio d
pe t</w>
para dis
pa d</w>
p an</w>
o u</w>
o king</w>
not re</w>
nor thern</w>
n ut</w>
n ear</w>
mul ti
mil e</w>
me g</w>
mat ch</w>
m ia</w>
lind sey</w>
li s
li k
l i</w>
k -
ju an</w>
jo lie</w>
issu e</w>
influ en
in struct
i rel
i g</w>
i ev
i an
hy de</w>
high way</w>
h r
h id
gd p</w>
g t</w>
g lee</w>
fin d</w>
fin als</w>
fer rell</w>
f .</w>
ex per
ern ity</w>
er thal</w>
er .</w>
ent al</w>
ed ral</w>
ed es</w>
ec h</w>
e :</w>
download ed</w>
do gs</w>
dextro se</w>
degis ns</w>
de tro
co ordin
chev rolet</w>
ch t</w>
cath edral</w>
carol ina</w>
car l</w>
can di
c ure</w>
c c
bran ch</w>
bra z
br ight</w>
box ing</w>
be ars</w>
bab e</w>
ba st
b it
b in</w>
b ar</w>
at temp
ar ri
ap parent</w>
am y</w>
aff inity</w>
ac y</w>
ac celer
a sian</w>
8 6</w>
6 /1
-1 2
zo m
y ed</w>
y am
wi de</w>
weigh s</w>
wed ding</w>
we b</w>
voy age</w>
tri p</w>
trail er</w>
tor ch
ti on
theat rical</w>
temp le</w>
sus an</w>
stud ent</w>
stran ger</w>
spr ings</w>
soci alist</w>
soc cer</w>
show ers</w>
set ting</w>
sdddddddddl dkdk
s- up</w>
s na
s ap
runner s-up</w>
ron ic
roll s</w>
ro man</w>
ro ll</w>
ric h
ri er</w>
ri e</w>
resid ential</w>
ren e</w>
ren a
re ve
rd -10
rassi c</w>
quel ?</w>
pur su
progr am?</w>
po wers</w>
po or</w>
period ical</w>
pea k</w>
p un
p ent
on ce</w>
no te</w>
no .</w>
need ed</w>
n on</w>
mon s</w>
mo use</w>
mig -2
maver ick</w>
mar ie</w>
mar a</w>
lyric ist
low est</w>
lin da</w>
lic en
li ving</w>
li f
k ri
k ep
k ate</w>
ju rassic</w>
ja co
it o</w>
is ab
io us</w>
inter state</w>
int on</w>
int ing</w>
instrum ent</w>
igh ton</w>
id s</w>
i .</w>
hydro chloride</w>
hy e</w>
hin di</w>
h ist
h art</w>
gu id
gra ve</w>
gor don</w>
gol d
gl enn</w>
gil liam</w>
g ina</w>
fly ing</w>
fle et</w>
figh ter</w>
far go</w>
fa ir</w>
f em
every thing</w>
em s</w>
el a</w>
edmon ton</w>
eas e</w>
e o</w>
dis h</w>
di vor
di e?</w>
de z</w>
da d</w>
col or
cl utch</w>
cart er</w>
ca u
ca ball
caball us</w>
c ry</w>
c ity?</w>
c d</w>
c ann
bu t</w>
broadcast ed</w>
bo und</w>
ber g
bea uti
be at
ba y
b rick</w>
b lon
b eng
ave ,</w>
au f</w>
athlet es</w>
at ra</w>
at ors</w>
ar iz
ang o</w>
and erson</w>
an other</w>
al to
aircra fts</w>
ai red</w>
ag er</w>
9 8</w>
4 3</w>
3 00
2 8</w>
199 8</w>
10 1</w>
zer o</w>
z a
x 4</w>
way s</w>
visu al</w>
vie wing</w>
ven ice</w>
vel o
v as
ul l</w>
tur k
tre at
to o</w>
termin ator</w>
t wa
t in</w>
t an</w>
t amp
tamp a</w>
sum mit</w>
su lt
st al
sol ution</w>
sing er</w>
sig ma</w>
si us</w>
s ir
s ame</w>
s )</w>
ri l</w>
ri d</w>
resi den
recom men
recommen ded</w>
re de
ra cing</w>
r ings</w>
qua ke</w>
pro t
presid ents</w>
pract ic
pomp ido
pompido u</w>
pit t</w>
par al
ot s</w>
origin ated</w>
origin ate</w>
or i</w>
od ys
o ur</w>
no table</w>
nit ro
ne u
nation alities</w>
n in
n ag
mic key</w>
manufacture r?</w>
ma ur
lin k</w>
last ed</w>
langu age?</w>
khe imer</w>
ka z
k ra
ju dge</w>
jes se</w>
instruct or</w>
indust ry</w>
in side</w>
illustr ated</w>
i th
i j
hor kheimer</w>
hist or
he ight?</w>
he id
har vey</w>
h ir
h em
gu sta
gra ce</w>
gar cia</w>
frat ernity</w>
fla sh</w>
fish er</w>
fact or</w>
f lynn</w>
f ate</w>
f all
ey e</w>
earli est</w>
e cho</w>
dre am</w>
di um
di pper</w>
deep est</w>
de commission</w>
d anny</w>
d al</w>
cre d
con f
co w
co .</w>
cel sius</w>
categ or
cat ch
carri er</w>
car y</w>
ca ssi
bu sters</w>
back ground</w>
an ia</w>
ale j
ai red?</w>
advis ors</w>
ach iev
ab ra
a ?</w>
9 3</w>
6 .0</w>
40 9</w>
3 2
199 2</w>
11 409</w>
ó n</w>
z o</w>
y en</w>
wor ds</w>
wi ther
wither spoon</w>
w u</w>
w right</w>
velo city</w>
ve ga</w>
v ard</w>
ur ing</w>
ti mo
stor y
sil ver
si st
sho t</w>
sh ore</w>
se se</w>
scor sese</w>
sco pe</w>
sch e</w>
sc ra
san do
sal t</w>
s li
rus h
rober to</w>
ro b</w>
reti red</w>
r us</w>
pre ssi
pos sible</w>
port man</w>
pho enix</w>
ph is</w>
par k,</w>
orb it
or le
orle ans</w>
ob jects</w>
o sity</w>
o ak
o '
not es</w>
no bel</w>
nico le</w>
nat ive</w>
n ation</w>
mon th</w>
mole cu
molecu lar</w>
mo sco
mis sing</w>
min ecraft</w>
ment al</w>
may or</w>
man ning</w>
mach ine</w>
m ck
lumin osity</w>
lu cas</w>
loc al</w>
lea ve</w>
lea d</w>
le s
le igh</w>
la b</w>
l on</w>
kur t</w>
kin ds</w>
ket s</w>
kep ler</w>
ke ith</w>
k ryp
k han</w>
k ent</w>
j ing
isa ac</w>
irel and</w>
ion al</w>
inter net</w>
if e</w>
i h</w>
hun ger</w>
hu bble</w>
hor iz
gro ssing</w>
go od
glo bal</w>
gi ant</w>
g m
g i</w>
g em
g el</w>
fre y</w>
found ?</w>
fo ot</w>
figh ting</w>
fi re
fel lini</w>
ex ist
er rol</w>
em ents</w>
ell i</w>
electron s</w>
ele y</w>
edit or?</w>
edit ions</w>
earli er</w>
ea ch</w>
e f
dr ama</w>
do w
do o</w>
disc ip
det ective</w>
dep p</w>
d il
d ad
cur tis</w>
conne ct
con gress</w>
commun ity</w>
co ok</w>
co ok
champ ions</w>
cham p</w>
ch il
ch ie</w>
cele br
categor y?</w>
cat al
car bon
ca sino</w>
c -1
but ter</w>
bri de</w>
boro ugh</w>
bio logical</w>
bet h</w>
bea sts</w>
bea st</w>
bea rer</w>
bar ry</w>
ban g</w>
ba si
au stin</w>
au gu
at on</w>
ariz ona</w>
ap point
an il</w>
am ph
alumin um</w>
alej andro</w>
al ic
ad rian</w>
acc epted</w>
ab ility</w>
aar on</w>
a in
a f</w>
7 5
5 4</w>
5 00</w>
4 8
4 /19
3 3
199 1</w>
-1 8</w>
z y
ymp ics</w>
y ne</w>
well -
well- known</w>
web ster</w>
wal lace</w>
wal d</w>
von n</w>
volcan o</w>
vol k
volk sw
volksw agen</w>
vo st
vi et
vi c</w>
us ?</w>
tro p
tra x</w>
tra vel</w>
tra g
to dd</w>
tim e?</w>
ti an</w>
ta h</w>
ta blet</w>
sund ance</w>
sub discip
su ic
strat us</w>
spr ing
spid erman</w>
sou th
so me
ski able</w>
sho wn</w>
sh in
ser ving</w>
se at</w>
sdddddddddldkdk dk
sdddddddddldkdkdk k</w>
sc rolls</w>
s now</w>
ri s
ri d
rena issance</w>
re eves</w>
ra ch
r ights</w>
r .
publish ed?</w>
pro ton</w>
por n</w>
po p
po cket</w>
plan et?</w>
pin k</w>
ph il</w>
paral ympics</w>
paradis e</w>
par ks</w>
p i</w>
p g
on eal</w>
ol in</w>
o v</w>
o se</w>
o p</w>
newspap er</w>
near by</w>
mus ic
mum my</w>
movi es
moun tain
mosco w</w>
mon ster</w>
mo thers</w>
michel le</w>
mar ri
ma id</w>
m son</w>
m r
lot te</w>
long er</w>
le ar
lat itude</w>
lan a</w>
la m</w>
k ol
k are
k ane</w>
jun o</w>
ju st</w>
ju dy</w>
jor dan</w>
jan uary</w>
ja h</w>
j et</w>
it ors</w>
invest ig
indi an
indian apo
il a</w>
i ke</w>
hydr ate</w>
ho und</w>
ho sp
ho les</w>
heart break</w>
ham let</w>
h ale</w>
gu e</w>
go t
g e?</w>
frequ ency</w>
free man</w>
fore st</w>
fi el
fer n
ev ol
es on</w>
en d
elem ent?</w>
eis en
e uro</w>
e o
e in
docum entary</w>
do dge</w>
disne yland</w>
detro it</w>
destroy er</w>
de vi
dar ya</w>
cruis ing</w>
cre ws</w>
cre w</w>
cra w
col d</w>
ch ronic
celebr ation</w>
catch ment</w>
cat s</w>
car men</w>
ca therine</w>
ca ff
c ea
but ter
bur g
bo s</w>
bet a</w>
bern ard</w>
belong ed</w>
bac all</w>
b ad
ascent s</w>
al es</w>
afric an</w>
act ually</w>
a wd</w>
a ,</w>
9 /1
6 2</w>
2 3</w>
2 /1
198 4</w>
198 0</w>
197 0</w>
1/1/200 8</w>
- class</w>
í a</w>
zel da</w>
z i
ys is</w>
wi g</w>
whe el
war ds</w>
vost ok</w>
viet nam</w>
vie t</w>
tun es</w>
tre e</w>
tra de</w>
tour s</w>
to wn
to l
ti more</w>
ther lands</w>
th ron
thron es</w>
th an
th am</w>
te red</w>
ta kes</w>
t ina</w>
symp ho
surviv or</w>
studi ed</w>
stor ies</w>
ste in
st op
st en</w>
so viet</w>
so ph
so ld</w>
sle ep
sk ull</w>
siz e?</w>
simp son</w>
sig n</w>
si e</w>
ship ?</w>
sha qu
shaqu ille</w>
set t
seat tle</w>
s word</w>
s ed
s ag
rob bie</w>
rit chie</w>
resid ent</w>
red ford</w>
rec ip
re prise</w>
re pres
rail way</w>
purchas e</w>
pri me</w>
plan e</w>
pit ches</w>
pi ece</w>
physic ian</w>
pea ce</w>
p ag
organ ism</w>
off s</w>
o il</w>
nor man</w>
no tification</w>
ne therlands</w>
nc is</w>
n is
museum s</w>
mol ly</w>
mo no
minist ry</w>
ment ?</w>
mag gi
maggi ore</w>
lu ke</w>
lon do</w>
list ing</w>
li t</w>
li er</w>
la go</w>
l us
ku brick</w>
ko so
ka poor</w>
jo bs</w>
jere my</w>
jenn y</w>
jam in</w>
j .
iv es</w>
inter face</w>
ingredi ent</w>
indepen dent</w>
ill o</w>
hydro gen</w>
ht ml</w>
ho nored</w>
haw k</w>
har mon</w>
h r</w>
h ex
gif t</w>
garden s</w>
gam e?</w>
gall o</w>
ga y</w>
g on
g ly
g lu
g lor
g ag
frank lin</w>
fran ken
flow ers</w>
fel low
fat ality</w>
fam il
f is
exec ut
ex change</w>
ess a</w>
e die</w>
du m
disco ver</w>
dead pool</w>
d ennis</w>
d '
creat or?</w>
chin ese</w>
ch en
ch ant</w>
ce res</w>
car ano</w>
c s</w>
bun ny</w>
break fast</w>
ben jamin</w>
bec kham</w>
barbar a</w>
bar ry
bal timore</w>
b art
austral ian</w>
au t
at tor
appoint ed</w>
andromed a</w>
al i</w>
ad or</w>
a )</w>
9 0
8 9</w>
7 2</w>
7 /19
6 4
6 1</w>
3 .0</w>
199 7</w>
10 0
00 0.0</w>
-12 -2
- of-
' s?</w>
á n</w>
y sia</w>
y on
x ander</w>
war craft</w>
vil la
ver sions</w>
ty ler</w>
tro pic
torch bearer</w>
top ical</w>
ti er</w>
ther ing</w>
th ese</w>
temper ament</w>
ta x</w>
sta dium
st ?</w>
spon sor</w>
spe are</w>
spac ecraft</w>
sp hor
sit es</w>
si ms</w>
sho ot
shake speare</w>
sh ine</w>
se bast
se as</w>
se ?</w>
sch u
sa w</w>
sa o
s ar</w>
s ally</w>
ron an</w>
roll er</w>
rock star</w>
ro ster</w>
ric e</w>
ri se</w>
ri ders</w>
rey no
reve i
restric tion</w>
relig ions</w>
rach el</w>
ra c
r um</w>
r h
pu l
pre vent</w>
pre dat
ph ine</w>
pet e</w>
pac k
pa lace</w>
p ha
ox y
oc al</w>
o is</w>
o ct
nep tune</w>
nation als</w>
municip al</w>
min i</w>
mill ion</w>
mic h
mes sier</w>
mel t</w>
me t</w>
mc u</w>
mala ysia</w>
ma h
lu is</w>
lu cky</w>
loy d</w>
lo ut</w>
lik e?</w>
let ter</w>
lan ders</w>
la u</w>
l ington</w>
koso vo</w>
ke e</w>
ka th
k ent
jing le</w>
je k
ist an</w>
ion es</w>
instrum ents</w>
influen ced</w>
indianapo lis</w>
in put</w>
ies ?</w>
ic on</w>
i u
hill s</w>
hel p</w>
happ y</w>
h ere</w>
gul f</w>
guardi an</w>
glor ia</w>
geno me</w>
gau l
gab ler</w>
g ur
g ren
g ger</w>
g .</w>
fred dy</w>
franken stein</w>
foc us</w>
fellow ship</w>
f- 4</w>
f lower</w>
ess ential</w>
er os</w>
er ne
enz le</w>
employ ed</w>
el i</w>
ear th
ear le</w>
e ve</w>
du ffy</w>
dro p</w>
dra per</w>
dol ph</w>
distri but
di on
d ated</w>
ct ic</w>
coordin ates</w>
constell ations</w>
compo und?</w>
clim b</w>
cinemato gr
cin e
cho ice</w>
char lotte</w>
chap lin</w>
ch ad</w>
ce iling</w>
carri e</w>
caff eine</w>
c-1 30</w>
c ut
c iones</w>
c ell</w>
bur y</w>
broo ks</w>
bro ok</w>
bour ne</w>
bob by</w>
birth place</w>
bi enzle</w>
ber ger</w>
ber a</w>
beauti ful</w>
barry more</w>
b m
b ear</w>
ave x</w>
avail able</w>
au dio</w>
as a</w>
ar o</w>
ar m
and o</w>
alexand ria</w>
al ?</w>
air line</w>
achiev ed</w>
abra ham</w>
a viation</w>
a ce</w>
4 x4</w>
4 7
3 7</w>
2 6</w>
1/1/1 7
1/1/ 2017</w>
00 7</w>
0 5</w>
z ones</w>
y 's</w>
wonder ful</w>
win ning</w>
willi am
w u
us ed?</w>
trag edy</w>
tr on</w>
tr ig
to on</w>
tit an</w>
ti on?</w>
ther on</w>
t z
sympho ny</w>
sw an
suic ide</w>
stat ue</w>
st range</w>
st ad
spe ed?</w>
sl ing</w>
shar p</w>
sh am
serv ation</w>
ser ge
sem i</w>
scien ces</w>
sao ir
saoir se</w>
sando val</w>
sa v
s r
s elect
ro t</w>
ro ma</w>
ro blox</w>
rit a</w>
ri dley</w>
ri dd
residen ces</w>
request ing</w>
reg ions</w>
re views</w>
re search</w>
ral ph</w>
r ine</w>
r ina</w>
qu es</w>
punish ment</w>
pub lish</w>
prox im
provi des</w>
produc ciones</w>
prepar ation</w>
pract ice</w>
phil o
performan ces</w>
per cent
percent age</w>
pat ri
p o</w>
p ion
p ige
p -
ow sky</w>
over all</w>
out f
organ is
orchest rat
op rah</w>
on im
on ia</w>
ne erthal</w>
n s
n ina</w>
n ights</w>
n ig
n -
my r
min d</w>
me di
mat ter
marsh all</w>
mar ket</w>
m ire</w>
m im
m edit
lo y</w>
licen se</w>
li v
li fied</w>
le vels</w>
law are</w>
lar is</w>
lan gau
l un
l .
ku mar</w>
king da</w>
ke anu</w>
kar ate</w>
k re
k la
k h
k ens</w>
k ad
jo dor
jodor owsky</w>
jen kins</w>
j ets</w>
iso top
inst all
in si
il es</w>
i z</w>
i di
hor se
hid den</w>
h ugh</w>
h tt
h .</w>
gra ham</w>
gr am
govern or</w>
go w</w>
gar land</w>
g ru
free dom</w>
follow ed</w>
fal lout</w>
fal co</w>
fa st
ex c
ex amp
ern est</w>
er ial</w>
ent s?</w>
ent e</w>
en c
el u
ec k</w>
ea d</w>
e ur</w>
downlo a
downloa ded?</w>
dol ph
direct s</w>
de laware</w>
dan cing</w>
da ve</w>
da r</w>
cre ate</w>
craw ford</w>
cra sh</w>
cont est
con du
color ado</w>
col lier</w>
coach es</w>
co un
co s</w>
classi fied</w>
cinematograph er?</w>
cele brit
ce ph
ce -
c al</w>
c .
bull s</w>
buc can
br ighton</w>
bo u
bo il</w>
birth ?</w>
bi an</w>
ben z</w>
beat les</w>
bea u
b son</w>
b ed</w>
awa kens</w>
athle te</w>
at ten
at ta
at er</w>
arri val</w>
aren as</w>
ar k</w>
an thro
an not
alexand re</w>
ak ira</w>
ad van
ad ler</w>
ad ams</w>
act ion?</w>
a ya</w>
a si
a ero
7 5</w>
6 5
4 8</w>
1/1/200 1</w>
y t
y ar
wor king</w>
wol ver
wit ch</w>
win frey</w>
win ds</w>
wil der</w>
whe el</w>
wh at
we ight?</w>
wal nut</w>
w th</w>
w b</w>
w all
vir us</w>
vi adu
viadu ct</w>
vest one</w>
ver ti
ve red</w>
ut nik</w>
ure ?</w>
un rated</w>
u er
tri but
treat ment</w>
trans mission</w>
ton ya</w>
to sh</w>
ter m</w>
sy fy</w>
sto ck
stev ens</w>
stat us</w>
stadium ?</w>
sta ur
ss ed</w>
spor ting</w>
specim en</w>
song ?</w>
sky scra
sir ius</w>
sil on</w>
si t</w>
show time</w>
shi ba</w>
scen es</w>
say ing</w>
sar a</w>
sand ra</w>
sal ary</w>
sa il
s mi
ro und</w>
ro u
ro s</w>
ro les</w>
ro gers</w>
ri x</w>
reyno lds</w>
revol ution</w>
ret ire</w>
reservo ir</w>
requi rement</w>
ren ted</w>
re ven
re staur
re spect</w>
re ald</w>
re ach
ray mond</w>
ra in</w>
ra i</w>
qu al
publish er?</w>
professi on
pro gen
pre view</w>
pp ing</w>
portra yed</w>
polit ical</w>
po pe</w>
platform s</w>
pige on</w>
per cy</w>
par ti
pan sion</w>
ox ford</w>
ot t</w>
ot e</w>
or lan
orlan do</w>
o -
n ast
n an
my ers</w>
mr s.</w>
mor d</w>
mo hic
mit t</w>
mas sa
marin ers</w>
main tower</w>
ma ster
ma dri
madri d</w>
ma cin
m ä
m d</w>
lin e?</w>
li z</w>
li on
li a</w>
leagu es</w>
lar son</w>
la id</w>
kil dow</w>
k un
k on
jo ined</w>
jap an
ja zz</w>
is ra
io wa</w>
inter views</w>
ing ham</w>
in cre
im possible</w>
ic us</w>
ibb ean</w>
i ra
i me</w>
hunt er</w>
htt p
hosp ital</w>
ho u</w>
ho o
he p
hall elu
hallelu jah</w>
ha ck
h iro</w>
h ag
gu k</w>
gu est</w>
grin ch</w>
gra vestone</w>
gra du
gr um
god father</w>
go v</w>
gener ation</w>
gam ma</w>
gal il
g el
flu or
flo yd</w>
fit z
fir st
fil es</w>
fel guk</w>
far m</w>
fa il
f i</w>
ex pansion</w>
ex ist</w>
ev ents</w>
ev e
et ts</w>
es :</w>
enter prise</w>
engine ering</w>
employ ees</w>
ed en</w>
ec us</w>
e sp
du l
do t</w>
divi si
displa y</w>
dia z</w>
di et</w>
di er</w>
di aries</w>
di al</w>
dar ker</w>
d ni
d ,</w>
cru z</w>
coun cil</w>
cost a</w>
cor nell</w>
cor n</w>
cont in
con an</w>
compos ition?</w>
comman d
col or?</w>
co t
co aster</w>
cla us</w>
chie fs</w>
chas e</w>
charact er?</w>
ch us
ch ing</w>
car ibbean</w>
can is</w>
c ran
c and
brown s</w>
bri e</w>
bre ed</w>
bot tom</w>
bor ne</w>
bor der
birth places</w>
ber k
belong s?</w>
begin n
bar on</w>
bar cel
bar bera</w>
ba ker</w>
awar d?</w>
au en</w>
au d
at tribut
as us</w>
aro und</w>
arm strong</w>
ar -
ann ie</w>
an ie</w>
am in
al ta
ag reed</w>
act s</w>
acceler ated</w>
a ur
9 /19
8 5</w>
8 3</w>
8 /1
6 7
6 /2
5 /1
198 5</w>
12 /1
10 40</w>
1/1/ 2013</w>
1 1/1
. com
-0 9
( 19
%3 a
ボ ブ
ボブ サ
ボブサ ッ
ボブサッ プ
z am
yl l</w>
y ama</w>
x y
x -
w rest
virg in</w>
vi enna</w>
vi du
vi ct
vi ce-
vi ata</w>
vari ation</w>
van essa</w>
v ocal</w>
us ing</w>
ure d?</w>
u tah</w>
typ ical</w>
tra viata</w>
tr ump</w>
tig ers</w>
thor pe</w>
thin k
ther ap
the re?</w>
the od
tan k</w>
tal k</w>
t wins</w>
t we
t in
t ical</w>
t c
sun shine</w>
subdiscip lines</w>
sub jects</w>
su pre
su it
stri ke
strike out
strikeout s</w>
stop p
st rip
spect ral</w>
sp utnik</w>
smi th
sh ville</w>
se ren
sala d</w>
s lu
s gow</w>
s eth</w>
s burg</w>
s aga</w>
ro me
ro bo
ri sing</w>
reg ina</w>
rede mp
redemp tion</w>
re vich</w>
re tt</w>
re serve</w>
rd ,</w>
ra id
raid ers</w>
r hy
psy cho
provi ded</w>
product s</w>
pri v
pre vi
pre t
popu l
pier re</w>
pho sphor
pat ented</w>
par ker</w>
p rat
p ar</w>
oxy gen</w>
ow en</w>
outf lows</w>
oper ator</w>
onim bus</w>
ol es</w>
off set</w>
o w</w>
o vo</w>
o va</w>
ny c</w>
north west</w>
ne ver</w>
na shville</w>
n ur
n im
n ight
n em
n ad
n ,</w>
movi ess</w>
mohic ans</w>
mo ri
mo num
mi ko
miko yan</w>
met res</w>
men u</w>
massa chus
massachus etts</w>
macin tosh</w>
mac beth</w>
m ex
lt d</w>
leon ard</w>
len ovo</w>
le man</w>
le m
lar ly</w>
langau ge</w>
lan g
kno w</w>
kill ing</w>
ker ry</w>
kent u
kar l</w>
ka i</w>
k ho
jek yll</w>
japan ese</w>
jam ie</w>
j agu
ition al</w>
it u
ip hone</w>
inter c
indi vidu
il ey</w>
igh ty</w>
ibb s</w>
i rene</w>
i ans</w>
http %3a
http%3a %2f
http%3a%2f %2f
hor net</w>
ho wer</w>
ho l</w>
ho g</w>
ho bb
heid i</w>
he in
h en</w>
gu revich</w>
gre ssi
go sling</w>
gla sgow</w>
gi ants</w>
gg ing</w>
gan y
gag ar
g io</w>
g ins</w>
g ates</w>
fun ny</w>
fro gger</w>
fran ces</w>
form ?</w>
for tress</w>
for rest</w>
fem ale</w>
f ur
ey es</w>
europ a</w>
es sion</w>
erne stine</w>
er i</w>
episo de?</w>
ent ity?</w>
eisen hower</w>
ed .</w>
ear ned</w>
e en</w>
e b</w>
dy nam
dw ight</w>
du t
dri ving</w>
do main</w>
do ctor
diseas es</w>
di ary</w>
dad dy</w>
da y
da k
cumul onimbus</w>
cu sto
cred ited</w>
cre ed</w>
cra zy</w>
contribut ed</w>
const ance</w>
command ments</w>
com et</w>
co l</w>
clo oney</w>
cle ar
ch u</w>
ch a</w>
camp us</w>
ca val
ca ine</w>
ca d
c z
c ic
but ler</w>
bu y</w>
bu gs</w>
bu d
bre tt</w>
bra dley</w>
br on</w>
bo l
blon de</w>
birth s</w>
ben der</w>
bb ins</w>
b u</w>
b .</w>
awa y?</w>
attor ney</w>
ash ley</w>
are as</w>
ap proxim
air bus</w>
ag on</w>
ac le</w>
9 5</w>
6 9</w>
5 6</w>
5 5</w>
35 00</w>
300 0
20 0</w>
199 0</w>
10 /
1/1/199 5</w>
1/1/ 2010</w>
- in-
ö r
z im
y le</w>
y :</w>
x on</w>
wor k
wo uld</w>
wi re
who m?</w>
w gt</w>
w en
vo ices</w>
vice- president</w>
val ent</w>
us ers</w>
ur ban</w>
up ?</w>
um i</w>
tw in</w>
tra vel
tra cy</w>
to y</w>
tig er</w>
ti es</w>
thro w</w>
thir d</w>
tar get</w>
ta stic</w>
ta ke
t x</w>
t p</w>
t est</w>
swe et</w>
supre me</w>
su z
su gar
sty le?</w>
start s</w>
st ore</w>
st ep
squ er
special ty</w>
sp it
son ic</w>
so on</w>
so m
smith son
sm art</w>
slu gging</w>
skyscra per</w>
siz ing</w>
sit e?</w>
sing le</w>
sing h</w>
sho p</w>
sha dow</w>
sh in</w>
sen ate</w>
se p
sco tti
sand y</w>
s v</w>
roman ce</w>
ro se
ris dic
rh ine</w>
recor ded</w>
rec ur
re au</w>
ran gers</w>
ra d
quot ations</w>
pre quel?</w>
post al</w>
pon t</w>
point ?</w>
po wer
po well</w>
po ly
po laris</w>
play station</w>
plan ts</w>
photo graphy</w>
philli ps</w>
pass engers</w>
pas sion</w>
part n
pa inting</w>
p ct</w>
origin ?</w>
op e</w>
ong a</w>
on er</w>
og ed</w>
odys sey</w>
occup ations</w>
ob tain</w>
o th</w>
nut rit
net .com
nat i</w>
n on
n an</w>
myr na</w>
mov ements</w>
mot to</w>
mo to</w>
mil im
milim et
mid night</w>
mid dle
met z</w>
medic ine</w>
mar il
ma th
ma squer
ma king</w>
m ec
lyricist s</w>
lu d
lou ise</w>
long itude</w>
lo ch</w>
lin k
li ze</w>
li vi
li kes</w>
li es</w>
li an</w>
le x
l ent</w>
l '
krist ina</w>
krist en</w>
kore a</w>
ko v
kentu cky</w>
ken d
ka therine</w>
k r
ju risdic
jeff rey</w>
ject ?</w>
jaco b</w>
j -2</w>
ion ,</w>
invent ors</w>
init ial</w>
ing rid</w>
inf lows</w>
in vi
in ches</w>
im db</w>
ig a</w>
ic le</w>
i ency</w>
hum ph
http%3a%2f%2f download
http%3a%2f%2fdownload .
http%3a%2f%2fdownload. c
http%3a%2f%2fdownload.c net.com
ho p
hep burn</w>
he ar
har vard</w>
ha r</w>
h ell</w>
h at</w>
gra de</w>
gem ini</w>
gar field</w>
gan ges</w>
g host
g .
fun tastic</w>
fri day</w>
fast est</w>
fair y</w>
fact ors</w>
f-1 6</w>
f m</w>
f ia</w>
f an</w>
exhib ited</w>
examp le</w>
euro pe</w>
et ta</w>
es is</w>
es a</w>
er t</w>
en ne</w>
en ium</w>
el e</w>
ear l</w>
e man</w>
dro me</w>
dou g</w>
dou bles</w>
doctor al</w>
direct or
dir ty</w>
den ver</w>
del i
de vil</w>
de fin
de e</w>
de but</w>
d ing
d in</w>
cul ate</w>
ct ors</w>
cro we</w>
cre dit</w>
cra ig</w>
connect ic
comple x</w>
compet itors</w>
com o</w>
clear ance</w>
cin cin
ci e</w>
char lize</w>
chann els</w>
car bo
can cer</w>
bur lington</w>
build ers</w>
buccan eers</w>
bu ild</w>
bu ck</w>
braz il</w>
bra ve</w>
bo w</w>
bo dies</w>
bi o</w>
berk eley</w>
beginn ings</w>
be th
barcel ona</w>
b ang
as sist
appear s</w>
ann ual</w>
an ing</w>
alto cumulus</w>
alic ia</w>
al ter
al ice</w>
air e</w>
ad ri
abo ve</w>
a sp
8 .
7 3</w>
4 4</w>
30 .0</w>
3 60</w>
3 00</w>
198 9</w>
198 6</w>
10 /1
1/1/200 3</w>
. d.</w>
-1 4</w>
%2f 3000
zo di
zodi ac</w>
z ack</w>
y hound</w>
y as
xx iii</w>
wrest ling</w>
wol f
wire less</w>
wer ner</w>
wein land</w>
wea ther</w>
wah t</w>
w we</w>
w au
vir tu
us aa</w>
um -
u x
twa re?</w>
tu -1
tropic a</w>
trop ical</w>
tri m</w>
to u
thr ill</w>
th al
ta ught</w>
ta ken
taken ?</w>
ta ka
ta g</w>
t man</w>
t all
swan son</w>
su perfor
superfor tress</w>
struct ed</w>
ste red</w>
ste el</w>
stand ing</w>
stan g</w>
st el
st ed</w>
squ ad</w>
spring field</w>
sp en
sof tware?</w>
smithson ian</w>
sin atra</w>
simp lified</w>
si p
sip ated</w>
sho ck</w>
sh ed
sen ior</w>
scotti sh</w>
sch we
scar let</w>
sal o
sa ving</w>
s worth</w>
s so
s se</w>
s ity?</w>
s enti
rose anne</w>
ric ky</w>
ric k
ri el</w>
ri der</w>
revei ws</w>
restaur ant</w>
regar ding</w>
recur ring</w>
re viewer</w>
re print</w>
re e</w>
rat ings</w>
ra fa
r ams</w>
pu r</w>
program ming</w>
profes sions</w>
produ k
pro min
priv ate</w>
pri x</w>
pop tropica</w>
po em</w>
pit er</w>
pin es</w>
pg -13</w>
pe yton</w>
pe g
patri ots</w>
part ner</w>
pal mer</w>
p enn
orbit ing</w>
on o
on ed</w>
oli ver</w>
oak land</w>
o us
o ma</w>
o .
ni ko
n es</w>
mus ics</w>
mu stang</w>
movie w</w>
mo u
mo ne</w>
min ds</w>
mic ky</w>
mer c
merc edes</w>
mel issa</w>
meas ure</w>
matter horn</w>
mat erial</w>
masquer ader</w>
maril yn</w>
mal one</w>
m u</w>
m ale
lo ser</w>
lin er</w>
life guard</w>
le ss
le on</w>
le o</w>
land s
lan der</w>
la kes</w>
l um
l il
kno ts</w>
kil os</w>
key word</w>
ke eper</w>
k le
k im
k em
k el</w>
k 2</w>
ju piter</w>
jour ney</w>
je an-
j el
iz er</w>
iv an</w>
it 's</w>
ist er</w>
issu ed</w>
isra el</w>
io t</w>
io dine</w>
inf o</w>
indust rial</w>
in i
in '</w>
im pressi
ill ness</w>
icar bon
ic y
ib m</w>
i ka</w>
i ff
hol m</w>
ho w
ho li
ho ff
hex a
hel m</w>
h ul
h ell
h anna</w>
h and</w>
gusta v</w>
gu ild</w>
gro und
gro ss</w>
gre yhound</w>
graph ics</w>
gli ese</w>
ghost busters</w>
geor ges</w>
geo storm</w>
g is</w>
g al</w>
g -
for ward</w>
fl ute</w>
first energy</w>
fig ures</w>
fam ili
f- 1</w>
exp lor
exist ?</w>
ev ans</w>
eri k</w>
er ia</w>
er ,</w>
ep silon</w>
ed gar</w>
eb ear</w>
e ight</w>
duc ks</w>
down sizing</w>
dol l</w>
dis sipated</w>
dia mond</w>
di vine</w>
de ut
de sp
de sc
dat a</w>
dan iel
dak ota</w>
d s?</w>
d ang
cv n-
cro ss</w>
cook ies</w>
contra ctors</w>
connectic ut</w>
condu cted</w>
co valent</w>
co smo
co oking</w>
clim ate</w>
cincin nati</w>
chronic les</w>
child ?</w>
chap ter</w>
ch back</w>
ch an</w>
car lo</w>
ca tho
c ry
c ell
c are</w>
butter fly</w>
bu d</w>
bre ad</w>
bran don</w>
bow l</w>
boo m</w>
bo at
bm w</w>
blu ebear</w>
blog ger</w>
blo ck</w>
be ver
bas s</w>
ba hn</w>
b-2 9</w>
b um
b icarbon
ator ial</w>
at ar</w>
astro s</w>
assist ant</w>
ass in</w>
are a?</w>
anthro pus</w>
and -
an ato
am p</w>
alumin ium</w>
al ism</w>
ag enc
a w</w>
8 8
7 6</w>
7 4</w>
7 .0</w>
3 1/1
201 2
2008 -12-2
20 /
2 /199
10 3</w>
10 .
1/1/ 2011</w>
/2 9/
/ a
.. .
- up</w>
z an</w>
yl ight</w>
wu thering</w>
wor l
wo ody</w>
wo ods</w>
wo men's</w>
wit t</w>
wheel base</w>
we is
wau kee</w>
war ren</w>
wal es</w>
w ii</w>
w ife</w>
w as
vo sk
vis ited</w>
vi er</w>
val ent
v s.</w>
ur sa</w>
ul ty</w>
ul tra</w>
ug ly</w>
trans fer</w>
tra in
tor n
top ia</w>
to y
timo thy</w>
ti fied</w>
tho us
th et
t ate</w>
system ?</w>
syn drome</w>
sub way</w>
su ya</w>
su e</w>
stad t</w>
st on
st ing</w>
st iller</w>
st al</w>
sp ire</w>
sol d?</w>
sn ip
sing les</w>
sim mons</w>
sil icon</w>
sher on</w>
sebast ian</w>
se y
se uss</w>
se o</w>
se mann</w>
se ating</w>
scrip tion</w>
sco t
sch e
sc h</w>
sau ce</w>
sa id</w>
s icar
sicar io</w>
s g
ru le
row ed</w>
rod gers</w>
road s</w>
ro wan</w>
ro gue</w>
ro d</w>
ri de?</w>
repres ent
regu lat
re z</w>
re ar</w>
ran ean</w>
rafa el</w>
ra ge</w>
prof ess
pret ty</w>
presid ent?</w>
post ing</w>
po w
po d
pic k
pi x
philo soph
philip pines</w>
ph e
ph an</w>
perio ds</w>
peri hel
per soon</w>
pen n</w>
pear l</w>
pat ric
parti ally</w>
par li
p u</w>
p r</w>
p ie</w>
own eds</w>
off ered</w>
occ ured</w>
ob livi
o le
ny it</w>
nor way</w>
no te
nitro gen</w>
nic ho
nicho las</w>
new est</w>
ne eds</w>
nas a</w>
nas a.
nasa. gov</w>
n ap
mus ket
musket eers</w>
mountain s</w>
mor t</w>
monum ent</w>
mont ana</w>
mon sters</w>
mo ur</w>
min ster</w>
mil waukee</w>
mich el</w>
mi x
mex ico</w>
met ers?</w>
mem phis</w>
medit er
mediter ranean</w>
masco pe</w>
mar tha</w>
mar cus</w>
manag ed</w>
man d</w>
man chester</w>
maj or
ma kers</w>
ma fia</w>
m ess
lud wig</w>
lu x
lu cy</w>
lu c
lou vre</w>
loc us</w>
lo u</w>
list o</w>
libretti sts</w>
li th
les lie</w>
lea der
launch ing</w>
la ho
l en</w>
l c</w>
ky le</w>
ku ro
kill ed</w>
kenn eth</w>
ka y</w>
k ie
k h</w>
k as</w>
juli et</w>
joh ann</w>
jack son
j ul
iu ap
iuap c</w>
ital y</w>
ital ian</w>
it i</w>
it ems</w>
is le</w>
is f
ir s</w>
in n</w>
in ian</w>
in ferred</w>
im per
im ma
ili ad
iliad :</w>
il ton</w>
il lin
ie ve</w>
ic an</w>
i res</w>
i ated</w>
hun chback</w>
horse power</w>
hol ds</w>
hol d
ho semann</w>
ho ney</w>
high more</w>
hig gins</w>
hexa hydrate</w>
her bert</w>
hel en</w>
har bour</w>
har a</w>
happ en
ha us</w>
ha ir</w>
h ug
h bo</w>
h amp
griff ith</w>
greg ory</w>
greg or</w>
gran de</w>
gra cie</w>
glu con
glucon ate</w>
gan g</w>
gagar in</w>
g ent</w>
fro st</w>
foot ball
foc us
fo ster</w>
flu ently</w>
fil iated</w>
ffic ulty</w>
fe ren
far lane</w>
fact ory</w>
fa vre</w>
fa vor
f ish</w>
f en</w>
ev ent?</w>
ev a</w>
eu gene</w>
eth an
et us</w>
est er</w>
es h</w>
es ,</w>
equ us</w>
equ atorial</w>
en to</w>
en dea
employ er</w>
el and</w>
ed win</w>
du s</w>
dro ps</w>
dor o
don e
dolph ins</w>
dol lar</w>
dol f</w>
discover ies</w>
di oxide</w>
di fficulty</w>
design er?</w>
deli very</w>
dea th
de c
de a</w>
da ylight</w>
da vy</w>
d n
cy c
custo mer</w>
cro sby</w>
cor p.</w>
con feder
con e</w>
compos itional</w>
compos e</w>
comp ri
co vered</w>
co bra</w>
co ast
cle f</w>
clar ke</w>
cla sses</w>
cinematogr pa
cine mascope</w>
cer tified</w>
catho lic</w>
catal oged</w>
cast ed</w>
camp ion</w>
cal listo</w>
ca ss
ca sey</w>
ca ke</w>
c rist
c ine</w>
c be</w>
build ing?</w>
broad way</w>
bro ken</w>
bri ef</w>
br o</w>
br ig
bor rowed</w>
bor gh
bio graphy</w>
be e</w>
be ar
b at</w>
b ama</w>
b ago</w>
b ag
av atar</w>
at e?</w>
ass ets</w>
ass assin</w>
arti st?</w>
arsen ic</w>
are s</w>
ar g
ap ril</w>
ant enna</w>
ang els</w>
an ton</w>
am c</w>
alli ance</w>
all y?</w>
alb a</w>
al co
af filiated</w>
act ivity</w>
ach e</w>
a wa</w>
a spir
a eg
a /
8 4</w>
8 2
7 47</w>
5 7</w>
5 3</w>
5 /19
4 6</w>
2 :</w>
198 7</w>
18 0
11 /
á n
z on
z i</w>
yt tri
yel p</w>
year ?</w>
y uri</w>
y on</w>
y ag
willi e</w>
wil helm</w>
whit e
warri or</w>
wah l
wahl berg</w>
w ons</w>
w ings</w>
w ich</w>
voy ager</w>
virtu al</w>
vir go</w>
view ed</w>
vi ron
vi olin</w>
vi ll
vi ctor</w>
ver si
ver iz
van ese</w>
us s
um a</w>
ul y
ugh es</w>
u to</w>
u gu
torn ado</w>
tor que</w>
time keeper</w>
ti ber
thous and</w>
tho lo
tholo me
think pad</w>
thi eves</w>
therap y</w>
themes ongs</w>
the -
th ur
th under</w>
ter dam</w>
tem p</w>
tain ed</w>
ta urus</w>
st ol</w>
st ic
ss a</w>
ss ?</w>
sp in-
spin- off</w>
sp here</w>
sou l</w>
son ,</w>
some where</w>
si ve</w>
shoot ing</w>
sho uld</w>
sha w</w>
sha w
senti ment</w>
sen ator</w>
sec ession</w>
san g</w>
sam u
sab res</w>
sa urus</w>
s ma
s dddd
s ad
s .com</w>
rot terdam</w>
roo ms</w>
ridd ick</w>
ric har
ri vers</w>
releas e?</w>
reach er</w>
re t</w>
re id</w>
ra ven
ra g
r ho
r he
qui red</w>
punish er</w>
ps 3</w>
prote in</w>
prot ected</w>
profess or</w>
princ ip
pric e?</w>
pres ents</w>
predat ors</w>
pre fi
prefi x</w>
popul ation</w>
pod cast</w>
po k
play ed?</w>
pil gri
physic ian
per tain
part icle</w>
p ure</w>
p ip
p in</w>
over ture</w>
ori oles</w>
op e
on tar
oblivi on</w>
ob tained</w>
o mar</w>
o ck</w>
nutrit ional</w>
note book</w>
no v
nis san</w>
nific ent</w>
nc bi</w>
na val</w>
n iro</w>
n g</w>
n dc</w>
n age</w>
mä d
mon a</w>
mo ly
moly b
molyb den
missi on?</w>
mir anda</w>
mill s</w>
mill enn
millenn ium</w>
me dium</w>
marri age</w>
mar ck</w>
mal ia</w>
mag nificent</w>
mac farlane</w>
ma kes</w>
ly ric</w>
lo ok</w>
lo ire</w>
li z
li um</w>
leg acy</w>
leader ship</w>
lea ders</w>
le vel
le ck</w>
le bron</w>
le bo
lam borgh
lamborgh ini</w>
l ut
l ton</w>
l ite</w>
kryp ton
kill er</w>
kem p</w>
kare n</w>
k ha
k as
jose phine</w>
jac ques</w>
jac ket</w>
j it
j as</w>
it ania</w>
is o</w>
invest ment</w>
ing o</w>
individu als</w>
in versions</w>
in um</w>
in duction</w>
imma culate</w>
illin ois</w>
ild a</w>
ik al</w>
if ied</w>
i bi
ibi ous</w>
hous e
ho urs</w>
histor ic</w>
hi ro
hea ven</w>
he witt</w>
he at</w>
hann a-
hanna- barbera</w>
ha wa
ha vanese</w>
h ughes</w>
h t</w>
h l</w>
gu g
gug gen
guggen heim</w>
grum man</w>
gren ad
grenad ines</w>
gra ph</w>
go es</w>
gl ut</w>
geo bound</w>
gat o</w>
g ump</w>
fu ji</w>
fri ed
fon da</w>
fla gs</w>
fin land</w>
fe e?</w>
fa x</w>
fa ith</w>
evol ution</w>
evi ta</w>
eve rest</w>
er ’s</w>
er 's</w>
equ ation</w>
ent ’s</w>
em my</w>
em en</w>
el ena</w>
eg er</w>
ed wards</w>
e- 0
e wan</w>
e v</w>
e than</w>
e mo
e ffic
e ff
e dit</w>
e .
du ke</w>
dream works</w>
dre ams</w>
dr ,</w>
doro thy</w>
divor ce</w>
distribut ed</w>
dion ysis</w>
destin ations</w>
depart ure</w>
dep t.</w>
den sity?</w>
den is</w>
del bert</w>
de m</w>
d or</w>
d h
cosmo logical</w>
cor ps</w>
contest ant</w>
comman der</w>
coach ?</w>
co ff
cl ear</w>
cha os</w>
ch or
ch art
ch ,</w>
ce o</w>
car son</w>
car s</w>
car ries</w>
cam pa
calci o</w>
cal vin</w>
cal ory</w>
c pus</w>
c in</w>
c _
bu y
bre es</w>
bre a
br un
bor g</w>
bo ugh</w>
bis marck</w>
bicarbon ate</w>
ber to</w>
beau fort</w>
bea m</w>
bat ter
bas is</w>
bar tholome
ba ikal</w>
b ent
avail ability</w>
auto m
attemp ts</w>
aster ism</w>
aspir in</w>
as is</w>
arch y</w>
ar ab
ap es</w>
annot ation</w>
and re</w>
ana heim</w>
an o
an i
amph ibious</w>
am u</w>
am a
ala bama</w>
ak a</w>
air borne</w>
aero space</w>
act ing</w>
ac quired</w>
ac a</w>
ab lo</w>
a ve</w>
a st</w>
_ 4
8 2</w>
7 8</w>
7 7</w>
5 1</w>
5 /2
3 6
3 1/
2008-12-2 8</w>
2 7</w>
16 th</w>
12 /2
10 41</w>
10 00</w>
1/1/200 6</w>
1/1/200 5</w>
-2 2</w>
- 19
' re</w>
z we
z ar</w>
yo u
ya ho
x avi
xavi er</w>
wol fe</w>
wil lis</w>
who ?</w>
web b</w>
war ran
wa ve</w>
w ong</w>
w on?</w>
w .
vosk ho
voskho d</w>
vo ur</w>
vi sta</w>
ve re
v la
ush ing</w>
ur ugu
up rising</w>
under ground</w>
un employment</w>
un e</w>
uly sses</w>
ul tron</w>
uk :</w>
u to
turk ish</w>
tur ner</w>
tru ste
ton nage</w>
to s</w>
tim burton</w>
ti a</w>
thre ad</w>
ther ock</w>
themes ong</w>
the a</w>
ter rier</w>
tem ber</w>
tal king</w>
ta i</w>
t est
syl van
sulf ate</w>
su its</w>
str ato
start ?</w>
star r</w>
star ing</w>
ss en</w>
spla sh</w>
spac ecra
sp ica</w>
sour ce?</w>
so p
sle eve</w>
sky lab</w>
si mone</w>
shu a</w>
shor ts</w>
shed d</w>
sh at
sett ings</w>
sep tember</w>
se vel
scre am</w>
sco ut</w>
sail or</w>
sac red</w>
s ley</w>
s ight</w>
s ca
s bro</w>
s amp
s '</w>
ry e</w>
roo sevel
ro eth
roeth lis
roethlis berger</w>
requi res</w>
regulat ors</w>
reg gie</w>
recor d
recip e?</w>
rec re
re x</w>
re servation</w>
re pub
re in
re fu
re -
rap tor</w>
ran dy</w>
r s-
r in</w>
r hin
qu est</w>
provi der</w>
promin ence</w>
pro vision</w>
practic ing</w>
pot ato</w>
por sche</w>
pon te</w>
po d</w>
play ers</w>
platform ?</w>
plat inum</w>
pier ce</w>
philli es</w>
ph y
perihel ion</w>
pep per</w>
peop le?</w>
pea body</w>
patric ia</w>
parli ament</w>
pa y
pa st</w>
pa la
p le
p ath</w>
p ages</w>
ot ta
os car</w>
origin ally</w>
or acle</w>
op tion</w>
op ith
opith ecus</w>
ontar io</w>
ol sen</w>
ok laho
oklaho ma</w>
oct o
occur s</w>
o le</w>
o il
o g</w>
num bers</w>
nor thro
no z
new man</w>
ne y
ne igh
ne bra
nebra ska</w>
nar nia</w>
na ked</w>
na kad
n x</w>
n ing
museum -of-
mu th</w>
mor ris</w>
molybden um</w>
mo z
mo tor
mitch um</w>
milli meters</w>
mil lau</w>
met cal
mass ?</w>
mar ket
man 's</w>
mam ma</w>
mag gie</w>
m t</w>
lu ci
lo ve
lo rer</w>
lin e-
life span</w>
lic t</w>
level ?</w>
let te</w>
legen ds</w>
leg ion</w>
lea ds</w>
le w</w>
lam po
la i</w>
la bel
l loyd</w>
l ics</w>
l cc
kore an</w>
kn ights</w>
ket t</w>
ken ing</w>
kar lo
k istan</w>
k iss</w>
jun e</w>
jo shua</w>
jo el</w>
je wish</w>
j uni
j u</w>
j ango</w>
itu des</w>
it on</w>
it ive</w>
it es</w>
it as</w>
isotop es</w>
is ms</w>
is landers</w>
is land
in son</w>
in e?</w>
in done
in d
ill y</w>
ili ad</w>
il ica</w>
if f</w>
id an</w>
ich i</w>
ic t</w>
i da
i )</w>
hu ston</w>
http%3a%2f%2fdownload.cnet.com %2f
hr lic
home coming</w>
holi day</w>
hel ium</w>
he i</w>
haw king</w>
har old</w>
ham ilton</w>
ha sbro</w>
ha i
h al</w>
gu er
gradu ate</w>
gol den
go o
go ih</w>
gly cer
gla di
gi or
gi bson</w>
gg y</w>
geno mic</w>
ge use</w>
gaul le</w>
gam e
galax ies</w>
g les</w>
fre sh</w>
fre der
fra u</w>
fore ign</w>
fitz gerald</w>
fin an
finan cial</w>
film es</w>
fic a</w>
fail ure</w>
f- 35</w>
f ru
f o</w>
f ear</w>
evi dence</w>
ethan ol</w>
er is</w>
er ie</w>
endea vour</w>
el geuse</w>
eg yp
earth quake</w>
ea u</w>
dow ney</w>
dor f</w>
do i</w>
dni eper</w>
dis k</w>
dis ab
disab led</w>
di e
devi ce?</w>
den burg</w>
de v
de sh</w>
de scription</w>
de rer</w>
de i
de b
d ington</w>
d ell</w>
cy to
cy cle</w>
cry stal</w>
cri mson</w>
cre am</w>
cow boys</w>
contribu tions</w>
conf lict</w>
con sult
con c
comman d</w>
collect s</w>
co hen</w>
clo sing</w>
cle aning</w>
cl inton</w>
christ ie</w>
chlor am
child ren
chel sea</w>
chand ra</w>
ch ro
ch im
cat cher</w>
carol ine</w>
cann es</w>
candi dates</w>
can yon</w>
can e</w>
camer a</w>
cam p</w>
cal yp
ca in</w>
c ric
c r
c pu</w>
c lan
c il
bur nett</w>
bu ck
bron son</w>
bre ed?</w>
bra in</w>
bra dy</w>
bo ats</w>
blin d</w>
bet elgeuse</w>
bec ca</w>
be yon
be t</w>
bb c</w>
bas ilica</w>
bar ron</w>
bar ium</w>
bal d
bac on</w>
ba thro
b one</w>
b es</w>
b ells</w>
b ap
bap ti
b am
autom ated</w>
austral opithecus</w>
aud ac
audac ity</w>
ation s?</w>
ath a</w>
as so</w>
as s</w>
arman d</w>
ar us</w>
ann ing</w>
and er
am al
ale c</w>
alb ion</w>
al y
al lan</w>
ad verti
ac re</w>
ac qu
ab c</w>
a w
a us</w>
a de</w>
99 99
9 00</w>
8 6
7 6
7 .
5 1
45 1</w>
3 /2
3 -
2 9</w>
198 2</w>
195 6</w>
12 /
10 /2
1/1/199 6</w>
1/1/ 2014</w>
-1 9</w>
-1 1
- 4</w>
( c
é s</w>
zoo logical</w>
zom bies</w>
zom bie</w>
y u</w>
y o</w>
y ale</w>
wor ms</w>
wis con
wiscon sin</w>
winn er?</w>
we e
w ang</w>
vol vo</w>
vi o</w>
vet er
ve y
uto part
utopart s.com</w>
ut s</w>
uran us</w>
up dates</w>
univers ities</w>
ue shiba</w>
u ri
ty son</w>
tur n
tu-1 54</w>
tt led</w>
toy ota</w>
ton i</w>
ton ,</w>
to mor
to mat
tit ans</w>
tim ber
tim ate</w>
tic kets</w>
ti z</w>
th y
th ie
tem por
tech n
te en
te am
tar zan</w>
tar onga</w>
tan y</w>
t ul
t n</w>
suz anne</w>
surviv ors</w>
sub titled</w>
su ch</w>
sty le
stru ct</w>
stre et
steph anie</w>
ste fan
star k</w>
star ?</w>
sta ff</w>
ssi e</w>
spor t
sol dier</w>
so s</w>
so lo
snip pet</w>
sna ke</w>
sle ds</w>
sk ins</w>
sig n
sibl ing</w>
si e
shir ley</w>
shar k</w>
shan k</w>
sh re
sh ep
sh ang
shang hai</w>
ser ial</w>
sel enium</w>
san ti
s. a.</w>
s wor
s ler</w>
ry n</w>
runner -up</w>
run s?</w>
rule ml</w>
roosevel t</w>
roman tic</w>
rock well</w>
rock et
ro sem
ro l
requi red?</w>
relig ious</w>
red dit</w>
recre ation</w>
re solution</w>
re m
re gi
regi stered</w>
re e
re ally</w>
rat es</w>
rat e?</w>
radi o
ra o</w>
ra de</w>
r ing
r as</w>
quot ed</w>
pursu ed</w>
progen ies</w>
profession ally</w>
product ?</w>
pro mp
promp t</w>
pro mo
pri or</w>
prevent ed</w>
pres ley</w>
pre ventions</w>
pra ir
pra do</w>
port ug
pon ti
polit ic
po lish</w>
po lis</w>
po i
poi rot</w>
play er?</w>
play ?</w>
pla za</w>
pl eas
pilgri m</w>
phosphor us</w>
philosoph er</w>
pet er
perform ing</w>
per tain</w>
per t</w>
pas ses</w>
partn ers</w>
pan thers</w>
pad dington</w>
pack age</w>
pac ers</w>
pa th
ou l</w>
origin ator</w>
organ ic</w>
orchestrat or</w>
or ia</w>
on ies</w>
off cial</w>
octo ber</w>
o un
o re
o ber
ny chu
nychu k</w>
nutri ent</w>
nur se</w>
no ble</w>
nation al
nar uto</w>
n un
n au
n ate</w>
n ancy</w>
my nx</w>
muse o</w>
mor rison</w>
mont go
montgo mer
mole cul
molecul ar-
molecular- input</w>
min ute</w>
min a</w>
milimet ers?</w>
metcal f</w>
met a
mel nychuk</w>
mel bourne</w>
med e</w>
me yer</w>
mc car
mat rix</w>
mat eri
materi als</w>
mass acre</w>
mar ía</w>
mar qu
mar got</w>
man hat
manhat tan</w>
man gan
man ga</w>
ma sa
m r</w>
m ighty</w>
m cla
lus itania</w>
lu thor</w>
lu c</w>
lo dge</w>
lo af</w>
line- entry</w>
lif e?</w>
li qu
li o</w>
lear ning</w>
le v</w>
le v
lcc n</w>
lar a</w>
la bour</w>
l una</w>
l n,</w>
l ?</w>
kn m</w>
kin son</w>
kend rick</w>
kath ryn</w>
k is
k ings</w>
k amp
k ab
juli an</w>
juli a</w>
jud d</w>
ju n</w>
jo y
jo s
jes sie</w>
jeff erson</w>
je ction</w>
jan et</w>
ja ys</w>
ja h
j ol
iz e</w>
it z</w>
it or</w>
it ch</w>
ist ry</w>
issu er</w>
isf db</w>
is i</w>
ion ization</w>
io dar
iodar one</w>
install ed</w>
ine a</w>
in vent</w>
in a
ig u
if t</w>
i k</w>
i ally</w>
hy po
hy gi
hygi ea</w>
hor ses</w>
hon da</w>
ho p</w>
ho lo
ho e</w>
hem sworth</w>
hed da</w>
hart nett</w>
han k</w>
h ut
h unt</w>
h u</w>
h s</w>
guid es</w>
gu inea</w>
griff in</w>
gressi ve</w>
graph ical</w>
go onies</w>
glycer in</w>
glo ver</w>
gil bert</w>
gi bb
gest ation</w>
gany mede</w>
g ?</w>
ful ler</w>
fu n</w>
fried rich</w>
fran z</w>
fin n</w>
film with</w>
fiel ds</w>
fel is</w>
feat uring</w>
f ü
f und</w>
f ford</w>
f est</w>
f /a
exp lorer</w>
es ch
ep t</w>
em ily</w>
elli ot</w>
el ias</w>
ef ron</w>
ed a</w>
ea gles</w>
ea ge</w>
e-0 5/
e w
e re
e in</w>
e h</w>
dynam ics</w>
dy lan</w>
dra w</w>
don key</w>
don ate</w>
do x</w>
do ors</w>
do d
do bre
dobre v</w>
divor ced</w>
divisi on?</w>
dissol ve</w>
dis charge</w>
direct ed?</w>
dimen sion</w>
di sh
di on</w>
devel oper
degre es</w>
de st</w>
dddddddd dddd
dd in</w>
d c-
d ana</w>
cum ference</w>
cu bbins</w>
cric ket</w>
cor e</w>
contin ental</w>
consult ant</w>
con s</w>
con cor
commun ic
com missi
colle ctor</w>
co d
co ck
co ast</w>
clic ker</w>
cla sh</w>
cla ir</w>
cir cumference</w>
cinematograph ers?</w>
chem istry</w>
che f</w>
che ese</w>
char d</w>
chann el
ch rome</w>
ch ance</w>
ch all
ceph alex
cephalex in</w>
centa urus</w>
cea utoparts.com</w>
cat us</w>
cardin al</w>
car ing</w>
can 't</w>
camp fire</w>
cal gary</w>
c ushing</w>
c rat
c bs</w>
bud get</w>
brid ge?</w>
bri stol</w>
book worms</w>
bob sleds</w>
boat eng</w>
bo ttled</w>
blan c</w>
black berry</w>
bi um</w>
beyon d</w>
berg man</w>
ben ed
bed rooms</w>
basi l</w>
bartholome w</w>
ba king</w>
b es
awa kening</w>
auto mobil
auth ority</w>
au g
at ic</w>
at ely</w>
aster isms</w>
arsen al</w>
ar ia</w>
approxim ately</w>
ap ache</w>
an es</w>
an ci
amin oph
am iodarone</w>
alli son</w>
al to</w>
al izer</w>
al dr
air bender</w>
agenc ies</w>
af fair</w>
advan ceautoparts.com</w>
acet aminoph
ac co
a p</w>
a do
8 8</w>
8 /19
7 9</w>
7 9
7 37</w>
7 /2
7 /1/
7 /1
6/ 30
6 8
6 39
5 )</w>
3. 5</w>
2012 -0
197 3</w>
197 1</w>
196 4</w>
16 .
1/1/200 7</w>
1/1/200 4</w>
1/1/199 9</w>
1/1/1 5
0. 00
-1 7</w>
( ii
ī n</w>
ī do</w>
ā t
āt īn</w>
ä n
zo v</w>
zo le</w>
z ing
z hou</w>
z an
yo sh
y mium</w>
x ide</w>
wor lds</w>
wol ves</w>
william son</w>
weis sm
weissm ul
weissmul ler</w>
web ber</w>
wat ch
warran ty</w>
wal k</w>
wa sp
wasp -18</w>
w ser</w>
w es
w ant</w>
w ag
vol unt
vol umes</w>
vol ta</w>
vo gel</w>
vil s</w>
vi gn
vi e</w>
veriz on</w>
ven era</w>
van cou
vancou ver</w>
ush īdo</w>
us ually</w>
ur ushīdo</w>
unt it
untit led</w>
unt ed</w>
und s</w>
um -2
ul timate</w>
ul t</w>
u ct</w>
u -
ty ?</w>
twe ety</w>
tu ition</w>
tru ck</w>
trig g</w>
tre ated</w>
transvers es</w>
tran sit</w>
to ll</w>
to day</w>
titan ium</w>
time zone</w>
ti e</w>
thr iller</w>
thie f</w>
th in</w>
ter rit
ter ?</w>
tc m</w>
tat suya</w>
tag line</w>
ta ung</w>
t us</w>
t es
t ech</w>
syn cy
syncy tial</w>
sy rac
syrac use</w>
sy r</w>
sv )</w>
survi val</w>
sum mar
su it</w>
su dan</w>
stron tium</w>
stock holm</w>
sto ker</w>
stel lar</w>
ste p</w>
stat s</w>
stal in</w>
st le</w>
st ill</w>
st ac
squ aw</w>
spir atory</w>
spen cer</w>
spacecra fts</w>
spa in</w>
sor ?</w>
solo mon</w>
so yu
so phia</w>
so malia</w>
so le
so l</w>
silver ado</w>
sid ney</w>
sibl ings</w>
si d</w>
si c</w>
shi el
shaw shank</w>
sh ing</w>
ser ial
serial s)</w>
select ions</w>
sec ur
se u
se ssi
se qu
screen ing</w>
schwe ig
sch el</w>
say ings</w>
satur day</w>
salo mon</w>
sa f
sa ab</w>
s ātīn</w>
s q
s miles</w>
s ant
ry l</w>
rus sia</w>
rome o</w>
rocket dy
rocketdy ne</w>
rob inson</w>
ro le?</w>
ro chester</w>
ro c
rit z</w>
ri um</w>
reven ge</w>
releas ing</w>
red skins</w>
re vision</w>
re sul
re spiratory</w>
re l</w>
re becca</w>
rd -0
ran ges</w>
rail road</w>
r y?</w>
r sv)</w>
r ama</w>
qu int
pu t
psy ch
process ors</w>
pro mo</w>
pro gressive</w>
pro ble
pric ing</w>
pri son
premi um</w>
prec ed
preced ed</w>
pre ss
prair ie</w>
pp ers</w>
portug al</w>
por ter</w>
po s</w>
plan ets</w>
pi ers</w>
phys ics</w>
philip pe</w>
ph rine</w>
ph ant</w>
paren t?</w>
par anthropus</w>
pal las</w>
p t</w>
p seu
p k
p iz
p is
p es</w>
p ec
p am
p age?</w>
own ?</w>
ot to</w>
origin ate?</w>
orchest ration</w>
or s?</w>
or o</w>
or am</w>
op s</w>
oli via</w>
off springs</w>
od ymium</w>
ob ject?</w>
o. j.</w>
o y</w>
nu clear</w>
nomin ee</w>
no bu
ni x</w>
nakad ai</w>
n ude</w>
n k-
nk- 33</w>
n ine</w>
n ea
n ac
mäd chen</w>
montgomer y</w>
mon ke
mon k</w>
mo on
mir i
miri am</w>
min i
mid way</w>
mi ster</w>
mi an</w>
me h
mc gregor</w>
mc dor
mcdor mand</w>
max notes</w>
mar c
man s</w>
mag loire</w>
mag ical</w>
mag ic
m us</w>
m und</w>
m mel</w>
m ich</w>
m enti
m c</w>
log ist</w>
lo se</w>
lo oking</w>
list en</w>
lion el</w>
lin ux</w>
leagu e?</w>
le y
l u</w>
l one</w>
l cc</w>
l at</w>
ko mp
kno ck
ke el</w>
kat rina</w>
kar ak
kal ou</w>
ka thy</w>
k ang
jurisdic tion</w>
jel ica</w>
jagu ar</w>
jackson ville</w>
j am</w>
iz a</w>
is er</w>
ira q</w>
ir is</w>
io s</w>
inten ded</w>
indone sia</w>
indepen dence</w>
in jection</w>
impressi ons</w>
ig ner</w>
ig an</w>
if a</w>
i x
i um-2
i op
i ko</w>
i ent</w>
i ata</w>
i ap
i ac</w>
hug o</w>
hop kins</w>
home ward</w>
hol der</w>
hol d?</w>
ho t
hed ge
hedge hog</w>
he y</w>
hawa ii</w>
haw ks</w>
har d
hal mich</w>
ha wn</w>
ha ssium</w>
h n
h k</w>
h ans</w>
h ang
h .
gun n</w>
gro wth</w>
gran ts</w>
govern mental</w>
go tham</w>
gm c</w>
ger man
ger ard</w>
gent leman</w>
gen s</w>
g us
g mail</w>
g inger</w>
g in</w>
g ear</w>
fro g</w>
fore ver</w>
fore igner</w>
for ces</w>
focus sed</w>
foc al</w>
fo ur
fluor ine</w>
fi ba</w>
fer ris</w>
fel ix</w>
feat ured?</w>
fe derer</w>
fa ther
fa ced</w>
f ever</w>
f eld</w>
f c
f anning</w>
explor ation</w>
exhib it</w>
execut ed</w>
ex pen
ex act</w>
eu ph
eth iop
et ti</w>
er ra</w>
ep ic</w>
eo -19</w>
ent eb
enteb be</w>
en viron
elli ott</w>
elect ion,</w>
el ope</w>
el iot</w>
edit ion?</w>
ed onia</w>
eas y</w>
e la
e ch
e /
du v
du st</w>
du ck
dre ss</w>
drag ster</w>
dra ught</w>
dol ly</w>
docum ent</w>
do va</w>
do om</w>
discover y?</w>
dic o
dex ter</w>
design eds</w>
des ire</w>
defen se</w>
de vils</w>
de sch
de la
dar ryl</w>
dar ren</w>
dang ero
dan te</w>
dan cer</w>
dam n</w>
da ffy</w>
d ong</w>
d ner</w>
d art</w>
d 's</w>
ct us</w>
cruis er</w>
count ry?</w>
cot ton</w>
cost ner</w>
constell ation?</w>
con tro
con structed</w>
compo ser
com a</w>
co vers</w>
cla u
cir cu
cinemato gra
cin dor</w>
chu n</w>
chro mo
christ ina</w>
chap el</w>
chan cell
cham ber
chamber la
ch io</w>
ch es
cer tification</w>
cau st</w>
cassi ope
cassi dy</w>
care y</w>
cam eo</w>
cam bridge</w>
ca v
c r</w>
bull dog</w>
bu zz</w>
bu ll</w>
bu en
bu dd
bron x</w>
brit tany</w>
bri en</w>
bre wers</w>
bra m</w>
br yan</w>
bot tle</w>
border lands</w>
boo t</w>
boo ker</w>
bo yd</w>
bo tan
bo ld</w>
bo g
blog :
bla ir</w>
bin ding</w>
bet ty</w>
bent ley</w>
beng als</w>
bened ict</w>
belong ing</w>
be er</w>
batter y</w>
bar ber</w>
bald win</w>
b ler</w>
b ello</w>
b ell
b -
au r</w>
au dre
atta cks</w>
ascen ded</w>
art ic
architect ?</w>
ar bor</w>
ar ab</w>
app urushīdo</w>
ap t</w>
ap pro
ap art</w>
ant ed</w>
ann es</w>
andre ws</w>
andre i</w>
an ta
an jelica</w>
americ as</w>
am ster
aldr in</w>
al cindor</w>
al and</w>
ag gre
af c</w>
ad vi
ab les</w>
a us
a mon
a e
a aa</w>
9 9</w>
80 8</w>
639 -1</w>
6 00</w>
4 /2
35 0</w>
3 /1
18 /
12 80
1/1/199 2</w>
1/1/ 2016</w>
1/1 9
0 6</w>
-1 0</w>
( rsv)</w>
( 197
公 式
zz i</w>
zoo topia</w>
z illa</w>
y y</w>
y ing</w>
y i</w>
y emen</w>
x en
wor th
wo ol
wiz ards</w>
wild life</w>
wil de</w>
warf r
warfr ame</w>
wal ton</w>
wag ner</w>
wa it
w em
w are</w>
vol de
volde mort</w>
vinc i</w>
vil le
vik ander</w>
vi st
veter ans</w>
ver tical</w>
ver a</w>
ven e
vat ore</w>
vari ations</w>
v p</w>
v or</w>
v ere</w>
v ance</w>
ush in</w>
ure a</w>
under wood</w>
und er?</w>
um- 90</w>
u ki</w>
u h
u es</w>
tun nel</w>
tribu ting</w>
tom lin
tomlin son</w>
to wers</w>
to t
tiber ias</w>
ti s
thro at</w>
tho dox</w>
theod or</w>
them es</w>
the us</w>
th under
th eta</w>
ter r
techn ical</w>
te k</w>
te e</w>
tall er</w>
ta r</w>
ta e</w>
ta ble
t ö
t u</w>
t .
sylvan ia</w>
sw ift</w>
sv k</w>
sus pen
sur vey</w>
sund ay</w>
sul fu
sulfu ric</w>
suit able</w>
sugar loaf</w>
su cc
stro m</w>
story writer</w>
stopp ed</w>
sto le</w>
sterio us</w>
ste ering</w>
ss in</w>
spit fire</w>
space flight</w>
space fl
spac e?</w>
sp ur
sp in
sp ike</w>
sp iel</w>
sp i
soyu z</w>
sor cier</w>
sor a</w>
sop ran
sopran os</w>
son of
sonof krypton
sonofkrypton /
sonofkrypton/ alexander</w>
sole il</w>
snow man</w>
sm all
sli p</w>
sla yer</w>
simp sons</w>
sil va</w>
sil as</w>
si kor
sher iff</w>
sher idan</w>
shel by</w>
she en</w>
sh ane</w>
sey mour</w>
sex ual</w>
serge y</w>
secon ds</w>
scor p
sco o
scoo by</w>
scho larly</w>
saf ety</w>
s- benz</w>
s mus
s logan</w>
s l</w>
s ell
s art
s al</w>
s _
rus h</w>
ross a</w>
rock ies</w>
robo t</w>
ro ws</w>
repub lics</w>
represent at
ren o</w>
re presented</w>
re p
re ference</w>
re al
rd-1 70</w>
radi ans</w>
ra z
ra smus
r ill</w>
r ard</w>
pursu e</w>
pur ple</w>
pu ll
psych _
psych_ usa</w>
prox ima</w>
produk tion</w>
princip al</w>
pri son</w>
pri ses</w>
pri mar
previ ous</w>
pp ins</w>
pos ition?</w>
pos ed</w>
port land</w>
por tal</w>
ponti ac</w>
po ppins</w>
po etic</w>
po e</w>
pla stic</w>
pla in</w>
pl ut
pk dd</w>
pix ar</w>
pick up</w>
pic asso</w>
physician ?</w>
pho bos</w>
philip pine</w>
phen y
pet erson</w>
person al</w>
per se
pen elope</w>
ped ro</w>
pass enger</w>
particip ants</w>
pal est
pa sta</w>
p ia</w>
p es
p enny</w>
p -5
p-5 1</w>
ox idi
oxidi zer</w>
oun ces</w>
otta wa</w>
or thodox</w>
or mond</w>
or gy</w>
or :</w>
oper at
on ism</w>
oil ers</w>
o vis</w>
o ster
o on</w>
o ms</w>
o logy</w>
o asis</w>
ns w</w>
nor ris</w>
nomin ees</w>
no thing</w>
no ah</w>
ning -in-
ning-in- a</w>
nic hol
ni k
new castle</w>
net s</w>
ner y</w>
nar gis</w>
n is</w>
n gu
n ca
nca a</w>
my sterious</w>
mu ham
mu d
ms .
ms. found
ms.found ation
ms.foundation women</w>
movies w</w>
mor pho
mor ning</w>
mon tre
mod ore</w>
mit su
mil k</w>
mid winter</w>
mi e</w>
meta morpho
mer yl</w>
mer ce
merce de
mercede s-benz</w>
menti oned</w>
ment or</w>
men ace</w>
me z</w>
me i</w>
me ga</w>
mcla ren</w>
mccar thy</w>
mb h</w>
mart in
mar tian</w>
mar lon</w>
mar gar
mangan ese</w>
man s
ma sters</w>
ma ker</w>
ma ke
ma e</w>
m n</w>
m iz
lut e
lu cer
long mire</w>
loc ales</w>
light ning-in-a</w>
lie ber</w>
le u
le m</w>
law ?</w>
lau rence</w>
last sonofkrypton/alexander</w>
la v</w>
la dies</w>
la c</w>
la bor
l us</w>
l ille</w>
l ent
kre ssin</w>
kid man</w>
kenn y</w>
kat ie</w>
kat an</w>
ka zu
k yo
k us
k s
k ro
k ish
k is</w>
k hal
juni or</w>
joy ce</w>
john s</w>
jo b
je anne</w>
jack ie</w>
ja ya</w>
j in</w>
j ab
j .s.</w>
it un
it is</w>
isab ella</w>
is el</w>
ir ish</w>
investig ative</w>
investig ation</w>
interc eptions</w>
inter stellar</w>
int e
ing .</w>
ine ,</w>
incre di
inc t</w>
in no
in burgh</w>
ill in</w>
il y
ig e</w>
id entity</w>
id ?</w>
ic ism</w>
ic ed</w>
iap etus</w>
ia e</w>
i si
i pad</w>
i b</w>
hydro chlor
hy d
hur st</w>
hu man
ht c</w>
host iles</w>
hon g
holo caust</w>
hol land</w>
hobb ies</w>
ho over</w>
hir ing</w>
him self</w>
hil ton</w>
her schel</w>
hel d?</w>
he ard</w>
he al
hay es</w>
har dt</w>
happ en</w>
hann ah</w>
ham mer</w>
ha unted</w>
ha u
h ate</w>
gu chi</w>
gre ase</w>
gram my</w>
gr o</w>
gol die</w>
go ose</w>
go ds</w>
gir l
gif ted</w>
gi a
gat sby</w>
gar rett</w>
gab riel</w>
ga vin</w>
g ment</w>
g mbh</w>
g ing</w>
g ill</w>
fü r</w>
fri ed</w>
freder ick</w>
for tun
fo x
flo o
fis cal</w>
fi st</w>
fi elder</w>
fel tman</w>
fe y</w>
fe ed</w>
fal k</w>
fal cons</w>
f/a -18</w>
f ugly</w>
f t?</w>
f -22</w>
ey er</w>
exper iment</w>
exc ept</w>
ex tra</w>
ever y</w>
et amine</w>
es a
er o</w>
er in</w>
er g
enter prises</w>
eng ine?</w>
en roll
en ge</w>
em ber</w>
em a</w>
elem ent’s</w>
ele an
elean or</w>
el ing</w>
el ess</w>
effic iency</w>
ed ith</w>
ed inburgh</w>
ed ge</w>
e dison</w>
e ber</w>
e an
dre ssing</w>
dr a</w>
dissol ved</w>
diseas e?</w>
di ver
di o
developer ?</w>
design ation</w>
del ux
de t</w>
de is</w>
de -
dark ness</w>
dangero us</w>
da y?</w>
d é
d tae</w>
d s
d k</w>
cy gn
cum ber
cro wn</w>
cro w
cri ed</w>
creat ed?</w>
cre ation</w>
count er</w>
contain ?</w>
con tempor
con qu
con go</w>
con cent
compri ses</w>
complet ing</w>
com modore</w>
colo m
co ol</w>
co o
co de
clo se?</w>
clim bed</w>
class ?</w>
clan cy</w>
cla y</w>
cit y,</w>
cir ro
cin dy</w>
ci vi
christ ine</w>
chem ist</w>
char lton</w>
chancell or</w>
cha ined</w>
ch ry
ch at
ch air</w>
celebrit y</w>
celebrit ies</w>
cea ble</w>
ce y</w>
carbon yl</w>
carbo hyd
car toon</w>
capac ity?</w>
cap tain
can al</w>
ca s
ca de</w>
c or</w>
c ip
c es
c alls</w>
burg ess</w>
bur ger</w>
bul lock</w>
bu ri
bro wser</w>
braz il
bran do</w>
box er</w>
botan ical</w>
bor row</w>
bor is</w>
bo lt</w>
blog: lastsonofkrypton/alexander</w>
bis muth</w>
bir m
bever ly</w>
bel le</w>
bea u</w>
be y</w>
be et
be ef</w>
be at</w>
bb -
bay watch</w>
bathro oms</w>
basi c</w>
bas ed</w>
bar o
bapti st</w>
ban ks</w>
ba um</w>
b lake</w>
b f</w>
b ella</w>
b da</w>
b and
b ale</w>
b .
av enger</w>
automobil es</w>
auth or?</w>
attemp ted</w>
at tributing</w>
as signed</w>
arti stic</w>
ar row</w>
ar ctic</w>
apo calyp
anta res</w>
anato my</w>
an to
an te
amster dam</w>
amph etamine</w>
amon g</w>
am anda</w>
alta ir</w>
alexand ra</w>
al ready</w>
al de
al chemist</w>
aggre gate</w>
ag ent?</w>
ag ed</w>
ag atha</w>
aff leck</w>
adu s</w>
ad ra
ad missions</w>
act or?</w>
act i
ac ross</w>
a z</w>
a we
a sia</w>
a g</w>
a 's</w>
_4 -10
9 /2
8 e-05/
8 .0</w>
7 4
6 67</w>
6 20
6 12
5 00
4 4
4 00</w>
3 ds</w>
3 /19
20 /19
2 3
2 /2
2 /19
197 5</w>
19 60</w>
12 3
12 0</w>
10 9</w>
10 4</w>
1/1/ 2015</w>
0 8</w>
- the-
- and-
%2f3000 -2
% 20
公式 チ
公式チ ャ
公式チャ ン
公式チャン ネ
公式チャンネ ル
公式チャンネル ボブサップ
公式チャンネルボブサップ tv</w>
ボブサップ 公式チャンネルボブサップtv</w>
í n</w>
ã o</w>
zon e?</w>
yu ki</w>
yo ur
ye wu</w>
yaho o</w>
y man</w>
y .</w>
x ote</w>
x l</w>
x box</w>
wy nor
wynor ski</w>
writ ings</w>
writ e?</w>
wonder land</w>
wil l
wic z</w>
wi th?</w>
whit ney</w>
wh ist
wer ke</w>
wen dy</w>
wee ks</w>
we ek
w ire</w>
w ir
w i</w>
w anda</w>
w ally</w>
vol ley
volley ball</w>
vo y</w>
vo iced</w>
vist ula</w>
villa ge</w>
vil les</w>
vi va</w>
vi r</w>
vest a</w>
v ul
v eng
ut en
us ers?</w>
us age</w>
ur al-
ural- history</w>
unde e</w>
un i</w>
un ami</w>
ugh ts</w>
uer ding
uerding en</w>
u lar</w>
u ci</w>
u c</w>
u b
turk ana</w>
tun g
tung sten</w>
ts unami</w>
truste e</w>
tru th</w>
tro y</w>
tro u
tre as
tra n</w>
tra ce</w>
tor i
tom ato
titan ia</w>
tit ic
titic aca</w>
tic ket
ticket ed</w>
thor n
thorn ton</w>
theat res</w>
th on</w>
th ick
thick ness</w>
th ic</w>
th en
th bone</w>
th at
th ail
thail and</w>
tex ans</w>
tet ra
tel lu
teen age</w>
tag ged</w>
ta x
ta k
ta hoe</w>
t su
t rit
t ni</w>
syn c</w>
swe et
sw it
sw im
sus sex</w>
survi ving</w>
super star</w>
super natural</w>
sup posed</w>
sun flowers</w>
sum mer
sum m
su f
su c
su bar
subar u</w>
su b</w>
stu dy
study ing</w>
struct ure?</w>
stri p</w>
strat eg
story book</w>
ster o</w>
ster ben</w>
stat e
st y</w>
st ones</w>
st ap
stap les</w>
st amp
st age</w>
sso m</w>
spor ts
spon ge
sponge bob</w>
spect re</w>
spect or</w>
specim en
special ist
span iel</w>
sp y
sp urs</w>
sp run
sprun g</w>
sp hin
sphin x</w>
son ata</w>
soli d</w>
so v</w>
so der
so ar
soar in'</w>
sil ence</w>
si ster</w>
si erra</w>
shep ard</w>
shel ley</w>
sh na</w>
seren ity</w>
ser bia</w>
sen ators</w>
secur ity</w>
secre t
seas on?</w>
sea world</w>
se ver
se stero</w>
se quel?</w>
se oul</w>
sdddd dd</w>
screen play</w>
scien ce
schwar tz</w>
sch ne
sch mitt</w>
sch la
sc o</w>
sc an
sat ya
san ct
sal v
sal icy
sab an</w>
sa wa</w>
sa p</w>
s z
s q</w>
s ic
s el</w>
s d</w>
s as
s ang
rush more</w>
run escape</w>
ru ther
ru by</w>
ron as</w>
rock y</w>
rober ts</w>
ro ugh
ri m
ri alto</w>
rhy th
rhin oc
rhinoc eros</w>
ret ta</w>
request ed</w>
rel ude</w>
recor ded?</w>
re spo
re sources</w>
re sa</w>
re s?</w>
re o</w>
re boot</w>
raven s</w>
ran o</w>
ran dolph</w>
ran d
rain bow</w>
ra thbone</w>
ra ka</w>
ra is
ra int
raint ree</w>
r t</w>
r iley</w>
r hen
r hea
r -
qui xote</w>
que z</w>
qu at
public ations</w>
psycho logy</w>
promo ted</w>
pro to
prison er</w>
pri est
pri de</w>
pres sion</w>
premi er</w>
practition er</w>
pr inting</w>
pot ter
pot ential</w>
pos iton</w>
polic y</w>
po lar</w>
plut on
plan ned</w>
pl ease</w>
phen ol</w>
pau lo</w>
pat ent</w>
pas sed</w>
pap a</w>
pal m</w>
pad res</w>
pac kers</w>
pa st
pa ol
pa c</w>
p relude</w>
p li
p ablo</w>
p .s.</w>
orchest r
or t</w>
or phan</w>
or ,</w>
op atra</w>
on yewu</w>
on is</w>
offic ially</w>
off er</w>
od i</w>
occur red</w>
occup ant</w>
occ ur</w>
oc ean
o ta
o guchi</w>
o de
nutri ents</w>
northro p</w>
nin ja</w>
ni ac
ngu yen</w>
ne on</w>
ne ill</w>
nat ural-history</w>
nast y</w>
n g
n eal</w>
n dal</w>
museum-of- natural-history</w>
municip io</w>
movi er
mor tal</w>
montre al</w>
mon te</w>
mon o</w>
mo sk
mo reno</w>
mo ana</w>
mil eage</w>
mig-2 1</w>
mid fielder</w>
mi ral</w>
mer o</w>
mer chant</w>
ment ors</w>
men ber</w>
mec k
meck len
mecklen burg</w>
me tho
me ier</w>
mc mah
mcmah on</w>
mb at</w>
maur ice</w>
masco t?</w>
mar ner</w>
mar k
manufact uring</w>
manu elle</w>
man jar
manjar o</w>
mac on</w>
mac edonia</w>
ma ssi
ma jo
majo red</w>
ma dame</w>
m ead</w>
m d-
m .
lyricist ?</w>
lute tium</w>
luc ille</w>
lu ck</w>
low n</w>
log ged</w>
lo vers</w>
lo co
ll en
liz ation</w>
liqu id</w>
lie be</w>
li ver
let ten</w>
lem mon</w>
lea ther</w>
lea n</w>
le ic
le i</w>
lat in</w>
lan g</w>
lam bda</w>
la ssie</w>
la ser</w>
la o</w>
l wb</w>
l v
l lo
l ily</w>
l ate</w>
kryp ton</w>
komp letten</w>
ko v</w>
ko s</w>
ko mbat</w>
knock downs</w>
kir k
kil i
kili manjaro</w>
kat a</w>
karak oram</w>
ka sh
k um
k son</w>
k ick
k fc</w>
k au
k am</w>
journ alism</w>
jos é</w>
jo y</w>
jo ker</w>
jack man</w>
j w</w>
j ur
j j</w>
j it</w>
iv ed</w>
ist y</w>
isab el</w>
is ei</w>
ir i</w>
invi ted</w>
invest ments</w>
int ell
intell ig
intellig ence</w>
inf eld</w>
incre dico
incredico aster</w>
in us</w>
in su
im s</w>
illustr ations</w>
il les</w>
il ities</w>
ig rade</w>
ig er</w>
iff el</w>
id ine</w>
id ge</w>
ic illin</w>
ic ann</w>
i ran</w>
i ber</w>
hus on</w>
hurric anes</w>
hun gary</w>
hul k</w>
hu ck
hu a</w>
horiz ons</w>
hoff man</w>
ho ly</w>
hi red</w>
her tha</w>
her self</w>
hen son</w>
hel ena</w>
he re
hand ler</w>
hal o</w>
ha zy</w>
h er?</w>
gri zz
gri ssom</w>
gre ek</w>
got ten</w>
go mez</w>
go gh</w>
gn is</w>
gia como</w>
geo coordinates</w>
gen etic</w>
ge ist</w>
gat ti</w>
gar dner</w>
galil ee</w>
gala ctic</w>
gab les</w>
ga dot</w>
g us</w>
g in
g ets</w>
ful ton</w>
fri end</w>
fra sier</w>
follow ers</w>
fol k</w>
floo ding</w>
fle sh</w>
fla g</w>
fl at</w>
fl ames</w>
fen way</w>
famili arus</w>
famil ies</w>
fall ing</w>
fa w
f ers</w>
expen da
expenda bles</w>
ex emp
ex cer
excer p
evol ved</w>
et ine</w>
erup ted</w>
enroll ed</w>
en d?</w>
en ce
em manuel</w>
em ent
el sa</w>
eg g</w>
eg el</w>
ed on</w>
e wing</w>
e u</w>
e iffel</w>
e g</w>
dy nasty</w>
dut ch</w>
dum b</w>
du lat
domest icus</w>
diver gent</w>
dish es</w>
dir k</w>
di phen
dextro meth
destin y</w>
desch an
deschan el</w>
der ived</w>
den isty</w>
delux e</w>
dei mos</w>
defin ition?</w>
dead ly</w>
dar at</w>
da w
d undee</w>
d f</w>
d ag
cyc line</w>
ct ,</w>
cro ft</w>
count ess</w>
cou pe</w>
contempor ary</w>
conne ction</w>
concer ts</w>
con nery</w>
con feren
comp lic
colum bus</w>
col i</w>
col a</w>
coast line</w>
co x</w>
co p</w>
cle opatra</w>
cla ire</w>
cl er
ck er</w>
civi lization</w>
cir rus</w>
cic cone</w>
ci e
chry sler</w>
cher ry</w>
che z</w>
chamberla in</w>
chall enge</w>
cha in</w>
cent igrade</w>
cel ine</w>
cel ia</w>
car mina</w>
car ds</w>
capit ol</w>
campa ign</w>
ca p</w>
ca fe</w>
c us
c up
c un
c ked</w>
c coli</w>
c ato
c andy</w>
bur t</w>
bull dogs</w>
buff y</w>
bu ty
bu st
bu gatti</w>
bu eller</w>
bry ce</w>
broo ke</w>
broadcast er</w>
bro ke</w>
bro ccoli</w>
bro adus</w>
brit ann
bre t</w>
brazil ian</w>
br ü
book ’s</w>
bon nie</w>
bon es</w>
bo y
bo ul
birm ingham</w>
bir ds</w>
bi el</w>
bet ter</w>
beet le</w>
bear cats</w>
be ren
bat eman</w>
bat ants</w>
bart benjamin</w>
bar bra</w>
bar bie</w>
ba la
b und</w>
b ley</w>
b iz
b har
av a</w>
aur ora</w>
audre y</w>
au x
atlan tis</w>
at ics</w>
ash er</w>
as i</w>
artic les</w>
arg on</w>
ar is</w>
ar di
ar ct
ar c</w>
aqu ari
apo phis</w>
ans en</w>
ann on</w>
ang katan</w>
and ra</w>
and r
anci ent</w>
an- museum-of-natural-history</w>
an them</w>
an archy</w>
americ an-museum-of-natural-history</w>
am o</w>
am ber</w>
alto stratus</w>
alter nate</w>
ali as</w>
ale k
al tered</w>
al ma</w>
al ive</w>
al e?</w>
al do</w>
aircra ft?</w>
ah med</w>
agu a</w>
ag o
ad mit
ad miral</w>
ach ieve</w>
acetaminoph en</w>
acco mod
ac etic</w>
ab ilities</w>
ab el</w>
ab bey</w>
a3 80</w>
a yan</w>
a venue</w>
a dolph</w>
a dium</w>
99 9
999 42</w>
9 .
8 4
8 00</w>
7 -
612 4</w>
6 1
5/ 2017</w>
5 .0</w>
4 wd</w>
4 000</w>
4 )</w>
30 1</w>
28 .0</w>
201 0
2009 -09
2 -
199 3</w>
19 39</w>
19 20
15 0</w>
1280 65</w>
11 /2
11 .0</w>
1/1/200 0</w>
1/1/199 7</w>
1/1/198 4</w>
1/1/19 80</w>
1/1/19 45</w>
1/1/ 2012</w>
0 60
/19 47</w>
-2 3</w>
-2 0</w>
( serials)</w>
é mon</w>
á r
zy k</w>
zing iber</w>
ze wski</w>
ze aland</w>
z t</w>
z rs-
zrs- 5)</w>
z ol
z ky</w>
your self</w>
yo shi</w>
yo shi
yl on</w>
year s?</w>
yar ds?</w>
yanke e</w>
y son</w>
y iel
yiel d?</w>
y en
y da</w>
y az
x l
writ er.</w>
worl d
wor ship</w>
wolver hamp
wolverhamp ton</w>
wol ff</w>
wo z
with christian</w>
windo w</w>
win d
whist ler</w>
west field</w>
wer der</w>
wem bley</w>
wel t</w>
weigh ?</w>
week end</w>
web page?</w>
wea ver</w>
we g
wat er?</w>
war saw</w>
w v</w>
w rec
w l</w>
w int
w ine</w>
w an
w age</w>
vla di
vill a</w>
vign on</w>
victor ian</w>
vict ory</w>
vi vi
vi est</w>
vey ron</w>
ver ified</w>
ver field</w>
vent ure
ven at
venat ic
ven ant</w>
vehic le?</w>
van guard</w>
v u
v ar</w>
v )</w>
ut i</w>
ush i</w>
us e
uran ium-2
ur l?</w>
unt ing</w>
un ity</w>
un dulat
undulat us</w>
um ea</w>
um bri
ul f</w>
u st
u e?</w>
u ba</w>
ty pic
tv -14</w>
tv -
tur ns</w>
tru man</w>
tri oxide</w>
tri o</w>
tri an
tri als</w>
tran s</w>
tra volta</w>
tra ceable</w>
tori yama</w>
to pe</w>
to oth</w>
to le
tole do</w>
ti ppi</w>
ti az
tiaz em</w>
thro my
thromy cin</w>
tho ughts</w>
tho mson</w>
ther land</w>
th esa
thesa urus</w>
tet ris</w>
territ ory</w>
ter i</w>
te u
te k
tam ing</w>
tam il</w>
ta u</w>
t- shirt</w>
t ube</w>
t to</w>
t sub
t sch
t pc</w>
t ess</w>
t es</w>
t enn
t eas
sw ing</w>
suppor ting</w>
suf jan</w>
sub series</w>
su ki</w>
su kho
su gg
sugg est
struct ured</w>
stri ke</w>
stra uss</w>
stra it</w>
stem ming</w>
stein er</w>
state warriors</w>
stat us?</w>
stat ement</w>
stat e?</w>
star craft</w>
sta in
st ur
st ick</w>
st er?</w>
ss us</w>
sports association</w>
specialist """</w>
spec ies?</w>
spe ed
spa hn</w>
sp ent</w>
sp a</w>
soli s:</w>
soli dated</w>
soder ber
soderber gh</w>
so meth
someth ing</w>
so line</w>
so chi</w>
sna fu</w>
smo ke</w>
sma sh</w>
slo v
sleep ing</w>
sla ve</w>
sk in
sing ap
singap ore</w>
sin s</w>
sin ki</w>
sil k</w>
sikor sky</w>
si x
shor ty</w>
shir t,</w>
sham rock</w>
sha wn</w>
sha h</w>
sh ed</w>
sh annon</w>
seren a</w>
ser ver</w>
sequ ential</w>
se um</w>
se ction</w>
se ,</w>
script or</w>
scre w</w>
scot land</w>
school ing</w>
school ?</w>
scho last
scholast ic</w>
sc ri
sau vignon</w>
satya jit</w>
sar k</w>
sap i
sapi ens</w>
santi ago</w>
samu rai</w>
salicy lic</w>
sa h
s pro
s ni
s borough</w>
s ane</w>
s ana</w>
s ale</w>
s /
run time?</w>
run ?</w>
ross i</w>
ro ster?</w>
ro sen</w>
ro ne</w>
ro mero</w>
ro m
ro le
rist s</w>
rin sic</w>
rin ova</w>
rid ged</w>
ri que</w>
ri os</w>
ri bis
ribis i</w>
rhea gan</w>
resul t</w>
reservo irs</w>
ren zo</w>
ren a</w>
rel ation</w>
regu lus</w>
regu larly</w>
recip ient</w>
receiv ed?</w>
receiv e?</w>
rec ut</w>
re vi
re ra</w>
re public
republic an</w>
re ne
re es</w>
rd-1 80</w>
rd-0 120</w>
rd -2
ran o
rano plan</w>
ran dom
random house
randomhouse .com</w>
radio logist</w>
ra sh
ra da</w>
quot e?</w>
qui et</w>
quel .</w>
quart er
qu ette</w>
pul p</w>
pu p
pseu do
ps i</w>
pro p
pro of</w>
primar ily</w>
priest ley</w>
previ ous
previous ly</w>
prec edes</w>
prat t</w>
pra desh</w>
pp es</w>
pp ed</w>
pow er?</w>
potter ...
potter... less</w>
pos se
pok émon</w>
po po
po oh</w>
po lon
po ll
po ing</w>
po et
pluton ium</w>
plan es</w>
plan ck</w>
pla use</w>
piz za</w>
pi ke</w>
pi g</w>
photo s</w>
pha se</w>
per sian</w>
per form</w>
penn sylvania</w>
ped o</w>
pea ky</w>
pe rez</w>
part s</w>
pan ther</w>
pal omar</w>
pac k</w>
pa kistan</w>
pa int
p um
p ist
p ing</w>
p ga</w>
p .
oz il</w>
ox etine</w>
organis m?</w>
orchestrat ors</w>
orchestr ations</w>
orchest ra</w>
orbit er</w>
open library</w>
op tical</w>
on to
on na</w>
on ic</w>
on ian</w>
on aut
onaut ics</w>
olympi ans</w>
olymp us</w>
ocean 's</w>
occup ation?</w>
oc lc</w>
o vi
o sa
o ak</w>
nut rinova</w>
nor mal</w>
nic ol
ni ag
niag ara</w>
ng c</w>
net works</w>
ne o</w>
nat ure</w>
na vi
na than</w>
n us</w>
n ure
n ug
n t</w>
n iv
n ces</w>
n ash</w>
mur cie
murcie lago</w>
mun ich</w>
multi ple</w>
mud bound</w>
moz art</w>
mou ths</w>
mon ty</w>
mon te
mo v</w>
mo ra
mo ment</w>
mo del
mis e</w>
min nea
milli meters?</w>
mill a</w>
mil ton</w>
mil an</w>
mid summer</w>
mi ra
meth yl</w>
met s</w>
mes ut</w>
men s</w>
mel ts</w>
mel o</w>
medic ation?</w>
medic ation</w>
me red
md- 80</w>
mc con
mat ters</w>
margar ita</w>
marc el</w>
mar ino</w>
man chu</w>
man ?</w>
male ate</w>
major is</w>
maj est
ma u
ma son</w>
ma law
malaw i</w>
ma i
ma ha
ma del
ma -
m ör
m v</w>
m ut</w>
m ings</w>
m g
m are</w>
ly rists</w>
lun -class</w>
lucer ne</w>
lor i</w>
long ?</w>
lo oney</w>
lo l</w>
lo ge</w>
lo d
lo ad
load ed</w>
ll s</w>
lim it</w>
li man</w>
lea ding</w>
le p
le one</w>
le it
launch ed?</w>
lat itudes</w>
lampo on
la ke
la k
la inst
lainst on</w>
la dus</w>
la da
lada inian</w>
l é
l ers</w>
l er
l ena</w>
l ear</w>
kuro sawa</w>
ko wski</w>
knot s?</w>
kle in</w>
kla us</w>
kit ty</w>
kin der
kilo metres</w>
ken ya</w>
ken shin</w>
ke ep</w>
kar ama
karama zov</w>
ka wa</w>
k ö
k ung</w>
k ru
k op
k man</w>
k har
k at</w>
k 82
k82 k</w>
ju ice</w>
joh annes</w>
job ?</w>
je an
j n</w>
j ag
iv y</w>
iv e?</w>
it ution</w>
iso tope</w>
is ?</w>
ir y</w>
ir l
ion s,</w>
invent or?</w>
interc epted</w>
int rinsic</w>
install ation</w>
insi di
insidi ous</w>
inform ation?</w>
ine m</w>
indu s</w>
inc y</w>
inc ident</w>
in sky</w>
in ,</w>
imper ial</w>
ily ushin</w>
ili ary</w>
ij ing</w>
ige ge
igege ben</w>
ig or</w>
identi al</w>
id o</w>
id el
ic m
ic b
i- 4
i-4 00
i-400 -class</w>
i ko
i in</w>
i est</w>
i eri</w>
i eld</w>
hydro xide</w>
hus band</w>
humph rey</w>
hrlic her</w>
horiz on</w>
hong kong</w>
hold er?</w>
hol low</w>
ho ch
hill sborough</w>
hen ri</w>
hel sinki</w>
hel ens</w>
hein rich</w>
hed ren</w>
hea viest</w>
he imer</w>
he im
hat eful</w>
happen ?</w>
han go
hango ver</w>
ham mer
hal ley</w>
ha umea</w>
ha shi</w>
gun smoke</w>
guid o</w>
gro und?</w>
gran d
gr ill</w>
got ta</w>
golden statewarriors</w>
go uld</w>
go thic</w>
gladi ator</w>
gh an
ger ry</w>
ger rard</w>
geo met
geo locations</w>
geo graphic</w>
gen esis</w>
ge on</w>
ge off</w>
ge .</w>
gat or</w>
gar ia</w>
gar c
gab al
gabal don</w>
ga soline</w>
ga p</w>
g. i.</w>
g und
g iza</w>
g ia</w>
g aga</w>
ful l
fri end
fre igegeben</w>
form ats</w>
for t
football er?</w>
fo ods</w>
fo o
fin ale</w>
fin a</w>
fil ing</w>
ff e</w>
fe e</w>
faw c
fawc ett</w>
favor ite</w>
fa ster</w>
fa sh
f lan
f inger</w>
f ight
f ett</w>
f ell</w>
f da</w>
exp ect
exec ution</w>
excerp ted</w>
ex act
exact ly</w>
ev angel
euro tunnel</w>
ethiop ia</w>
et s?</w>
er u</w>
er onautics</w>
er ic
equ ip
equ alizer</w>
eng el</w>
ence ladus</w>
en de</w>
en dar</w>
en berg</w>
emp ires</w>
emo ji</w>
em manuelle</w>
em inem</w>
ek ranoplan</w>
ein stein</w>
egyp t</w>
eg ger</w>
ed er</w>
ed er
ec o</w>
e- of-
e z
e x</w>
e un
e phe
e ira</w>
e ines</w>
e hrlicher</w>
e h
e di
duv all</w>
dun n</w>
dun can</w>
du bb
drag on
dra ke</w>
dr um
dor is</w>
dod gers</w>
do me</w>
do ck</w>
discovere r?</w>
diphen hydr
dil tiazem</w>
dia mon
dextrometh orphan</w>
deut sche</w>
demo crat
democrat ic</w>
del ano</w>
dead line?</w>
de scriptor</w>
de mon</w>
de ci
dddd dd
dar m
dan i
dal la
d ys
d ella</w>
d as
cyto genetic</w>
cut ty</w>
cu cum
cri spin</w>
cran e</w>
cour ville</w>
cor by</w>
cop per
contain ed?</w>
const itution</w>
consi st</w>
conqu er</w>
conne cted</w>
conn or</w>
concer to</w>
con solidated</w>
compan ied</w>
com ic
com e?</w>
com b</w>
col on
col in</w>
co w</w>
co venant</w>
co ve</w>
co up
co t</w>
co per
co le</w>
co bal
co ated</w>
co al</w>
clo verfield</w>
clo th</w>
cli ff</w>
circu it</w>
cinematogrpa her</w>
ci o</w>
ci d</w>
chromo some</w>
chloram bu
chlorambu cil</w>
chlor ine</w>
chin chil
chinchil las</w>
char gers</w>
ch on</w>
ch man</w>
ch is
ch ile</w>
ch et</w>
cato loge</w>
cassiope iae</w>
car ina</w>
car di
candi de</w>
cal ue</w>
cal ico</w>
cal endar</w>
ca m</w>
ca bin
cabin et</w>
ca ber
caber net</w>
c é
c ly
c is</w>
by e</w>
bur ns</w>
bur ana</w>
bun e</w>
buck minster</w>
bu reau</w>
bron cos</w>
broadcast ?</w>
bro ught</w>
brea king</w>
bra d
boul der</w>
bor ad
bon o</w>
bo p</w>
bo one</w>
blin ders</w>
black bird</w>
bl ü
bit ter</w>
beth any</w>
bet te</w>
bel fast</w>
bec ker</w>
bec k</w>
be ijing</w>
be gun</w>
bb- 63</w>
bau gh</w>
bat ch</w>
bar to
back ground?</w>
bac ks</w>
ba iley</w>
b t</w>
b sc</w>
b ly</w>
b ic
b ho
b enn
b -17</w>
az ine</w>
aux iliary</w>
auto mobile</w>
au x</w>
au lt</w>
au di</w>
atta ck</w>
ath ina</w>
at us</w>
at kinson</w>
ass ets?</w>
ash ly</w>
ash i</w>
ash a</w>
ascen ders</w>
art a</w>
are g
ar mo
ar men
ar ian</w>
ar am</w>
aqu os</w>
appear ?</w>
apo stle</w>
ap plause</w>
ap per</w>
anto ine</w>
anti mony</w>
ant ine</w>
ang lic
andre a</w>
ana ya</w>
an ita</w>
an as</w>
an ad
ali k</w>
ale yda</w>
al ’s</w>
al ysis</w>
al ger
al bi
air ways</w>
ai res</w>
ag no
af e</w>
aeg ean</w>
adverti sing</w>
advan ced</w>
addre ss?</w>
ad i</w>
acc ess</w>
ac p</w>
ac o</w>
ac companied</w>
ab ridged</w>
ab bo
a int</w>
a eronautics</w>
a 6
a6 m</w>
_ 5
? ?</w>
9 1</w>
8 k82k</w>
76 ers</w>
51 b</w>
40 .
4 33</w>
35 .0</w>
3 8
3 1
3 000</w>
3 /1/
201 9</w>
200 0
20 .0</w>
2. 5</w>
2 45
2 ,
199 99
198 8</w>
196 1</w>
195 9</w>
19 49</w>
19 47</w>
19 10</w>
18 0</w>
16. 4</w>
15 00</w>
15 .0</w>
12/1 5/19
12 8</w>
10 5</w>
10 000</w>
10 .0</w>
1/1/199 8</w>
1/1/199 1</w>
1/1/198 9</w>
1/1/197 7</w>
1/1/195 7</w>
1 )</w>
0 51b</w>
0 4</w>
0 1</w>
. k.</w>
. 5</w>
-2 7</w>
-1 5</w>
- man</w>
- 3</w>
( zrs-5)</w>
' m</w>
%3 areg
# 2</w>
" certified</w>
組 動
組動 画</w>
番 組動画</w>
レ ビ
レビ 番組動画</w>
フ ジ
フジ テ
フジテ レビ番組動画</w>
ß e</w>
zz y</w>
zer land</w>
zen egger</w>
ze bu</w>
za hn</w>
z ur
z sl</w>
z on</w>
z ir
z in
z ard</w>
z aire</w>
z -
yttri um-90</w>
yout u
youtu be
youtube .com</w>
yo uth</w>
yo t</w>
yl lium</w>
yel low
ya o</w>
ya lam</w>
y- of-
y es</w>
y ang</w>
y ak
xx vi</w>
x in</w>
x ed</w>
ww w
wor ac
worac zyk</w>
wit z</w>
winn ipe
winnipe g</w>
winn ie</w>
win s
wil lows</w>
wic k
wh t</w>
wh irl
wh i
wh edon</w>
well ness</w>
wel sh</w>
web site?</w>
we ight
we ek</w>
way ,</w>
war hol</w>
w ent</w>
w enn</w>
w age?</w>
vor :</w>
volunt eer</w>
vin ce</w>
ville ,</w>
villa in</w>
vide os</w>
vi ola</w>
ver non</w>
ver de</w>
venti on?</w>
ve t</w>
ve get
ve -
v í
v ot
v ec
vec chio</w>
v ary</w>
v ap
v ader</w>
ut a</w>
us er?</w>
us e?</w>
urugu ay</w>
uran ium</w>
ur ber
urber villes</w>
und i</w>
und ai</w>
un it?</w>
un gen</w>
un chained</w>
umbri el</w>
um e
ul in</w>
u z
u la
u i</w>
u dv
udv ar</w>
u d
u c
tz u</w>
ty ran
twa in</w>
tur tle</w>
tur bo</w>
tur bo
tru st</w>
trop ic</w>
trit on</w>
trian gul
triangul um</w>
tri stan</w>
tri bune</w>
tri bal</w>
trans mission?</w>
trans l
tra vis</w>
tra vels</w>
tr ini
trini dad</w>
tor pedo</w>
ton ’s</w>
ton a</w>
tomato es</w>
tomat o</w>
to te</w>
to ons</w>
to bago</w>
to ad</w>
tion ary</w>
timber lake</w>
ti sol</w>
ti mel
thur s
thre ep
threep enny</w>
thre e
tho se</w>
thir ty</w>
thi er
thier ry</w>
thi as</w>
theod ore</w>
theat ers</w>
the bes</w>
th x</w>
test oster
testoster one</w>
termin als</w>
ter rell</w>
ter ior</w>
ter bium</w>
tellu rium</w>
tea ching</w>
tax ono
taxono mic</w>
tam my</w>
tal is
talis man</w>
taka hashi</w>
ta -
t uni
t ug
t te</w>
t les</w>
t l</w>
t 4
swit zerland</w>
sw b</w>
sv u</w>
sur fer</w>
super cab</w>
sun rise</w>
sun ny</w>
summer time</w>
sukho i</w>
succ ess</w>
sub title</w>
style side</w>
stron ti
str i</w>
ston e
stamp ed
sta tham</w>
st s-
st ea
ss o</w>
ss er</w>
speed way</w>
specimen ?</w>
sp ray</w>
soph ie</w>
song book</w>
soci ology</w>
so lan
solan um</w>
sn an</w>
sla de</w>
sl r</w>
sky rim</w>
sk aya</w>
sing vogel</w>
sil liman</w>
sie ge</w>
sibl ing?</w>
si stine</w>
si s?</w>
si onal</w>
si mu
si m</w>
sho pping</w>
shel don</w>
she ff
sheff ield</w>
sh ula</w>
sh man</w>
sh ire</w>
sh ia</w>
sett ing?</w>
sessi ons</w>
serv es</w>
ser schmitt</w>
ser p
select ed</w>
sed na</w>
se same</w>
se gor
se ga</w>
scri bed</w>
schwar zenegger</w>
sch ö
sch mid
sch ind
schind ler</w>
sch en</w>
sc u
sc ala</w>
sc a</w>
say brook</w>
satur ated</w>
sat ya</w>
sanct uary</w>
sam my</w>
sal es</w>
saint -
sa x
sa sha</w>
sa far
s_ christ
s_christ mas
s_christmas _
s_christmas_ vacation</w>
s. i.</w>
s ven
s van
s ri</w>
s ny
ry der</w>
ruther ford</w>
run k</w>
ru ro
ruro uni</w>
ru kh</w>
ru d
ru bio</w>
rou ge</w>
ron g</w>
roman o</w>
roc co</w>
ro ver</w>
ro us
ro und
ro s
rip en</w>
ric a</w>
rhen ium</w>
ret z</w>
respon ds</w>
rel son</w>
re visited</w>
re venue</w>
re present</w>
re port</w>
re ira</w>
re fe
refe rees</w>
re con
recon na
reconna issance</w>
re 's</w>
rd-10 7</w>
rat or</w>
rat e
rate """</w>
rasmus sen</w>
rand all</w>
ran ger</w>
ran dom</w>
ram id</w>
raj as
rajas than</w>
rain ier</w>
radi us?</w>
ra w
ra j</w>
r wd</w>
r u</w>
r at</w>
qu et</w>
qu as
qu ad</w>
py ramid</w>
pu zz
psy cho</w>
pseudo e
pseudoe ph
pseudoeph ed
pseudoephed rine</w>
prote ction</w>
progen y</w>
product ions,</w>
pro vinc
pro pion
pro meth
pro gress</w>
pro fic
profic iency</w>
prevent ?</w>
pres ent?</w>
predat or</w>
pre scribed</w>
pr us
posse ssed</w>
pon y</w>
pon ce</w>
pol k</w>
po sts</w>
po ly</w>
po ker</w>
pla cid</w>
pist ons</w>
pil ot</w>
pheny le
pertain ?</w>
performan ce?</w>
pe ggy</w>
pau l
pat ty</w>
pat ti</w>
pat o</w>
par then
pan ts</w>
pan de
palest inus</w>
pal la
palla dium</w>
pad dle</w>
pa dova</w>
p é
p y</w>
p se</w>
p p</w>
p or</w>
p on</w>
p n</w>
p lic
p en</w>
p c
ox la
oxla de</w>
out standing</w>
out lander</w>
ous el</w>
os is</w>
organis ms</w>
orb ison</w>
oper ators</w>
open ?</w>
on -
om i</w>
olympi as</w>
ol l</w>
ol i</w>
ol dest</w>
o sh
o i</w>
o e</w>
o der</w>
o c</w>
nure m
nug gets</w>
no ma
no la</w>
no ck</w>
no .
nit ro</w>
nit rate</w>
nichol son</w>
nic ht</w>
nic ar
nicar agua</w>
ni est</w>
ni bel
nibel ungen</w>
nex us</w>
ne odymium</w>
ne mo
ne and
neand erthal</w>
naz i</w>
national _
national_ lampoon
national_lampoon _
national_lampoon_ s_christmas_vacation</w>
natal ia</w>
nan dez</w>
nad u</w>
na acp</w>
n ppes</w>
n igh
n en
n ath</w>
mut er</w>
mu z
mu da</w>
mosk va</w>
mori hei</w>
mor d
mono poly</w>
mon ster
model ?</w>
mo tor</w>
mo ther?</w>
mo ses</w>
mo retz</w>
mo m</w>
mo m
mo do
mo ck
mitsu bi
mitsubi shi</w>
mis er
miser ables</w>
mis e?</w>
minnea polis</w>
min d
mim i</w>
mim as</w>
mil o</w>
mil ky</w>
mil f</w>
mig-2 9</w>
mi st</w>
mi ro
mi -2
metamorpho ses</w>
mes serschmitt</w>
mered ith</w>
memo ries</w>
mel li
melli fer
me la
mela leu
me kong</w>
me et</w>
mccon aug
mcconaug hey</w>
max well</w>
mat thias</w>
mat th
mat ilda</w>
master piece</w>
mart ine
martine z</w>
marqu is</w>
mar mara</w>
mar ley</w>
mar co</w>
manufact ure</w>
manag ements</w>
manag ement
man sion</w>
mala yalam</w>
mal ta</w>
mal i</w>
maj ors</w>
main z</w>
main tain
madel ine</w>
mach ines</w>
mach ida</w>
mac book</w>
ma ure
ma sk</w>
ma pping</w>
ma honey</w>
ma ck
m é
m yo
m nast
m l
ml pkdd</w>
m is</w>
m ers</w>
m d
m all
m -
ly ra</w>
ly ?</w>
lum pur</w>
lu pus</w>
lu kas</w>
loy ola</w>
low ell</w>
lou isi
lod ges</w>
loco motive</w>
loc k
lo ts</w>
lo is</w>
llen ha
llenha al</w>
ll is</w>
liv e?</w>
link ed
linked in</w>
lin o</w>
lin e
lic k</w>
li ves</w>
li ved</w>
li ars</w>
let cher</w>
leg ally</w>
lear n</w>
le vi
le o
le d
le berry</w>
le -
lat or</w>
last ing</w>
lan than
lam bs</w>
labor atory</w>
la y</w>
l. a.</w>
l x</w>
kur sk</w>
ku n</w>
ku ala</w>
kri shna</w>
kol kata</w>
kin i</w>
kie wicz</w>
ki mos</w>
khal ifa</w>
ker r</w>
kel ton</w>
kare o</w>
ka y
ka plan</w>
k ul
k t</w>
k ie</w>
k ia</w>
k ann
just ic
juli us</w>
jul i</w>
jud ith</w>
ju do</w>
jour ne
joh an</w>
jo ss</w>
jo si
jo ey</w>
jo anna</w>
jar vis</w>
jam mu</w>
jagu ars</w>
ja doo</w>
j. k.</w>
j e</w>
j al</w>
it er</w>
it ali
it able</w>
issu es</w>
isotop e?</w>
is ed</w>
ipe i</w>
ion e</w>
invi sible</w>
insi der</w>
init i
ingredi ents?</w>
ing way</w>
ing a</w>
incredi bles</w>
inc us</w>
in- line</w>
in spector</w>
in corpor
in as</w>
imag in
ill ed</w>
ie -
ic io</w>
ic ans</w>
ic ally?</w>
ic a
i ya</w>
i ron
i pod</w>
i ers</w>
i ber
i ,</w>
hydro xy
hy undai</w>
hy per
huck leberry</w>
horiz on
hoo die</w>
hold ings</w>
ho ve</w>
ho ur
histor ical</w>
hin denburg</w>
hi ko</w>
her nandez</w>
hem ingway</w>
heid el
haw kins</w>
haw ke</w>
har relson</w>
har lem</w>
har i</w>
har dk
hardk iss</w>
har den
harden ed</w>
har da
harda way</w>
har bor</w>
happen ed</w>
hand set</w>
han g</w>
han cock</w>
hal f
hai yan</w>
hack man</w>
ha den</w>
h é
h y</w>
h on</w>
h of</w>
h ip
h est
hest on</w>
h ers</w>
h d
gy mnast
gy llenhaal</w>
gus on</w>
guar ded</w>
gu ad
grizz lies</w>
greg g</w>
gre n</w>
gra sse</w>
gra f</w>
gr illed</w>
govern ment?</w>
good fel
goodfel las</w>
gon na</w>
go s</w>
go on</w>
go army</w>
glo be</w>
gibb ons</w>
gi br
gibr alta
gibralta r</w>
ger sh
ger ac</w>
geo graphical</w>
ge isel</w>
ge ,</w>
gaul tier</w>
garc ía</w>
gar min</w>
gam bler</w>
galil eo</w>
gal lium</w>
g um
g t
g ripen</w>
g le
g ion
g ho
g eld</w>
fun niest</w>
fu j
fru it</w>
fron tier</w>
frank ie</w>
franc es
fran ç
foc uses</w>
fo u</w>
fo ss</w>
fo ol
flo rence</w>
fire fox</w>
fin ance</w>
film produktion</w>
fig ure</w>
fig aro</w>
fern ando</w>
fer guson</w>
fel ic
fe uer
favor ites</w>
famil ia</w>
fa ble</w>
f-1 50</w>
f y
f us
f ta</w>
f ram
f na
f letcher</w>
f jor
f el</w>
f ant
f allen</w>
execut ed?</w>
ex terior</w>
ev an</w>
euph rates</w>
et on</w>
et e</w>
et ary</w>
esch ä
es kimos</w>
es el</w>
es )</w>
eric sson</w>
er s:</w>
environ mental</w>
ent er</w>
engine ered</w>
en rique</w>
en er</w>
em per
ell is</w>
elect ors</w>
el ise</w>
el ia</w>
el i
edit or
ed ing</w>
econo mic</w>
ec mlpkdd</w>
ec ho
ear n</w>
ear n
e ee</w>
e du
e ater</w>
e )</w>
dum ber</w>
dubb ed</w>
dru g?</w>
dor ian</w>
don o
don e?</w>
domin ic</w>
do lan</w>
do k
do dson</w>
do c</w>
discovere ds</w>
discover ied</w>
discograph y?</w>
dest roy</w>
design ed?</w>
del hi</w>
defen sive</w>
dec ember</w>
deb bie</w>
de ser
de o</w>
de mise?</w>
de is
dddddddddddd de
dd ing</w>
day tona</w>
darm stadt</w>
dar mian</w>
dar in</w>
daniel le</w>
da is
d woraczyk</w>
d it
d :</w>
d .
cy rano</w>
cy clo
cumber batch</w>
cul t
cro w</w>
cro cod
crocod ile</w>
crit ics</w>
count y?</w>
count ant</w>
cost ?</w>
cor tisol</w>
copper field</w>
contro l</w>
concer ning</w>
con serv
compu ters</w>
composer ?</w>
compet e</w>
commissi oner</w>
com muter</w>
com bat</w>
colo ssus</w>
colle ge?</w>
col la
code ine</w>
co ut
co us
co responds</w>
co leman</w>
co gn
co g
co con
co a</w>
clo thing</w>
clo s
cli fford</w>
cle ment
clar kson</w>
cla use</w>
cl us
cinematogrpa hers</w>
cil lian</w>
chil i</w>
cher yl</w>
char on</w>
channel """</w>
ch te</w>
ch s</w>
ch in</w>
ch ett</w>
cent e</w>
caval ier</w>
cast ro</w>
cast er</w>
cast ?</w>
carbon -14</w>
carbohyd rate"""</w>
carbo hydrate</w>
car roll</w>
car ra
car ousel</w>
car michael</w>
cap ra</w>
can es</w>
can ad
camp ground
camer oon</w>
califor ni
cad mium</w>
ca sa</w>
ca e
c s.i.</w>
c rum
c live</w>
c et
c ed
c ec
bur ton’s</w>
bur r</w>
buen os</w>
bu ran</w>
bu cks</w>
bu chan
brü der</w>
bry ant</w>
bru ck
brook lyn
bro snan</w>
bro ad</w>
bri de
bren nan</w>
bre men</w>
bour g</w>
book .</w>
bo un
bo t</w>
bo dy
bo d
blo ody</w>
black comb</w>
bis hop</w>
bil lie</w>
big ger</w>
bi eber</w>
ber yllium</w>
ber ts</w>
ber muda</w>
ber gerac</w>
ber gen
beng al</w>
bel ow</w>
bed room</w>
bea ch,</w>
bar r</w>
bar ney</w>
bar i</w>
bab u</w>
bab a</w>
ba i</w>
ba h
ba fta</w>
b-2 5</w>
b ü
b ong
b n</w>
b is</w>
b id
b ic</w>
b b</w>
b 3</w>
b 1</w>
aut ica</w>
augu sta</w>
au re
attribut es</w>
at tended</w>
at ro
at e
ass is</w>
ass as
ash es</w>
ascent ed</w>
art work?</w>
aro berts</w>
arct urus</w>
architect ure?</w>
ar ms</w>
ar m</w>
ar and
app lic
apocalyp se</w>
ap p</w>
ap is</w>
anton y</w>
anth a</w>
ant illes</w>
anglic an</w>
angel a</w>
ang a</w>
andromed ae</w>
an te</w>
an ian</w>
an alysis</w>
amal thea</w>
am an</w>
alli um</w>
alco hol</w>
albi reo</w>
ala ddin</w>
al ley</w>
al ine</w>
al ia</w>
al berto</w>
al an
ak h
air ship</w>
air liner</w>
ag h</w>
ag ents</w>
ag ain</w>
af ter?</w>
af .c.</w>
aeg on</w>
accomod ation</w>
ac countant</w>
ac -5
ac-5 620
abbo tt</w>
ab le?</w>
ab a</w>
a3 30</w>
a is</w>
a id</w>
a :</w>
a 1</w>
9 7</w>
9 6</w>
8 /2
8 /1/
7 00</w>
6/30 /1947</w>
6 6
6 0.0</w>
5. 5</w>
5. 4</w>
5 8</w>
5 2</w>
5 0.0</w>
49 ers</w>
45 9
40 yd</w>
4 /199
4 -
35 0
30 3</w>
3. 6</w>
27 4
26 2</w>
2009-09 -13</w>
2008 -11
20 6</w>
2/199 9</w>
2/ 2014</w>
198 3</w>
196 8</w>
196 7</w>
195 2</w>
195 1</w>
1920 s</w>
190 2</w>
19 3</w>
19 36</w>
19 34</w>
19 30</w>
19 15</w>
19 00
18 12</w>
18 .
12 3</w>
12 /1/
11 1</w>
11 0</w>
100 g</w>
1/1/199 4</w>
1/1/197 8</w>
1/1/19 68</w>
1 ⁄
1 ,</w>
0 6
-1 6</w>
-1 2</w>
-0 4</w>
- corporation</w>
(ii )</w>
( film</w>
" discovery</w>
" carbohydrate"""</w>
్ ర
ü r
ör n</w>
ö n
í ne
é e</w>
ä r
zy zewski</w>
zoo ey</w>
zo lo
zim mer
ze it
z ing</w>
z eta</w>
z em
z ak
z :</w>
yu k</w>
yu go
yugo sla
yugosla via</w>
yttri um</w>
yo to</w>
yo gur
yogur t</w>
yellow stone</w>
yam ato</w>
y ves</w>
y c
yc rush
ycrush saga</w>
y ards</w>
y ana</w>
y ak</w>
y .com</w>
x xi</w>
x ie</w>
x anad
xanad u</w>
x a</w>
wy ck</w>
www ks</w>
ww wwwks</w>
writ es</w>
worth ington</w>
wor st</w>
wor kers</w>
wolver ine</w>
wolf gang</w>
wo o</w>
wint ers</w>
win ston</w>
win onna</w>
win ona</w>
win ner
win ne
winne bago</w>
win chester</w>
wi ki</w>
wi en</w>
wi dow</w>
whit mire</w>
whirl pool</w>
whe at</w>
what sap
whatsap p</w>
wh y
wes ley</w>
wein stein</w>
weight ed</w>
we ber</w>
wat suki</w>
warri or:</w>
wall is</w>
wal dorf</w>
wa it</w>
wa de</w>
wa als</w>
w ä
w yn
w r
w ives</w>
w en</w>
w anted</w>
w agon</w>
w agan</w>
vo us</w>
vis it
vin son</w>
vide og
videog am
videogam e?</w>
vict ims</w>
vi ta</w>
vi lions</w>
vi cente</w>
verti ble</w>
ver son</w>
venture star</w>
vene tian</w>
venatic i</w>
vat ican</w>
vas co</w>
vari ant</w>
vac an
v y
v rem
vrem enn
vremenn yy</w>
v hs</w>
v as</w>
uten ant</w>
ut z
ut en</w>
uss els</w>
us h</w>
urugu ayan</w>
ur u</w>
ur mia</w>
ur be</w>
up er</w>
up date</w>
univers ity?</w>
und red</w>
un ions</w>
un de</w>
un cle</w>
un break
unbreak able</w>
uh -
uh- 60</w>
u los</w>
tö d
töd lic
tyran no
tyranno saurus</w>
tu po
tupo lev</w>
tri via</w>
treas ure</w>
tre vor</w>
train ing</w>
tr um
town ship</w>
town s
tou ch</w>
ton ie</w>
ton -
tomor row</w>
tomor row
to x
to w
to ms</w>
to mei</w>
to mc
tomc at</w>
to des
tle ss</w>
tin y</w>
tic ul
tic ket</w>
ti p</w>
ti ma</w>
thurs day</w>
thunder bolt</w>
three chess</w>
thor ne</w>
tho od</w>
thi az
thiaz ide</w>
thet ical</w>
that cher</w>
thal mic</w>
th ys</w>
th ecus</w>
th ,</w>
tex t?</w>
teu fel</w>
tet on</w>
terr aria</w>
ter ri</w>
ter n</w>
ter geist</w>
temper at
tea ch
te thys</w>
te resa</w>
te bow</w>
te a</w>
tar gar
targar yen</w>
tan gany
tangany ika</w>
tan do
tando ori</w>
tal ion</w>
take shi</w>
t4 eh</w>
t ter</w>
t ron
t ric
t rent</w>
t more</w>
t ann
syno p
sym bi
symbi osis</w>
syl via</w>
swor sen
sworsen ager</w>
swim ming</w>
swe ater</w>
sw eden</w>
sus anna</w>
survi vor:</w>
sur fers</w>
sun set</w>
summ ited</w>
sult an</w>
suggest ed</w>
sub ject?</w>
su therland</w>
su o</w>
su ite</w>
stud ent?</w>
stu ff</w>
stu ck
stuck ism</w>
stru g
strip s</w>
stre if
strato sphere</w>
strateg ic</w>
stra ße</w>
stra da</w>
str y?</w>
sto res</w>
stic ana</w>
steph ens</w>
ste fan</w>
star ry</w>
stan wyck</w>
sta y</w>
st ring</w>
st en
st ans
st am
stam ford</w>
sr -
sr- 71</w>
squ are
sq l</w>
spy glass</w>
spur rier</w>
spon s
spons ors</w>
spo use</w>
spo t</w>
spo t
spin ach</w>
special iz
spacefl ight
spaceflight ’s</w>
spa per
sp l
spl inter</w>
sp ic
spic y</w>
sof tly</w>
so vremennyy</w>
so up</w>
so ul
so o</w>
so lo</w>
so k
sn ap
smo oth</w>
small er</w>
sm al
smal lest</w>
sleep y</w>
sleep less</w>
sk in</w>
sit ges</w>
sit es?</w>
sing ing</w>
sin ess</w>
sin clair</w>
si mon
shre w</w>
show ?</w>
shoot er</w>
shir ts</w>
shin ing</w>
shiel .d.</w>
shi eld</w>
shar on</w>
shake spea
sha olin</w>
sh ig
sh elly</w>
sh au
sh an</w>
sh al
sex iest</w>
serge i</w>
ser gio</w>
sem bly</w>
sell ers</w>
sel ena</w>
segor ney</w>
sed an</w>
secret ary</w>
secre ts</w>
sea hawks</w>
se vice</w>
se vere</w>
se quel.</w>
se eing</w>
se e
se ct
sect ion?</w>
se :
scorp ii</w>
sco uts</w>
schwar z
schu ster</w>
schmid t</w>
sc ro
sc ale?</w>
sav age</w>
sar io</w>
san tos</w>
san to</w>
san ds</w>
samp son</w>
sam sara</w>
sam i</w>
sam antha</w>
safar i</w>
sad dle
saddle back</w>
sac ram
sab rina</w>
sab re</w>
sab lan
sablan ca</w>
sa w
sa voy</w>
sa vi
sa che</w>
s ø
s mil
s m</w>
s ly
s lo</w>
s b</w>
s at</w>
ryp t</w>
ry ing</w>
run ch</w>
ru sticana</w>
ru pert</w>
ru g
ru dolf</w>
ru din</w>
ru bi
row ling</w>
rosem ary</w>
rom ney</w>
ro th</w>
ro ch
ro bust
robust us</w>
ro bbins</w>
river side</w>
ring wald</w>
rig el</w>
rich ie</w>
ric ardo</w>
ri be</w>
rhyth m</w>
rhe a</w>
rey es</w>
representat ive?</w>
ren s</w>
rel ating</w>
regu lar
refu ell
refuell ing?</w>
rec i
re view
re turns</w>
re ss?</w>
re iter</w>
re ign</w>
re as
re ach</w>
rap id</w>
rap ha
rapha el</w>
ran s</w>
ran k
rank ed?</w>
rabb it
ra zole</w>
ra ven</w>
ra u
ra k
ra il</w>
ra don</w>
ra d</w>
ra cha
racha el</w>
ra ce
r l
r ington</w>
quot es?</w>
quas ar</w>
quant um</w>
qual itas</w>
qu incy</w>
qu in</w>
qu i</w>
qu an
q ing
q at
py thon</w>
pur ge</w>
pup pet</w>
pull man</w>
pu y</w>
pu pp
pu dding</w>
ps 4</w>
proto col
protocol s</w>
propion ate</w>
prof en</w>
product ed</w>
produc e?</w>
proble m</w>
pro vo
pro jects</w>
pri mus</w>
pri ate</w>
premi e
premie re?</w>
pr a</w>
pp y</w>
pow der</w>
por table</w>
pon t
polon ium</w>
pol tergeist</w>
poet ry</w>
po ulos</w>
po t</w>
po ll</w>
po land</w>
po ison</w>
po et</w>
po ems</w>
plan t</w>
pla ined</w>
pis ces</w>
pir ate</w>
pi thecus</w>
philli p</w>
phenyle phrine</w>
ph ar
pet ronas</w>
pertain ing</w>
perse us</w>
perform ed?</w>
per sia</w>
pel icans</w>
peg g</w>
pat i
pati ents</w>
para de</w>
par d</w>
par an
paran or
paranor mal</w>
paol o</w>
pan els</w>
pan ama</w>
pam ela</w>
pa vilions</w>
pa ste</w>
pa k</w>
pa in</w>
p ta</w>
p lo
p kin</w>
p iston</w>
p ine
p im
p ets</w>
p ed</w>
p /
oz on</w>
ow ens</w>
ovi d</w>
ot ta</w>
ot is</w>
ot i</w>
osa ka</w>
orb its</w>
or y
or um</w>
or tiz</w>
or n</w>
oph thalmic</w>
operat es?</w>
oper ates</w>
op us</w>
op tions</w>
op ry</w>
on y
on o</w>
on line?</w>
on ary</w>
om ep
omep razole</w>
oli vier</w>
offic e-of-
office-of- management
office-of-management -and-
office-of-management-and- budget</w>
ode ssa</w>
ob i</w>
ob ar
o ye</w>
o x</w>
o thiazide</w>
o reg
o er
ny asa</w>
noz ze</w>
nor ma</w>
nobu hiro</w>
nin u</w>
nim itz</w>
nig am</w>
nic kel</w>
niac in</w>
ni ki</w>
new spaper
new s
net ball</w>
nemo y</w>
neigh bor
need ing</w>
near by?</w>
ne ver
ne v
ne eson</w>
naz is</w>
nar rows</w>
nar rator</w>
nar rative</w>
nad ella</w>
na y
na o
na cht</w>
n v</w>
n uri</w>
n u</w>
n me</w>
n eck</w>
n berg</w>
n autica</w>
n 1</w>
n .
myster ies</w>
myo car
my el
myel oma</w>
music als</w>
music ?</w>
muse e</w>
mur ders</w>
muham med</w>
mu d</w>
ms x</w>
movier oll</w>
movi es?</w>
mot ors</w>
mono gat
monke es</w>
mon key</w>
mon aco</w>
mock ing
mo ving</w>
mo ther
mo th</w>
mo ss</w>
mo sphere</w>
mo reau</w>
mit age</w>
mis en</w>
minist er</w>
mini ature</w>
min ota
min ers</w>
min er
mig-2 5</w>
michel e</w>
mi l</w>
mi d</w>
mi -
mg r</w>
met res?</w>
met life</w>
met art</w>
met als</w>
mer ry</w>
mer lin</w>
ment .</w>
mellifer a</w>
mel ville</w>
mel ody</w>
mel anie</w>
me y</w>
me y
me gal
me dia
mcdon ald</w>
mc queen</w>
mc do
maver ic
maveric ks</w>
math eson</w>
mart ina</w>
marsh all
marri ott</w>
market place</w>
marin er</w>
mar y
mar rying</w>
mar lins</w>
mar kets</w>
mar it
marit ime</w>
mar isa</w>
mans field</w>
man z
man y
man n
man isi</w>
man di
majest y</w>
ma una</w>
ma thers</w>
ma p</w>
ma k
ma inten
ma dea</w>
ma cy</w>
m s.</w>
m ra
m me</w>
m ies</w>
m ell
m ea
lyn don</w>
ly rist</w>
ly le</w>
ly dia</w>
ly ce
lyce um</w>
lu x</w>
love lace</w>
louisi ana</w>
lor n</w>
log ies</w>
loc ate</w>
lo vir</w>
lo ver</w>
lo retta</w>
lo o</w>
lo la</w>
lo ff</w>
lo fen</w>
liver pool</w>
liv ing
lith u
lith ium</w>
list ?</w>
lin ks</w>
lin den
lin -
lie utenant</w>
lie f</w>
lex us</w>
levi tt</w>
let ters</w>
less ons</w>
lent ic
leit os</w>
lebo wski</w>
le vine</w>
le ster
le gu
le go</w>
le e
le a</w>
lau rie</w>
lat eral</w>
lat /
lat/ long</w>
lar s</w>
lar ger</w>
lanthan um</w>
lands cape</w>
lan caster</w>
lam bert</w>
label s</w>
label ?</w>
la x</w>
la ur
la do
la d</w>
la ct
la bor</w>
l yoto</w>
l n</w>
l ero
l ene</w>
kri eg</w>
kr zyzewski</w>
kov á</w>
kov sky</w>
ko hn</w>
ko b</w>
kir by</w>
kin o
kin ney</w>
kid z</w>
ket tle</w>
ker ing</w>
kel vin</w>
ke ys</w>
karlo vy</w>
karlo ff</w>
kang aro
kan ag
kanag awa</w>
ka ye</w>
ka w</w>
k ut
k ot
k j</w>
k it</w>
k ip
k ick</w>
k han
k arta</w>
k al</w>
justic e?</w>
jurisdic tion?</w>
jul y</w>
jud ice</w>
jud gment</w>
jor ge</w>
jon as</w>
joh anna</w>
jit su</w>
jim i</w>
jim a</w>
ject able</w>
je w
jan ney</w>
jam a
jah ren</w>
jac kets</w>
ja va</w>
ja karta</w>
j ung</w>
j pn</w>
j ill</w>
j ara</w>
iz zard</w>
iv o</w>
it urbe</w>
it .</w>
iso l
island ,</w>
ish a</w>
is la</w>
is bn</w>
ir ving</w>
ir spray</w>
ir i
invol ving</w>
int el</w>
ingre ss</w>
infin iti</w>
indust ries</w>
indu stry?</w>
ina _
ina_ ar-
in spir
in ness</w>
in k</w>
in jectable</w>
in en</w>
in dic
im it
im i</w>
il o</w>
il -
igh ter</w>
ig one</w>
identi fication</w>
id es</w>
icb c_
icbc_ 2</w>
i verson</w>
i man</w>
i h
i de
i bu
ibu profen</w>
hypo thetical</w>
hydrochlor othiazide</w>
hydro co
hunt ing</w>
humph ry</w>
hu bb
hubb ard</w>
hour ly</w>
hor nored</w>
hoff mann</w>
hobb it</w>
ho uten</w>
ho pper</w>
ho no
ho mel
ho gan</w>
hir cus</w>
her it
her ak
herak leitos</w>
hen ry
hen dri
hendri x</w>
hell boy</w>
hein z</w>
heidel bergen
heidelbergen sis</w>
hear st</w>
hea throw</w>
he arts</w>
haw wwwwwks</w>
har ri
har per</w>
ham ill</w>
hal lows</w>
hack saw</w>
ha ss
ha p
ha irspray</w>
ha il
h undred</w>
h ri
h m
h ens</w>
h enn
h c</w>
h agen</w>
gund am</w>
gu ys</w>
gu ez</w>
gu ern
guern sey</w>
gu am</w>
ground hog</w>
gro wn</w>
gressi onal</w>
gre ene</w>
gre ece</w>
gran ite</w>
gra inger</w>
gr unting</w>
gr ams</w>
good all</w>
god ard</w>
go tt
go sp
go ff</w>
go at</w>
gm t</w>
gi um</w>
gi el
ghan istan</w>
gh ana
ghana ian</w>
gersh win</w>
ger y</w>
ger main</w>
gener ate</w>
gen us</w>
ge e</w>
gar r</w>
gar lic</w>
gar da</w>
gan o</w>
gan cic
gancic lovir</w>
gam ing</w>
gall er
gab ri
ga thering</w>
ga sp
g ner</w>
g il</w>
g ic</w>
g as
g ard</w>
g acy</w>
frances co</w>
fra u
fort night</w>
form at
for lorn</w>
fo u
fo od
fna f</w>
fluor ide</w>
flu oxetine</w>
flo res</w>
fl am
fin der</w>
fight ers</w>
ff en</w>
fern se
fen cing</w>
feat ure
fe yn
fe el</w>
father .</w>
fash ion</w>
far rell</w>
far rah</w>
fan cy</w>
fa ul
fa u
fa re
fa bi
f-1 5</w>
f-1 4</w>
f- 5
f-5 a/
f-5a/ b</w>
f wd</w>
f idel
f ans</w>
ey re</w>
exper ian</w>
ex xon</w>
ex pressi
ex plained</w>
ev o</w>
ev el
evel yn</w>
et own</w>
et na</w>
et er?</w>
est onia</w>
est er
eri ka</w>
ere ctus</w>
equip ments</w>
ephe sos</w>
ent re
ener ys</w>
en son</w>
en o</w>
en o
en ko</w>
en der</w>
em il
em erson</w>
elev en</w>
ele phant</w>
el ite</w>
el it
el ie</w>
eg g
eff ect</w>
ed mund</w>
ed mond</w>
ed el
ec a</w>
ear ly</w>
e ut
e pu
e man
e han</w>
dut chman</w>
dul cis</w>
du r</w>
du ff</w>
du b</w>
dru gs</w>
dri vet
dri is</w>
dok kan</w>
do zen</w>
distribut ors</w>
dissol ving</w>
discover d</w>
discograph ies?</w>
director .</w>
direct er</w>
dic tionary</w>
diamon d
diam eter?</w>
di gi
di esel</w>
di all
diall ing</w>
design s</w>
deser t</w>
desc ent</w>
depart ments</w>
dep th?</w>
den ali</w>
deci mal</w>
death ly</w>
de vin</w>
de mons</w>
de mi</w>
de ities</w>
de grasse</w>
de ere</w>
de er</w>
de bor
dc- 3</w>
dat ab
datab ase</w>
dalla s-
da k</w>
da iry</w>
da i</w>
da hl</w>
da enerys</w>
da ch
d ong
d manisi</w>
d f
d ale
cygn i</w>
cy borg</w>
cy ber
cvn- 65</w>
cv 22</w>
cur tiz</w>
cum mings</w>
cult ural</w>
cucum ber</w>
cu ba</w>
cu adra
cuadra do</w>
crit ical</w>
cri sis</w>
cred it
cran ium</w>
cow boy</w>
cour ses</w>
cost ello</w>
cor v
cor so</w>
cor on
cor nel</w>
cop s</w>
contest s</w>
contain er</w>
conta cted</w>
connect ions</w>
conferen ce?</w>
confeder ations</w>
confeder ate</w>
conf idential</w>
concor dia</w>
conc ep
con vertible</w>
con gressional</w>
con gen
con d
compo st
comp rise</w>
com mit
com e
com batants</w>
colle ges</w>
colle en</w>
col o</w>
col lateral</w>
cocon ut</w>
cock at
cockat iel</w>
cobal t</w>
co ver
co rey</w>
co des</w>
co authored</w>
clu ster</w>
clu be</w>
clu b
class ical</w>
clar a</w>
cit rate</w>
cit iz
cit ies?</w>
cirro stratus</w>
cinematogr á
cin é
ci um</w>
chur ch
christ ian
cho pra</w>
cho ppers</w>
cho lester
cho co
children s</w>
che e
chart er</w>
chap man</w>
chand u</w>
ch ip</w>
ch ino</w>
ch assis</w>
ceph ei</w>
cen a</w>
cav all
cavall eria</w>
cat tle</w>
cast ed?</w>
carri ers</w>
carra dine</w>
carol i</w>
care ers</w>
cardi ff</w>
car th
car rot</w>
car pent
cann on</w>
cand ycrushsaga</w>
cand ice</w>
can ary</w>
campground """</w>
cam bo
cambo dia</w>
cal der
cae sium</w>
ca vy</w>
ca ve</w>
ca sablanca</w>
ca ir
ca g
ca f
ca ble</w>
c rypt</w>
c runch</w>
c p</w>
c ited</w>
c em
c edi</w>
buy ers</w>
buty ric</w>
but tered</w>
bus y</w>
bus siness</w>
burg ,</w>
bur j</w>
bul b</w>
buil t?</w>
brun ei</w>
broadcast ed?</w>
bro ther
bro ck</w>
bren da</w>
bra ss</w>
br ussels</w>
br in</w>
bou le
bor on</w>
book s?</w>
bom bing</w>
bo c
bo a</w>
blo od
ble w</w>
bl unt</w>
bl ed</w>
birth place?</w>
bil tmore</w>
bi kini</w>
bi bli
bhar at</w>
ber th
ber ry
ber had</w>
ber ge</w>
benn ett</w>
bel la
bel ieve</w>
bec a</w>
be ets</w>
be ard</w>
bb s</w>
bb fc</w>
bat talion</w>
baro que</w>
bar nes</w>
bar n
bar bi
ban anas</w>
bal let</w>
bac lofen</w>
ba ch
b unt
b unde
b re</w>
b ine</w>
b iden</w>
b icy
b enny</w>
b art</w>
b are</w>
b act
b -5
b -2</w>
az ep
ax is?</w>
awe some</w>
auto strada</w>
augu st</w>
au stri
au dio
attribut es?</w>
attribut ed</w>
ator ium</w>
ation .</w>
ath ens</w>
at mosphere</w>
at in</w>
at i
at e,</w>
at ari</w>
ast oria</w>
ast aire</w>
assas sins</w>
as sembly</w>
arti st
art works</w>
art uro</w>
art e</w>
ari el</w>
argent ina_ar-
are z</w>
ardi pithecus</w>
ar quette</w>
ar ie</w>
ar an</w>
aquari us</w>
approxim ate</w>
appro priate</w>
ap art
annot ated</w>
anim al’s</w>
angel ique</w>
ang ara</w>
an us</w>
an ism</w>
an ate</w>
an ast
amp ton</w>
amo s</w>
amo r</w>
americ a's</w>
am ie</w>
am ide</w>
ali ens</w>
al var
al u
al ty</w>
al pine</w>
al le</w>
al le
al kal
al in</w>
al ess
al da</w>
al 's</w>
ak is</w>
air por
ain sley</w>
ain 't</w>
ah -
ah- 64</w>
afric anus</w>
af ghanistan</w>
advi sor?</w>
ad r</w>
ad kins</w>
act ual</w>
act ress?</w>
acqu ire</w>
acet ate</w>
ac ura</w>
ac ea
ac cor
ab u</w>
ab dul
a vent
a val
a v</w>
a q
a dolf</w>
_ certified</w>
: 17</w>
97 80
90 9</w>
9/ 2014</w>
9 8
9 11</w>
9 .0</w>
8e-05/ 8e-05/
85 7
80 p</w>
80 1</w>
77 7</w>
70 7</w>
7/ 2014</w>
7 dt</w>
7 00.0</w>
6/ 2014</w>
5/ 2014</w>
5 71</w>
4/ 2014</w>
39 .0</w>
31/ 2015</w>
3/ 2014</w>
3 70</w>
3 60
274 301</w>
25 00</w>
24 3</w>
2009 -12-2
2009-12-2 1</w>
2009 -10
2009-10 -04</w>
200 0.0</w>
2 wd</w>
2 nd</w>
2 1
2 /1/
2 ,</w>
197 9</w>
195 8</w>
19 32</w>
19 18</w>
18 93</w>
18 +</w>
15 :17</w>
15 +</w>
123 movies</w>
12 9</w>
10 80p</w>
10 6</w>
10 00
10 -4</w>
1/1/197 5</w>
1/1/19 32</w>
1/1/19 24</w>
1/1/18 93</w>
1/1/18 86</w>
1/1/ 2018</w>
1/ 3/
1 _
1 35
1 /2
00 00.0</w>
0. 7</w>
/29/ 2001</w>
/199 8</w>
/ 2010</w>
-1 3
- p
( us
( i)</w>
# 1</w>
" forlorn</w>
! !</w>
福 农
福农 宝
福农宝 """</w>
ש ב
שב י
שבי ט</w>
ó s</w>
ñ o</w>
íne z</w>
í guez</w>
é li
è re</w>
ä hrlic
á z
á s</w>
zur ich</w>
zol l
zoll ern</w>
zo u
zir con
zircon ium</w>
zim mer</w>
ze v</w>
zam bia</w>
z sa</w>
z or
z io</w>
z ial
z ha
z df</w>
z ar
z appa</w>
z ap
yu l</w>
you 're</w>
yor uba</w>
yn ski</w>
yn ner</w>
yn chon</w>
yl ene</w>
year book</w>
yaz aki</w>
y von
y ss
y phant</w>
y ol
y mes</w>
y gens</w>
y enne</w>
y cin</w>
y )</w>
xx iv</w>
xen on</w>
x v</w>
x men</w>
x i
wy net
ww w.
wro t
wrot e?</w>
writ ten
written ?</w>
writ erin</w>
work s?</w>
wor ker</w>
wor c
worc ester</w>
wood wind</w>
wolver ines</w>
with -the-
wis dom</w>
wins low</w>
william shat
williamshat ner</w>
wil low</w>
wil der
wid th?</w>
wi thers</w>
wi r</w>
wi j
whi sp
what ’s</w>
what ch</w>
wh ts</w>
wh ih</w>
west minster</w>
we re
were wolf</w>
we ir</w>
we i</w>
we bi
webi st
webist e?</w>
water mel
watermel on</w>
watch men</w>
war k</w>
war i</w>
wal ters</w>
w the
wthe 100</w>
w s
w rong</w>
w ren</w>
w lett</w>
w ise</w>
w ent
w eas
w at</w>
w ,</w>
w """</w>
vot es</w>
vladi mir</w>
vla dis
vis itors</w>
video -
vi um</w>
vi ty?</w>
vi t
vi st</w>
vi es</w>
vi ci
vest on</w>
ver ona</w>
ver on
ver le
ver g
vent ures</w>
vent ion</w>
vent h</w>
veng e
venge ance</w>
ven us
venus berg</w>
vel l</w>
ve- 0</w>
vat i</w>
var una</w>
var ia</w>
van ity</w>
van illa</w>
van adium</w>
vamp ires</w>
valent ine</w>
va art</w>
v re
v rat
v r</w>
v lc</w>
v int
vint age</w>
v ina</w>
v es
v ed
v c
v ag
v ad
utz pa
utzpa h</w>
uti onary</w>
ut e?</w>
us i</w>
us en</w>
us ed.</w>
us -
ur sa
ursa e</w>
up dated</w>
up date?</w>
unt er
univers it
uni versi
uni ver
uni que</w>
und en</w>
un o</w>
un limited</w>
un it
un ified</w>
un ger</w>
un ge</w>
un as</w>
un abridged</w>
ul z</w>
ul li</w>
ul l
ug itive</w>
ug i
u za</w>
u ke</w>
u g</w>
u chi</w>
u ben</w>
u a</w>
tödlic he</w>
tz man</w>
tw el
twel ve</w>
tur tles</w>
tur ned</w>
tur an
turan dot</w>
tu gu
tu c
tsub as
tro vatore</w>
trig ger</w>
tri ple</w>
tri beca</w>
tri .</w>
tre at?</w>
tran sport</w>
tran sport
tran spor
transpor ter</w>
trail ers</w>
tra p</w>
tra ding</w>
tra ded</w>
tra c
tr o</w>
tr inity</w>
tr i</w>
tr aline</w>
tour ing</w>
touch down</w>
tor i</w>
tor ch</w>
tor a</w>
ton t</w>
to zzi</w>
to ys</w>
to wing</w>
to w</w>
to sca</w>
to pa
topa xi</w>
to ol
to des</w>
timel ess</w>
timber wolves</w>
tim o</w>
ti k</w>
ti fi
ti de</w>
thro ated</w>
thin k</w>
them sel
them ?</w>
thal le</w>
th en</w>
th away</w>
th aw
th allium</w>
th :</w>
tetra cycline</w>
tes oro</w>
ter son</w>
ten e
tene gro</w>
ten chi</w>
tech nic
tech ne
techne tium</w>
teas po
te it
teit ler</w>
te c</w>
te at
tat um</w>
tat too</w>
tar get
target ted</w>
tar an
tann ha
tannha user</w>
tan g</w>
taka shi</w>
ta- wild</w>
ta ipei</w>
ta i
t runk</w>
t ley</w>
t ir
t int
tint in</w>
t elly</w>
t ec
t d</w>
t ant
t ance</w>
synop sis?</w>
symp toms</w>
symbo ls</w>
sy rian</w>
sy ria</w>
sw an</w>
suspen sion</w>
suspen se</w>
sur re
sur gery</w>
super ior</w>
super inten
superinten dent</w>
sup per</w>
sul li
sugar bush</w>
subdiscip line</w>
sub st
sub nautica</w>
su r</w>
su i</w>
struct ures</w>
stru ck</w>
strip ped</w>
strip ed</w>
street ,</w>
strato fortress</w>
str um
stor ied</w>
ster ling</w>
step father</w>
stefan i</w>
stea m</w>
ste infeld</w>
ste ine</w>
ste en</w>
ste el
steel ers</w>
statist ical</w>
star i</w>
star gate</w>
star ch</w>
stans field</w>
stamped ers</w>
sta fford</w>
st s
st ra</w>
ss y</w>
ss ette</w>
ss :</w>
square pants</w>
spon sor?</w>
spo ke</w>
spit zer</w>
spid er
spect rum</w>
special ize</w>
spec i
spea ker</w>
spe c</w>
spe ars</w>
sp y</w>
sp f</w>
sp ans</w>
sp ann
south ampton</w>
soul s</w>
soci ated</w>
so y</w>
so vere
so phy</w>
snow don</w>
sno ke</w>
sm ic</w>
slov ak</w>
slo ven
slo ane</w>
slo an</w>
sli m</w>
sl t</w>
sl iga</w>
sky hawk</w>
sky fall</w>
sk o</w>
sk ating</w>
sit u
simp le</w>
sign up</w>
si o</w>
si egel</w>
si de
shre ws</w>
shig eru</w>
shiel ds</w>
shi -
she h</w>
she ehan</w>
shan kar</w>
sham eless</w>
sha ke</w>
sh rim
shrim p</w>
serp ent</w>
ser traline</w>
sem in
sebast i
sea l</w>
se venth</w>
se its</w>
se game
segame _
segame_ stats</w>
se duction</w>
se als</w>
schu ß</w>
schne ider</w>
schla flo
sch iz
schiz oph
schizoph ren
schizophren ia</w>
scen ic</w>
scan ner</w>
sc i</w>
sc een</w>
sc ary</w>
sc and
sax op
sat ori</w>
sar kar</w>
sand man</w>
sand ers</w>
san ch
sanch ar</w>
salv ador</w>
sal vatore</w>
saint- germain</w>
sah in</w>
sag it
sagit tar
sa usage</w>
sa ip
sa ic</w>
sa i</w>
sa i
s se
s ri
s no</w>
s ick</w>
s gate</w>
s ent
s ells</w>
s car</w>
s ant</w>
s -2
s-2 7
s-27 a</w>
run ken</w>
ru th
ru t
ru gg
ru f
ru ben</w>
roy uki</w>
roy ce</w>
rough riders</w>
ross el
rossel lini</w>
rosem ide</w>
roman ia</w>
roll ing</w>
rodrig o</w>
rodr íguez</w>
rod dy</w>
roch dale</w>
rob son</w>
rob eson</w>
ro sen
ro sa</w>
ro ot
root /
ro ids</w>
ro c</w>
rl 10</w>
river source</w>
rig o
rigo let
rigolet to</w>
ridd le</w>
richar dson</w>
richar ds</w>
ri us</w>
ri sh</w>
ri p</w>
rho dium</w>
revol utionary</w>
review ?</w>
revei w</w>
respo sible</w>
ren t
ren park</w>
rel ations</w>
rel ates</w>
rel a</w>
rein hold</w>
reg ional</w>
refu eling</w>
rede em
redeem er</w>
red grave</w>
rec ep
rec alls</w>
reas ons</w>
re- release</w>
re viewed</w>
re ticul
re sc
re pon
repon sible</w>
re medi
remedi ation</w>
re ma
re lief</w>
re g</w>
re fle
re el</w>
re ch
rech n
re bell
rebell ion</w>
re bel</w>
re ality</w>
re a</w>
rat io
ratio ?</w>
raj kumar</w>
ra sp
ra e</w>
ra det
radet zky</w>
r í
r t
r s-27a</w>
r bis</w>
r are</w>
r 18</w>
que en
quarter back</w>
qu ick</w>
qu ark</w>
qing hai</w>
pur pos
pun ch
pun ca
punca k</w>
publish es</w>
ps p</w>
provo ded</w>
prometh azine</w>
professi on?</w>
produc ed?</w>
process or?</w>
proble ms</w>
pro per
pro me
prome theus</w>
pro ctor</w>
princ eton</w>
prepar ations</w>
prec inct</w>
pre ston</w>
pre judice</w>
pract ices</w>
pra j
praj yot</w>
pr k</w>
pp le</w>
pp ies</w>
post ed</w>
por tun
por tugu
pol ly</w>
pok al</w>
po o</w>
po le</w>
po lan
polan ski</w>
pli os
plios au
pliosau roids</w>
pla c
pl um
pip er</w>
pion eer</w>
pick les</w>
pi us</w>
pi et
pho en
philo sophy</w>
phil ia</w>
phen ic
phenic ol</w>
peter son,</w>
person ’s</w>
per th</w>
per oxide</w>
per mise</w>
per kins</w>
peop le
pent angle</w>
peg asus</w>
peg asi</w>
ped er
peder sen</w>
pea ks</w>
pe ip
peip si</w>
pe i</w>
pe dia</w>
path finder</w>
pat ton</w>
pat rol</w>
past or</w>
pas sing</w>
pas cal</w>
partn er?</w>
particip ation</w>
parthen on</w>
par k?</w>
par k
par ish</w>
par agu
paragu ay</w>
pan zer</w>
pan ath
panath in
panathin ai
panathinai kos</w>
pan as
panas onic</w>
pan :</w>
pala e
palae anthropus</w>
pa y</w>
pa ws</w>
pa ige</w>
pa g</w>
pa ch
p zev</w>
p ynchon</w>
p m</w>
p ly
p lin</w>
p l</w>
p iv
p ers</w>
ow ulf</w>
ow ski</w>
over watch</w>
ou i
osh ko
oshko sh</w>
os aur</w>
or s'</w>
open ings</w>
op portun
op in
opin ions</w>
op ath
opath ic</w>
onto log
ontolog y?</w>
ong -
on wards</w>
on ions</w>
on ing</w>
on i
on ,</w>
ol yphant</w>
oh ,</w>
og den</w>
og a</w>
offic es</w>
oer sted</w>
odys son</w>
od in</w>
occ ured?</w>
oc o</w>
oc ese</w>
o yen</w>
o v
o me</w>
o man</w>
o live</w>
o do</w>
o da</w>
o carina</w>
nutri ents?</w>
nut s</w>
nurem berg</w>
nov ak</w>
not ?</w>
no mia</w>
no ir</w>
niv en</w>
nitro glycerin</w>
nim in
nimin ation</w>
nigh thaw
nig an</w>
nic ot
nic kel
nic h
ni xon</w>
ni el
niel sen</w>
ney mar</w>
newspap ers</w>
nes sun</w>
ner vous</w>
nem esis</w>
ne wark</w>
ne o
ne -
ne ,</w>
naz ion
nazion ale</w>
nap a</w>
nao ko</w>
nag ar</w>
na var
na th
na po
na ch
n r
n io
n ic</w>
n b
n anny</w>
myocar dial</w>
music ian</w>
mus h
mus e</w>
mul lin</w>
mu k
mu en
ms i</w>
mov em
movem ent?</w>
motor cycle</w>
mother 's</w>
mori ssette</w>
mor t
mor phine</w>
moon stone</w>
mont mart
montmart re</w>
mon th
mon tenegro</w>
mon ique</w>
modo .k.</w>
mo ve</w>
mo ur
mo unt
mo ulin</w>
mo tel</w>
mo saic</w>
mo odysson</w>
mo jab
mojab ai</w>
mo ham
mo by</w>
mix ed</w>
mira cle</w>
minota ur</w>
minneso ta-wild</w>
mind hunter</w>
milli on
milli metres</w>
milimet ers</w>
mil es?</w>
mil ano</w>
mig -15</w>
mic ally</w>
mi yazaki</w>
mi ah</w>
metho ds</w>
mess enger</w>
mer rill</w>
mer a</w>
men th
megal o
med ico</w>
measure ments</w>
meas ured</w>
me it
me in</w>
me i
me gg
me g
me chan
me at
mck in
mc na
mc en
mcen roe</w>
may im</w>
matth au</w>
mat ter</w>
mat lin</w>
masa shi</w>
mary mount</w>
mart ínez</w>
marshall /
marshall/ al
marshall/al do
marshall/aldo us</w>
market ing</w>
mari anne</w>
mari ana</w>
mar vel
mar ty</w>
mar nock</w>
mar lee</w>
mar ina</w>
mar in</w>
mar ie-
mar cel
manufacture d?</w>
manufact ures</w>
man o
man ne
man it
man iac</w>
man as
mal ha
malha ut</w>
mal col
malcol m</w>
maha jan</w>
mag nus</w>
mag dal
mad ama</w>
mack ay</w>
ma z
ma ya</w>
ma ps</w>
ma ple</w>
ma cher</w>
ma ch</w>
ma carth
macarth ur</w>
m vies</w>
m cad
mcad ams</w>
m ale</w>
m /
m .d.</w>
lux ury</w>
lux or</w>
luci ano</w>
lu ther</w>
lu ig
lu ca</w>
lou is
long itudes</w>
lo vely</w>
lo v
lo ugh</w>
lo ss</w>
lo o
lo m
lo g</w>
living ston</w>
lit re</w>
lis zt</w>
line bac
linebac ker</w>
linden wood</w>
lind say</w>
lik es?</w>
lie b</w>
licen se?</w>
li v</w>
li us</w>
li sts</w>
li ma</w>
li l</w>
let ter
leic he</w>
lebo eu
leboeu fs</w>
lea h</w>
lea fs</w>
le ung</w>
le mo
le ben</w>
le ban
leban on</w>
launch ?</w>
lau rent</w>
lar amie</w>
lan u
lan ge</w>
lan da
lampo on</w>
lam b</w>
la y
la ssen</w>
la h</w>
la goon</w>
la g</w>
la desh</w>
l. l.</w>
l ung</w>
l speedway</w>
l s
l ly</w>
l ig
l el
ky ô
kur ile</w>
ku ra
kro ko
ko m
ko ch</w>
kit chen</w>
kir by
kin sale</w>
kin '</w>
kil marnock</w>
kha sh</w>
ket sana</w>
ker shaw</w>
ker ber
kerber os</w>
kend all</w>
kel log
ke ine</w>
kazu o</w>
kat su</w>
kash mir</w>
kar a</w>
kangaro o</w>
kang chen
kangchen jun
kangchenjun ga</w>
kamp f</w>
kam en</w>
kab an</w>
ka o</w>
ka moto</w>
ka iser</w>
ka h</w>
k ry
k ris</w>
k on</w>
k ley</w>
k land</w>
k ko</w>
k ka
k ies</w>
k ic
k g?</w>
k ang</w>
k ale
juli o</w>
jo plin</w>
jo aqu
jit su
jere miah</w>
jenn a</w>
jen sen</w>
jeff ery</w>
jean- pierre</w>
je ong</w>
jan ice</w>
jac quel
ja xa</w>
ja ws</w>
ja red</w>
ja ku
ja kob</w>
ja k</w>
ja ime</w>
ja b</w>
j örn</w>
j är
j us
j ump</w>
j um
j r.
j ong</w>
j etta</w>
j em
j as
j ana</w>
j ada</w>
iv ory</w>
iv :</w>
itun es</w>
itun es
itunes """</w>
it ra</w>
it em</w>
isol de</w>
island s?</w>
is ys</w>
is cop
iscop al</w>
ir d</w>
ir ates</w>
invent s</w>
inte rest</w>
int s</w>
int lspeedway</w>
int eger</w>
insi act</w>
ino ki</w>
inno cen
innocen ce</w>
initi ative</w>
ing er
ing en</w>
influen cing</w>
incorpor ated</w>
inc an
incan descent</w>
in vention?</w>
in sat
in die</w>
in d</w>
in ch</w>
impressi onism</w>
imag es</w>
ima c</w>
im e
illustr ation</w>
ill on</w>
ill i</w>
ill ation</w>
il- 76</w>
il er</w>
ig ns</w>
ig n
ie u</w>
idi ot</w>
ida e</w>
id is</w>
id ani</w>
ich ick</w>
ic ally</w>
ia af</w>
ia ,</w>
i hn</w>
i ha</w>
i .
hyper ion</w>
hydroco done</w>
hydr a</w>
hy bri
hybri d</w>
hur on</w>
hun gar
hu ygens</w>
hu b</w>
how much</w>
horizon tal</w>
hor ne</w>
home opathic</w>
ho hen
hohen zollern</w>
hm hs</w>
hit man</w>
hil ary</w>
hig gs</w>
hi royuki</w>
her man
hel ms</w>
hel io</w>
heart land</w>
hear ing</w>
he y
he wlett</w>
hd cam</w>
hay worth</w>
hay ab
hayab usa</w>
har per
har baugh</w>
han ds</w>
hammer stein</w>
ham let
ham burger</w>
hail ee</w>
ha yao</w>
ha thaway</w>
ha pag</w>
ha bil
habil is</w>
h ra</w>
h m</w>
h l
h iv
h ana</w>
gymnast ic</w>
gu z
gu pta</w>
gu ppies</w>
gu inness</w>
gu d</w>
gu an
gu a
gro w</w>
gro ve</w>
gro up?</w>
gro o
gro en
groen ev
groenev eld</w>
grin del
grindel wald</w>
gra ss</w>
gra f
gosp el</w>
gor rell</w>
gon z
gold finger</w>
gold berg</w>
god !</w>
go u
go o</w>
go l</w>
gn ine</w>
gladi ators</w>
gl ut
girl friend</w>
gif ford</w>
giel gud</w>
gi g</w>
gi el</w>
german ium</w>
geor g</w>
geomet ry</w>
gen re
gen isys</w>
gen i</w>
ge ist
ge f
gef ährlic
gan g
gang ster</w>
gan es
game ’s</w>
gam ma-
gal veston</w>
ga zz
ga chet</w>
ga ard</w>
g. m.</w>
g á
g to</w>
g ig
g eschä
g ere</w>
g ast
g ama</w>
g ades</w>
g ad
fy ro</w>
fut ure
fu rosemide</w>
friend ship</w>
fre und</w>
fre sno</w>
fra ser</w>
fortun a</w>
format ted</w>
form ic</w>
for -
football er</w>
foo d?</w>
fon tan
fol ate</w>
foc used</w>
fo un
fo malhaut</w>
fo e</w>
flow ering</w>
flo t</w>
fle x</w>
fle ming</w>
flan agan</w>
fish ki</w>
fis cher</w>
fire stone</w>
fire fly</w>
fin i</w>
film of</w>
fil led</w>
fi ve-0</w>
fi r</w>
fi ore</w>
fi l</w>
fi ber</w>
ff en
feyn man</w>
ferdin ando</w>
fer r
fer m</w>
fel dman</w>
fe wer</w>
fe i</w>
fe ar
faul kland</w>
far mer</w>
far m
fan g</w>
fal le</w>
fa ult</w>
fa ss
fa ct</w>
fa ces</w>
fa b
f um
f ugitive</w>
f sk</w>
f ritz</w>
f landers</w>
f k</w>
expressi onism</w>
exper ti
expect ations</w>
exp edition</w>
exhib ition</w>
ex clus
ever lasting</w>
evangel ion</w>
ev gen
ev alu
eut el
eutel sat</w>
euro fighter</w>
eu n</w>
eth nic</w>
et to</w>
establish ed?</w>
est radi
est ef
estef an</w>
est a</w>
es sions</w>
es .</w>
er ving</w>
er s
er idani</w>
er ica</w>
er d</w>
er berg</w>
er ano</w>
ep iscopal</w>
ep cot</w>
enz ymes</w>
ent ing</w>
eng lish
ener gia</w>
en z</w>
en ey</w>
en e
en dur
en dez</w>
en cia</w>
em y</w>
em men</w>
em irates</w>
em e
em ?</w>
ell er
el ton</w>
el son</w>
el o</w>
el lar</w>
el lan
el ine</w>
el gin</w>
eisen berg</w>
eff ect
edu ardo</w>
ed ger
ed en
ed e</w>
ed -
ear hardt</w>
e us</w>
e ighty</w>
e bo
e at</w>
e at
e 's</w>
dys nomia</w>
du plic
du l</w>
du kes</w>
du k</w>
du dley</w>
du bo
du al
dual star</w>
drum s</w>
dri ve
dra g</w>
dr w</w>
dr w"""</w>
dor ma</w>
dor ae
dorae mon</w>
don at
domin ique</w>
domin ion</w>
domest ica</w>
dol ce</w>
do o
do g
distric t?</w>
displac ed</w>
disne y
disco vers</w>
direct ions</w>
diphenhydr amine</w>
din osaur</w>
din ho</w>
dil lac</w>
digi mon</w>
die renpark</w>
diamond backs</w>
di st</w>
di ocese</w>
di eth
di et?</w>
di ane</w>
di al
di ablo</w>
df b</w>
devi to</w>
deut sch
desp er
demo cra
deis gner</w>
defin ition</w>
debor ah</w>
dead :</w>
de x</w>
de vi</w>
de termin
de tail</w>
de structed</w>
de ferm</w>
de en</w>
de commissi
de co</w>
dddddd d</w>
day time</w>
daw son</w>
davi es</w>
dar th</w>
daniel a</w>
d- ons</w>
d mit
d jango</w>
d is</w>
d ha
d er?</w>
d ele
d au
d agu
cz ynski</w>
cz ech</w>
cy rus</w>
cy press</w>
cy on</w>
cy n
cy 's</w>
cur ti
cu rie</w>
cu ento</w>
cu bs</w>
cu b
crow ley</w>
crist o</w>
crimin als</w>
cri mes</w>
creat es</w>
cre st</w>
cre amy</w>
count er
count down</w>
cou rier</w>
cou rage</w>
cor n
cor bus
corbus ier</w>
copy r
coper nic
cop y</w>
cop tic</w>
cop eland</w>
contain ing</w>
cont est</w>
conf essions</w>
cond ition
concor de</w>
concent ration</w>
concent rate</w>
con struct</w>
con servation</w>
con ca
compri sed</w>
compo unds</w>
complic ations?</w>
compet itor</w>
communic ations</w>
communic ation</w>
commun ion</w>
commit tee</w>
comman do</w>
com edie</w>
com bin
colom bia</w>
colo ur</w>
collect ive</w>
col lin
col bert</w>
cogn itive</w>
co y
co tt
co topaxi</w>
co sby</w>
co s
co ney</w>
co eur</w>
co dy</w>
co coa</w>
co ca</w>
co ates</w>
co -
cly de</w>
clau dio</w>
cl are</w>
cl amp</w>
cit y
cir cus</w>
cinematogra fica</w>
chur ch,</w>
chu cky</w>
chronic le</w>
christ church</w>
cholester ol</w>
cho s</w>
cho pped</w>
cho ose</w>
chloram phenicol</w>
children 's</w>
charact er.</w>
char lots</w>
chan ey</w>
chan ale</w>
ch y</w>
ch utzpah</w>
ch ter</w>
ch ea
ch ang
ch al</w>
ch al
cer tain</w>
ce :</w>
ce ,</w>
caval cade</w>
cath ol
cat ch</w>
cast illa</w>
carpent er</w>
carol yn</w>
care er?</w>
car p</w>
car in
captain ?</w>
capit as?</w>
cap tin</w>
can c
campa igns</w>
camer one</w>
cag ney</w>
caf é</w>
ca y</w>
ca uses</w>
ca sh</w>
ca po
ca o</w>
ca jun</w>
ca dillac</w>
ca bot</w>
ca bin</w>
c. f.</w>
c- class</w>
c wthe100</w>
c ups</w>
c ron
c lown</w>
c etus</w>
c b
c /
by r
but t</w>
but ch</w>
bus ch</w>
buri ed?</w>
bur n
bur ke</w>
bunde sliga</w>
bul garia</w>
bud dy</w>
buchan an</w>
bu r</w>
bu l</w>
bu g</w>
bu ch
bu bble</w>
bry son</w>
bruck heimer</w>
bru ins</w>
brooklyn museum</w>
bro s</w>
bro m
bro lin</w>
bro kaw</w>
britann ic</w>
brid get</w>
bri t</w>
bri des
bra vo</w>
bra ves</w>
br ynner</w>
boun ce</w>
boule vard</w>
border town</w>
bor gnine</w>
boo ts</w>
bom ber</w>
bom bay</w>
bom bar
bombar dier</w>
bom b</w>
bom b
bog art</w>
bod y?</w>
bo kan</w>
bo k</w>
bo isei</w>
bo ils</w>
blu e
blo om</w>
ble ssed</w>
bla ise</w>
bl ut
biz ar
bio shock</w>
bio graphical</w>
bicy cle</w>
bi er</w>
bi an
bi alik</w>
beth el</w>
bes son</w>
bern ie</w>
ber ser
ber na
ben e
bel ichick</w>
bel fort</w>
bel a</w>
beg in?</w>
bec kinsale</w>
bec kett</w>
be owulf</w>
be ha
be e
be cause</w>
bay ashi</w>
bas h</w>
bart on</w>
barbar ian</w>
bar cla
bang ladesh</w>
bal lad</w>
bal khash</w>
bal aton</w>
bad ge</w>
bad en</w>
bac chanale</w>
ba varia</w>
ba ked</w>
ba it</w>
ba g</w>
ba e</w>
b-5 2</w>
b lows</w>
b last</w>
b hut
b ann
azep am</w>
az kaban</w>
ax e</w>
ax a</w>
avail able?</w>
auto pia</w>
auto biography</w>
austri a</w>
atten ding</w>
atten borough</w>
ation ,</w>
ath on</w>
at tra
at su</w>
at ine</w>
ass i</w>
ascen der?</w>
as lan</w>
as ca</w>
art ur</w>
art es</w>
arno l
aren a?</w>
arch er</w>
arch a
arand ina</w>
ar nis</w>
ar les</w>
ar ist
ar io</w>
ar d
ar ca
ar at</w>
ar as</w>
ar arat</w>
ar ara</w>
ar al</w>
ar ag
aqu atics</w>
app li
ap i</w>
anton i</w>
ant igone</w>
ant i</w>
ant es</w>
ant ara</w>
ant ?</w>
ans wer</w>
angel ica</w>
andro id</w>
andr és</w>
and es</w>
anato mically</w>
anast asia</w>
an z
an k</w>
an ak</w>
an ak
an ,</w>
americ ans</w>
ama x</w>
am ir</w>
am er</w>
all es</w>
all -
alde hyde</w>
alan is</w>
al vin</w>
al ves</w>
al um
al ta</w>
al pha
al ert</w>
al am
air plane</w>
ain st</w>
ag assi</w>
ag ainst</w>
af l</w>
aero flot</w>
adri enne</w>
admit tance</w>
adap ted</w>
adap idae</w>
ad vance</w>
ad mir
ad d-ons</w>
acea e</w>
ab rams</w>
ab dul</w>
ab cs</w>
a3 21</w>
a3 20</w>
a3 20/
a320/ a321</w>
a3 19
a319 /
a319/ a320/a321</w>
a3 18/
a318/ a319/a320/a321</w>
a3 00</w>
a- 4</w>
a sos</w>
a ser
a o
a j
a is
a de
a a
a _
a !</w>
] )</w>
99 2</w>
9 80
9 4</w>
9 4
9 3
9 2</w>
9 2
9 -1</w>
85 3</w>
80 4</w>
8 50</w>
8 28.0</w>
8 20
8 -
74 40
7/1/ 2007</w>
7/ 2016</w>
7 th</w>
7 50
7 /199
7 -1
6/1 /19
6/ 2012</w>
6 80</w>
6 49
6 3
6 /19
5/ 2012</w>
5/ 2011</w>
5/ 20/
5 c</w>
5 11</w>
5 000</w>
5 00.0</w>
40 th</w>
40 6</w>
4/199 6</w>
4/1 2/199
4/12/199 2</w>
4/ 2009</w>
4. html</w>
4. 0
4 th</w>
4 a</w>
4 3
4 17
39 0
37 .0</w>
30 th</w>
3/ 31/1
3. 7</w>
3. 38</w>
3. 0
3 80</w>
3 6.
3 ,</w>
27 .
26 .0</w>
26 .
22 9</w>
200 00</w>
20 20</w>
2/2 5/2017</w>
2/ 2012</w>
2. 4</w>
2. 0
2, 8</w>
2 pac</w>
2 80
2 40</w>
2 19</w>
2 )</w>
2 """</w>
197 8</w>
1900 s</w>
19 48</w>
19 00</w>
18 5
18 ,
16 3</w>
15 .
13 .0</w>
12/15/19 33</w>
11/ 9/19
11 1
10 7
10 10
1/1/197 2</w>
1/1/195 6</w>
1/1/195 3</w>
1/1/195 2</w>
1/1/19 81</w>
1/1/19 69</w>
1/1/19 66</w>
1/1/19 46</w>
1/1/19 41</w>
1/1/19 31</w>
1/1/18 73</w>
1. 68</w>
1 st</w>
1 :</w>
00 00</w>
0. 0
. html</w>
. 0
-09 -2
- sp
- film</w>
(us a)</w>
(ii i)</w>
(197 4)</w>
( di
' ll</w>
" 福农宝"""</w>
" itunes"""</w>
" 2009</w>
" 2"""</w>
’ t</w>
р а
ü n
õ es</w>
í k</w>
í c
íc iles</w>
é rix</w>
é r
é lie</w>
án dez</w>
á le
zz oli</w>
zz o</w>
zwe i</w>
zu g</w>
zu ck
zuck erberg</w>
zolo ft</w>
zial ist</w>
zi y
ziy al</w>
zer :</w>
zen it</w>
ze it</w>
ze go
za ar</w>
z x</w>
z une</w>
z um</w>
z n</w>
z ip</w>
z ion</w>
z burg</w>
z antine</w>
yvon ne</w>
yu en</w>
yt terbium</w>
yss inian</w>
ys us</w>
yp to
ypto phan</w>
yp ti
ypti schen</w>
yo ut</w>
yo sem
yosem ite</w>
yn es</w>
yen isei</w>
ye vich</w>
ye oman</w>
yam an
yaman ote</w>
yam amo
yamamo to</w>
yaho ga</w>
yag ra
yag i</w>
ya ar</w>
y ville</w>
y un
y thromycin</w>
y read</w>
y m</w>
y ester
y ann
yann ick</w>
y ah</w>
xy methyl</w>
xy cycline</w>
xx ii</w>
x- 33</w>
x p</w>
x lt</w>
x icillin</w>
x er
x 2</w>
x .</w>
wä chter</w>
woz ni
wozni ak</w>
world wide</w>
wood ward</w>
wolf quest</w>
wol fen
wolfen stein</w>
wo hn
wn ?</w>
wiz ar
wizar ding</w>
wis ely</w>
winner .</w>
wing ed</w>
wing -
wind sor</w>
wild fell</w>
wild :</w>
wij zer:</w>
wi st</w>
wi es
wi dest</w>
wi de
wide screen</w>
who le</w>
white _
white_ christmas</w>
wheel er</w>
whe aton</w>
whe at
wh is
wh ci
whci h</w>
wh at?</w>
west world</w>
west ly</w>
well man</w>
weg los</w>
wed nes
wednes day</w>
weas ley</w>
we y</w>
we ima
weima r</w>
way _
water loo</w>
wat ts</w>
wash ing
was p</w>
warf s</w>
war wick</w>
war m</w>
war hawk</w>
wall a</w>
wal ken</w>
wal e</w>
wa ste</w>
wa po
wapo :</w>
wa k
w ler</w>
w ipe
w im
w ie</w>
w ich
w es</w>
w ages</w>
w 3</w>
w /
ví deo</w>
voy na</w>
vo id</w>
vo ca
voca do</w>
vladis lav</w>
vin ia</w>
vill ar
video- shar
video-shar ing</w>
vide d?</w>
vi y</w>
vi tor</w>
vi sit</w>
vi sh
vi per</w>
vi gli
vigli a</w>
vi da</w>
vi ation?</w>
vi an</w>
vi a?</w>
veron ica</w>
verle ih</w>
verg ess
vergess ene</w>
ver t</w>
ver raz
verraz ano</w>
ver ns</w>
ver as</w>
venti mig
ventimig lia</w>
vent us</w>
ven port</w>
vel a</w>
ve w</w>
ve ren
ve il</w>
ve er
vari ety</w>
vap or</w>
valer ie</w>
valent ina</w>
val ues</w>
val id
val encia</w>
val dez</w>
vacan c
vacanc ies</w>
va rela</w>
v v</w>
v ue</w>
v ra
vra bel</w>
v est</w>
v az
v augh
vaugh an</w>
v ation</w>
v ast
v ander
v ana</w>
v all
ut taran
uttaran chal</w>
ut su</w>
ut in</w>
ut c</w>
ut an</w>
uss mann</w>
use way</w>
us sr</w>
us o</w>
us ko</w>
us i
us es?</w>
us am
us a-
usa- 193</w>
uri shing</w>
uranium-2 35</w>
ur fs</w>
ur b
up un
up per</w>
universi dad</w>
und o</w>
und ed</w>
und chen</w>
und a</w>
un lea
un ic
un g-
un fortun
unfortun ate</w>
un credited</w>
ume designer</w>
um- 89</w>
um berto</w>
ula ?</w>
ul ding</w>
ul aris</w>
uk ra
ukra ine</w>
ugi aro</w>
ugh ton</w>
ug u</w>
ug ars</w>
u y
u ro
u li
u il</w>
u de
u ador</w>
u -2</w>
typic ally</w>
typic alls</w>
ty sburg</w>
ty rone</w>
ty gra</w>
ty -
tw it
tw ist
tw ent
tw a</w>
tv .
tv. network</w>
tut or?</w>
turn bull</w>
tur bul
turbul ence</w>
tu -
tu- 95</w>
tsubas a,</w>
ts n</w>
truste es</w>
trou bled</w>
trou ble</w>
tropic ana</w>
tron ic</w>
tro mb
tromb one</w>
tro ll</w>
tri stra
tristra m</w>
tri p
tri be</w>
treat ment?</w>
tre vi</w>
travel lers</w>
travel ers</w>
transport ation</w>
transl ation</w>
transform ations</w>
trans america</w>
tran ce</w>
train spot
trainspot ting</w>
train er</w>
tra yed</w>
tra th
tra de
trade mark</w>
tr yptophan</w>
towns end</w>
town ship
tot ten
totten ham</w>
tor ino</w>
tor ?</w>
ton le</w>
tomat ic</w>
tom b
tomb stone</w>
tol sto
tol ir
tolir ion</w>
to toy</w>
to shiba</w>
to kum
tokum ei</w>
to dd
to by
tit y?</w>
tit us</w>
tit a</w>
tir pit
tirpit z</w>
tion ed</w>
tig ris</w>
tic ism</w>
ti vo</w>
ti t</w>
ti ps</w>
ti mer
timer good</w>
ti an
tho s</w>
tho rens</w>
tho logy</w>
think centre</w>
thi ans</w>
thi amine</w>
ther ou
themsel ves</w>
them e?</w>
the re
the on</w>
than ks
thanks giv
th es</w>
tet suo</w>
ter ri
ter ra</w>
ter ol</w>
ten er
tener ife</w>
ten ant</w>
ten aga</w>
temper am
temperam ent?</w>
tem kin</w>
teles cop
tele graph</w>
tel ugu</w>
techno logies</w>
technic ian</w>
tech ni
techni que</w>
team s?</w>
teach ers</w>
tat wood</w>
tar a</w>
tant al
tantal um</w>
tan z</w>
tan ya</w>
tan ki</w>
tan ce?</w>
tall ?</w>
tal ent</w>
take uchi</w>
tak ada</w>
tai wan</w>
table ?</w>
ta y
ta up
ta u
ta il
ta ft</w>
ta ek
t é
t zer</w>
t wist</w>
t ur</w>
t ry</w>
t re</w>
t ino</w>
t ility</w>
t f</w>
t ere</w>
t ed
t ease</w>
t ch
tch ai
tchai kovsky</w>
t b
t art
t ang
t ana</w>
t ama</w>
syn the
symp tomatic</w>
symbo l?</w>
sy n</w>
sweet water</w>
sw is
sw ich</w>
sw ell</w>
sur name</w>
sur in
sur f</w>
suppor ts</w>
super man
super cluster</w>
summar y?</w>
summar ize</w>
sult anate</w>
sul fi
suc cess
subst it
substit ute</w>
sub stan
sub domain</w>
su o
su -27</w>
style .</w>
stud y?</w>
stud ents?</w>
stud ent
stu ff
strug gle</w>
stru pia</w>
stronti um-89</w>
stro goff</w>
streif schuß</w>
stre ep</w>
stra w</w>
stra w
stra s
stra czynski</w>
str ö
story line</w>
stev e
steve kerr</w>
stefan o</w>
ste en
steen strupia</w>
stat s?</w>
stat is
statis it
stat en</w>
star d</w>
star :</w>
stan ton</w>
stan is
stall man</w>
stal gic</w>
stac ks</w>
sta va</w>
st ut
st sen</w>
st itch</w>
st ir
st ig
st iers</w>
st i</w>
st ell
st amp</w>
st -
ss s
sss ss</w>
ss p</w>
ss ens</w>
squ e</w>
spect acle</w>
spe zialist</w>
spe eds</w>
spe e</w>
spacefl ight?</w>
space ship
spac ey</w>
sp ä
sp ur</w>
sp re
sp lit</w>
sp ices</w>
sp ell
sovere ign</w>
south west</w>
sound s</w>
sor hands</w>
sor ce
son d
sond heim</w>
some one</w>
som mers</w>
som bre
sombre ro</w>
solubil ity?</w>
solu tions</w>
solu ble</w>
so tto</w>
so to</w>
so oner</w>
so o-
so il</w>
so dy</w>
so co
soco tra</w>
so ap</w>
sny der</w>
sno qual
snoqual mie</w>
sni ek
sniek la
sniekla as</w>
smo ked</w>
smil er</w>
sm urfs</w>
slo th</w>
sle pt</w>
sky walker</w>
sky line</w>
sk ip
skip per</w>
sk ies</w>
sk ar</w>
sk ad
skad ar</w>
sk a
simu lator</w>
simil e</w>
sil vio</w>
sic ily</w>
si ze
si viglia</w>
si ke
si k
si en
sien kiewicz</w>
si dd
si ble
show case</w>
shor test</w>
sho wn?</w>
sho ts</w>
sho ot</w>
sho i</w>
sho es</w>
sho ck
shi- ana</w>
sher yl</w>
sher man</w>
sher aton</w>
she ph
sheph erd</w>
she ep</w>
shar ma</w>
shap ed</w>
shakespea re's</w>
sha vin</w>
sh und</w>
sh un
sh u</w>
sh ima</w>
sh et
sh en</w>
sh ard</w>
sh andy</w>
sh ad
sh ack</w>
sg -1</w>
set te</w>
servi ces
serv e?</w>
series .</w>
series ,</w>
serge ant</w>
ser ta</w>
ser rat</w>
ser ie</w>
sen se</w>
sen dak</w>
sem mer
semmer ing
semmering bahn</w>
sel leck</w>
sel f-
sebasti án</w>
sea shell</w>
se ville</w>
se ven
se par
se odymium</w>
se man
se ite</w>
se infeld</w>
se ine</w>
se il</w>
se go
sego via</w>
se en</w>
se eds</w>
scu bat
scubat ribe</w>
script ?</w>
scor pius</w>
sco m</w>
science :</w>
science )</w>
sci usko</w>
schweig t,</w>
schu macher</w>
scho oner</w>
sche du
sc ul
sc rat
scrat ch</w>
sc is
scis sorhands</w>
sc ia</w>
sc ent</w>
sc ale
scale .</w>
saxop hone</w>
saw yer</w>
sat yagra
sas kat
saskat che
saskatche wan</w>
sart an</w>
sap ore</w>
sang iran</w>
sando kan</w>
sand wich</w>
san ne</w>
san der</w>
san chez</w>
san atorium</w>
sam bo</w>
sam arium</w>
sala zar</w>
sal mon</w>
sal man</w>
sal inger</w>
saip h</w>
sai kai</w>
sagittar ius</w>
sag rada</w>
sag et</w>
sac re</w>
sac char
sa u</w>
sa moa</w>
sa ir</w>
sa iling</w>
sa h</w>
sa d</w>
s- class</w>
s á
s x
s wi
s wa
s ville</w>
s nia</w>
s f
s ement</w>
s do
s b
s and</w>
s als</w>
s age</w>
s agan</w>
s 4</w>
ry or</w>
ry -
ruth enium</w>
rum iko</w>
rug by</w>
rubi dium</w>
ru stic</w>
ru iz</w>
ru ins</w>
ru dy</w>
ru a</w>
ru )</w>
rough s</w>
roo ster</w>
ron stadt</w>
ron al
ronal dinho</w>
roman ticism</w>
rock et?</w>
rock ers</w>
roc ke
rocke f
rockef eller</w>
road ster</w>
ro x
ro vers</w>
ro utes</w>
ro sario</w>
ro sales</w>
ro pe</w>
ro ok
ro ku</w>
ro id</w>
ro dney</w>
ro cks</w>
river dance</w>
river dale</w>
ring ing</w>
rig by</w>
rick son</w>
rich mond</w>
ric ks</w>
ri sa</w>
ri ms
rims at</w>
ri ka</w>
ri enz
rienz i</w>
ri bs</w>
ri bing</w>
ri ,</w>
rhy s</w>
rhe in</w>
reven ue?</w>
reven ant</w>
ret te</w>
rest al</w>
respo d
respod ning</w>
resc ue</w>
representat ives</w>
represent ative</w>
repres ents</w>
reno vation</w>
rene gades</w>
ren sis</w>
relation ships</w>
reg ent</w>
red ent
redent or</w>
record ings</w>
rechn ung</w>
rec o</w>
read y
read ers</w>
read ?</w>
reach ed</w>
re x
re ver
re uben</w>
re turn
re sh</w>
re s
re rs</w>
re mont</w>
re mo</w>
re mix
re member</w>
re make</w>
re la
rela sed</w>
re i</w>
re hear
rehear sals</w>
re foot</w>
re ef</w>
re duction</w>
re bel
re ,</w>
rd-10 9</w>
rd-10 8</w>
rd-1 72</w>
rd-1 20</w>
ray man</w>
ray leigh</w>
rat ing.</w>
rat i</w>
rasp berry</w>
ran t</w>
ran k?</w>
ran ge?</w>
ran g</w>
ran g
ran ch</w>
ran ce</w>
ram esh</w>
ram bo</w>
rais ins</w>
rag ing</w>
rad ames</w>
ra z</w>
ra mon</w>
ra inf
ra i
ra f</w>
ra f
ra ea</w>
ra che</w>
ra bles</w>
r. l.</w>
r é
r wanda</w>
r und
r sc</w>
r mo</w>
r m-
r ho</w>
r hap
rhap sody</w>
r ca</w>
r 18+</w>
r 15</w>
r 15+</w>
r 's</w>
quint et</w>
que fa
quefa ction</w>
que ens</w>
quat tro</w>
quan tity?</w>
qual if
qu it
qu ick
qu est
q basic</w>
q as
qas r</w>
q 2
py m</w>
puzz le</w>
put ation</w>
purpos e</w>
pun jab</w>
pul se</w>
public ly?</w>
public ation?</w>
pu ff</w>
pu ente</w>
prus sia</w>
provi dence</w>
prote us</w>
profession ally?</w>
produc es</w>
produc er.</w>
pro zack</w>
pro vided?</w>
pro spect</w>
pro po
propo xymethyl</w>
pro ph
pro pag
pro mis
pro m</w>
pro ject
pro c
pro bab
prin us</w>
pri me
pri m
pre s</w>
pre is</w>
pre ach
prat chett</w>
practic ed</w>
pra seodymium</w>
pra k
pp o</w>
pp el
por tivo</w>
por no
popul ation?</w>
popo vich</w>
popo cat
popocat ep
popocatep et
popocatepet l</w>
pont chart
pontchart rain</w>
politic ians</w>
polit ics</w>
polit ic</w>
pol lux</w>
po trayed</w>
po temkin</w>
po lo</w>
po ld</w>
po ky</w>
po it
po em?</w>
pli o
plio saurus</w>
play saurus</w>
play er’s</w>
play boy</w>
pla r</w>
pla ce
place .</w>
pip pin</w>
pion t</w>
pin i</w>
pin ea
pinea pple</w>
pim p</w>
pic o</w>
pic 16</w>
pi que</w>
pi er</w>
pi ec
physician 's</w>
philadel ph
phen obar
phenobar b
phenobarb ital</w>
phan ta
ph ip
phip ps</w>
ph ill
ph ic</w>
ph e</w>
pg ])</w>
pet ty</w>
person alities</w>
perform s</w>
per ito</w>
per cus
percus sion</w>
pent agon</w>
pen it
pen insu
peninsu la</w>
pen ce</w>
pel le
pear son</w>
pea ch</w>
pe tit</w>
pe el</w>
pe e</w>
pe ch
pe as</w>
pe an
pau line</w>
pat terson</w>
pat ch</w>
part y
part on</w>
park way</w>
paren thood</w>
par sons</w>
par c</w>
par ag
pap ers</w>
pap al</w>
pap ado
papado poulos</w>
pande mic</w>
paint ings</w>
pag es?</w>
pack ard</w>
pack ages</w>
pac t</w>
pac man</w>
pa ek
p- grum
p-grum man
p-grumman -corporation</w>
p- 40</w>
p- 38</w>
p å</w>
p á
p tions</w>
p sy</w>
p ryor</w>
p ru
p rit
p it</w>
p isa</w>
p interest</w>
p imper
p fe
p ev
pev ine</w>
p est
p by</w>
p ant
p ana</w>
p all
p ab
pab on</w>
p ?</w>
p :</w>
own er?</w>
own ed?</w>
ow ls</w>
out put</w>
out back</w>
oui ja</w>
ot ti</w>
ot r</w>
os mium</w>
os lo</w>
origin als</w>
origin .</w>
ori ent
ordin ary</w>
orb it?</w>
or phe
or issa</w>
or g</w>
or dn
or d</w>
or ci
or ch
or b</w>
or ant</w>
or an</w>
or al</w>
oph iu
ophiu chi</w>
oper ations</w>
open ing?</w>
ony mous</w>
ono ke</w>
on ne</w>
on ion</w>
on i</w>
om ni
olympi ast
olympiast adium</w>
ol ine</w>
ol ds
olds mobile</w>
ol die</w>
oh s</w>
offic e?</w>
of ten</w>
od orant</w>
od d</w>
occur ></w>
oc ho
oc ca
ober on</w>
ob a</w>
o' connor</w>
o ven</w>
o tic</w>
o th
o st
o mo</w>
o let</w>
o jo
o ganes
oganes son</w>
o den
o cho</w>
o at
o .</w>
ny j</w>
ny aya</w>
nut ty</w>
nun n</w>
number .</w>
northro p-grumman-corporation</w>
nor dic</w>
noma k</w>
nobu hiko</w>
no va</w>
no urishing</w>
no un
no stalgic</w>
no s</w>
no bel
nobel ium</w>
no b
nitro us</w>
nio bium</w>
niko la
nighthaw k</w>
night mare</w>
nico la
nic ola</w>
nic a</w>
ni hon</w>
newspaper ?</w>
new ick</w>
neu ron
neu mann</w>
neu f</w>
ner o</w>
nem uri</w>
neighbor ho
need le</w>
near by
nearby .</w>
ne void</w>
ne vis</w>
ne veren
ne gre
ne a</w>
nb c
nath ana
nathana el</w>
nat ura</w>
nat asha</w>
nam i
nam en
namen lose</w>
nac ional</w>
na sional</w>
na omi</w>
na mon</w>
na dia</w>
na c</w>
na buc
nabuc co</w>
n us
n s)</w>
n ip
n io</w>
n ino</w>
n il</w>
n il
n ice</w>
n go
n c</w>
n al</w>
n .</w>
mör der</w>
mör der
my st</w>
my self</w>
mul sanne</w>
muham mad</w>
mu ß</w>
mu gur
mugur uza</w>
mp o</w>
moti er,</w>
mor ten
mor se</w>
mor row</w>
mor mon</w>
monte rey</w>
monster s,</w>
monogat ari</w>
mon onoke</w>
mon ica</w>
mon ic</w>
mon ia</w>
mocking bird</w>
mo th
mo te</w>
mo t</w>
mo stri</w>
mo ron
mo rocco</w>
mo ritz</w>
mo o
mo ll</w>
mo ja
mo des</w>
mit ch</w>
mis ora</w>
mir )</w>
miner va</w>
min t</w>
min eral</w>
min e
mine field</w>
million aires</w>
milli metres?</w>
mig-2 3</w>
mig nola</w>
middle ton</w>
middle bury</w>
micha els</w>
mic ro</w>
mic key
mickey rooney</w>
mic k</w>
mi-2 4</w>
mi ya
mi kha
mi ff
meth inc.</w>
meth ane</w>
meth amphetamine</w>
mer lot</w>
menth ol</w>
men inas</w>
men do
men dele
mell on</w>
melaleu ca</w>
mel vin</w>
meit ante
meitante i</w>
meh met</w>
megg in</w>
megalo virus</w>
medi at
me et
me er</w>
me du
medu sa</w>
mckin ley</w>
mck ellar</w>
mcdo wall</w>
mc gra
mc ewan</w>
mc cul
mccul loch</w>
mc co
mc cart
may on</w>
may er</w>
max ima</w>
maur it
maur icio</w>
matter ?</w>
math ieu</w>
master ing</w>
margare tatwood</w>
mar x</w>
mar ion</w>
mar ines</w>
mar ian</w>
mar cy</w>
mar cos</w>
mar au
marau der</w>
mar athon</w>
mar aca
maraca i
maracai bo</w>
manz ano</w>
man ia</w>
man i
man dy</w>
man d
man ay</w>
man :</w>
mall ory</w>
male fic
malefic ent</w>
make make</w>
mainten ance</w>
maintain er</w>
mag i</w>
mag a</w>
mad ,</w>
mach t</w>
mach ete</w>
mac ke
macke rel</w>
mac greg
macgreg ors</w>
ma z</w>
ma o</w>
ma ine</w>
ma har
mahar ash
maharash tra</w>
ma dr
ma de?</w>
ma da</w>
ma ck</w>
ma ,</w>
m á
m v)</w>
m s?</w>
m rs</w>
m p</w>
m ill</w>
m g</w>
m eng
m eal</w>
m box</w>
m ,</w>
ly wood</w>
ly rae</w>
lun ar</w>
luig i</w>
luc ifer</w>
lu ther
lu p
lu cas
lt .</w>
low ry</w>
low fat</w>
low e</w>
lot us</w>
lor ds</w>
long itu
loc ke</w>
loc ations?</w>
loc ale</w>
lo v</w>
lo unge</w>
lo sartan</w>
lo renzo</w>
lo p</w>
lo ose</w>
lo op</w>
lo mond</w>
lo lo</w>
lo ew
loew y</w>
lo bo</w>
lo a</w>
liv ing?</w>
lithu ania</w>
lion sgate</w>
link later</w>
lin ie</w>
lin den</w>
lil ies</w>
lig ue</w>
lif lower</w>
lif ies</w>
libr ar
liber ia</w>
liber ator</w>
li ve
li u</w>
li quefaction</w>
li me</w>
li m</w>
li k</w>
li ding</w>
li bra
libra e</w>
li ant</w>
lex ington</w>
lev ant</w>
les bian</w>
lero y</w>
lep pard</w>
leo pold</w>
lentic ularis</w>
led ger</w>
lear ned</w>
lea ch</w>
le x</w>
le vy</w>
le thal</w>
le ster</w>
le op
le mu
le f
le en</w>
le eds</w>
le ary</w>
le aning</w>
laur yl</w>
lau stsen</w>
lau det</w>
lat erano</w>
lat ed</w>
lar k</w>
lar issa</w>
lands at</w>
landa u</w>
lan tern</w>
lan don</w>
lak sh
lado ga</w>
la z
la yout</w>
la wn</w>
la uri</w>
la uper</w>
la re
la is</w>
la ckey</w>
la cey</w>
la ble</w>
l' au
l ü
l ö
l ó
l ongs</w>
l ju
l illy</w>
ky ō
ku li
kru eger</w>
kri jn</w>
kor onis</w>
ko w
ko vich</w>
ko ut</w>
ko u
ko sciusko</w>
ko s
ko ku</w>
ko ff</w>
ko dan
kodan sha</w>
ko be</w>
ko bayashi</w>
kn all</w>
kit ts</w>
kish or</w>
kirk land</w>
king ,</w>
kin os
kin o</w>
kin dle</w>
kie fer</w>
kid o</w>
kick boxing</w>
ki j
kij k
kijk wijzer:</w>
khar ana</w>
kh anna</w>
ker ala</w>
ken newick</w>
kellog g</w>
kel onian</w>
kel ley</w>
ke hiro</w>
ke aton</w>
ke .
kaz akh
kazakh stan</w>
kat alin</w>
kas dan</w>
kar ina</w>
kar i</w>
kann an</w>
kan ye</w>
kan to</w>
kal yptischen</w>
ka ya</w>
ka j</w>
ka de</w>
k ü
k ret
k l
k ina</w>
k house</w>
k ell</w>
k ap
k :</w>
k .
just ine</w>
jur gen</w>
jun g
ju ventus</w>
ju da
journ al?</w>
josi f</w>
jon ze</w>
jon ny</w>
jol ly</w>
jo ão</w>
jo shi-ana</w>
jo li
ji u</w>
ji me</w>
jer ome</w>
jenn ings</w>
jem ison</w>
je et</w>
je ep</w>
je e</w>
jar at</w>
jan i</w>
jaku b</w>
jah re</w>
jacquel ine</w>
jack nicholson</w>
ja y
ja sike
j. r.</w>
j. g.</w>
j ó
j ury</w>
j i-
j en</w>
j al
iz o</w>
iv an
iv a</w>
ital ia</w>
it y.</w>
it te</w>
it t</w>
it ing</w>
is mail</w>
is lam</w>
is el
is che</w>
is ang</w>
is ,</w>
iri dium</w>
ir t</w>
ip swich</w>
ip an
ion s.</w>
ion i</w>
inter ior</w>
inter active</w>
int enti
intenti ons</w>
int ed</w>
instrum ental</w>
instit uti
inst ant</w>
inno cent</w>
ing e</w>
ing ,</w>
influ ence</w>
inf ect
infect ions.</w>
ine phrine</w>
indu cted</w>
inclu de?</w>
incep tioned</w>
in u</w>
in ski</w>
in saw</w>
in ner</w>
in land</w>
in k
in ju
in ine</w>
in ho</w>
in hib
in fer
infer no</w>
in far
in ess</w>
in do
in dium</w>
in da</w>
in :</w>
imit ation</w>
imag ine
im pro
im pression</w>
im port
im ler</w>
im f
ill us
ill ing</w>
il is</w>
il in
il i</w>
ight ed?</w>
ig lio</w>
ig gy</w>
ies .</w>
ie m</w>
ido l</w>
identifi er?</w>
identifi ed</w>
ida ho</w>
id roid</w>
id ental</w>
id ent
icm set</w>
ich on</w>
ic on
ic ime</w>
ic able</w>
iber ia</w>
ib n</w>
ia an</w>
ia !</w>
i- 35
i-35 w</w>
i yan</w>
i w
i thromycin</w>
i en</w>
i dea</w>
i bra
i ano</w>
i ana</w>
i ah</w>
i a-
i >
i 'm</w>
hydroxy propoxymethyl</w>
hydrochlor ic</w>
hydro carbon</w>
hy e
hur t</w>
human ities</w>
hum ilis</w>
hul u</w>
hu x</w>
hu l</w>
hu ang</w>
http%3a%2f%2fdownload.cnet.com %2
hr t</w>
hous ing</w>
hous e:</w>
hot spur</w>
horse head</w>
hor st</w>
hor r
hol mium</w>
hol den</w>
hol brook</w>
hoch haus</w>
ho we</w>
ho uses</w>
ho ney
ho ne
ho mer</w>
ho llis</w>
ho lic</w>
ho le</w>
ho f
hitch hi
hit ler</w>
high lands</w>
high ?</w>
hi st</w>
hi p</w>
hi er
hier archy</w>
hi bari</w>
hero in</w>
hero ?</w>
herman s:</w>
herit age</w>
her zego
her z</w>
her r</w>
her od</w>
her mitage</w>
her cu
hercu le</w>
henry k</w>
hen ri
hen d
hel mut</w>
hea ded</w>
he ctor</w>
he ath</w>
hay ek</w>
hay e</w>
harper collins</w>
har po</w>
har mony</w>
har court</w>
hand ball</w>
ham lin</w>
ham burg</w>
hal ter</w>
hal t</w>
hal i
hag ue</w>
hag ia</w>
ha zzard</w>
ha ven</w>
ha ussmann</w>
ha jime</w>
ha j
ha il</w>
ha di</w>
ha des</w>
h. w.</w>
h ä
h ant
gusta vo</w>
gun s</w>
gul f
guid el
guidel ines</w>
guer illa</w>
guar ante
guarante ed</w>
guan ine</w>
guad ala
guadala jara</w>
gu wapo:</w>
gu ll
gu jarat</w>
gu il
gu i</w>
gru den</w>
gru be</w>
groo ve</w>
gro ss
gro ot</w>
gro om</w>
grin d
green wood</w>
green wich</w>
gre ens</w>
gran dson</w>
gram mar</w>
gra yson</w>
gra pevine</w>
gra n</w>
gra cel
gracel and</w>
gr ated</w>
govern ment.</w>
gor iot</w>
gor ge</w>
goog al</w>
good man</w>
goo fy</w>
gold ber
goldber gs</w>
god zilla</w>
god frey</w>
go xin</w>
go ur
go ulding</w>
go ku</w>
go ffen
go blet</w>
go a</w>
gm -2
glut am
glutam ic</w>
glu co
gluco se</w>
gli ari</w>
gla ci
gl ing</w>
gl en
gis ele</w>
gior gio</w>
gior get
giorget to</w>
gion g</w>
gil more</w>
gil lan</w>
gi us
gi ugiaro</w>
gh etto</w>
get tysburg</w>
get ty</w>
gest us</w>
gest one</w>
geschä ft</w>
german otta</w>
ger 's</w>
georg icus</w>
geo graph
genre .</w>
gener ation
gen cy</w>
gel ina</w>
gel d
geld of</w>
geist er
geister bahn</w>
ge ons</w>
ge ars</w>
ge -
gd p?</w>
gau di</w>
gasp ra</w>
gare th</w>
gar th</w>
gan ieri</w>
gam let</w>
gam ec
gamec ube</w>
galler y-of-
gall eria</w>
galax y?</w>
gala ct
galact ica</w>
gal laudet</w>
gal at
gab or</w>
ga y
ga wa</w>
ga ff
ga el
gael ic</w>
g ö
g reco</w>
g p
g im
g ill
g har</w>
g es
g ed
g b</w>
g art
g age</w>
fur t</w>
fun ic
fun ction</w>
full metal</w>
fu rius</w>
fu kko</w>
fu ji
fron ti
fro me</w>
free play</w>
free e</w>
fre tless</w>
fre shman</w>
fre do</w>
fre ak</w>
frau en
franç ois</w>
frank furt</w>
fran cium</w>
fran chis
franchis e)</w>
fra g
fra ctus</w>
fr ü
fr é
four square</w>
found er.</w>
foun tain</w>
form ula?</w>
form aldehyde</w>
fore ster</w>
fore man</w>
for za</w>
for um</w>
for th</w>
for restal</w>
for gotten</w>
for d
for bid
forbid den</w>
foot age</w>
fool s,</w>
focus sing</w>
fo ss
fo ley</w>
fo ld</w>
fli p</w>
fla vin</w>
fl ume</w>
fl ori
fl ora</w>
fjor den</w>
fit ness</w>
fin ney</w>
fin ch</w>
film .</w>
fil ip
fiel ding</w>
fiel d,</w>
fidel io</w>
fic ial</w>
fi sts</w>
ff o</w>
ff e
festiv als</w>
ferr ari</w>
feren c</w>
fer tility</w>
fer rer</w>
fem me</w>
felic ia</w>
feder ica</w>
fe bru
febru ary</w>
fc :</w>
farm ville</w>
fare well</w>
far hadi</w>
fair s</w>
fair ly</w>
fail ures</w>
fact s</w>
fac simile</w>
fa y</w>
fa y
fa rensis</w>
fa k
fa ire</w>
fa cul
facul ty</w>
fa bian</w>
f-1 17</w>
f- 86</w>
f íciles</w>
f ry</w>
f ner</w>
f movies</w>
f lic
f inger
f h
f eng
feng shen</w>
experti se</w>
exper t</w>
exp and
expand ed</w>
exemp lifies</w>
exemp lified</w>
execut ve</w>
exclus ive</w>
ex tre
ex orci
ex chan
ew ana</w>
evgen y</w>
every one</w>
every body</w>
eve rett</w>
evalu ate</w>
ev na</w>
ev en</w>
et ern
etern al</w>
estradi ol</w>
estim ation</w>
establish ment?</w>
est rada</w>
ess el
esp n</w>
esp agno
espagno le</w>
es sive</w>
es say</w>
es s?</w>
es -
erg aster</w>
ere bus</w>
er ythromycin</w>
er mey</w>
er ina</w>
er in
er idge</w>
er c
er aser
eraser head</w>
er agon</w>
er :</w>
equ itable</w>
equ al</w>
epu pa</w>
episo de
episode s?</w>
episo d</w>
enz o</w>
environ ment</w>
enti um</w>
ent um</w>
ent own</w>
ent es</w>
enn ai</w>
eng ines</w>
ene id</w>
en sen</w>
en rico</w>
en emy</w>
en do
en ,</w>
en 's</w>
employ ers</w>
emper or</w>
em mitt</w>
em bra
ela ine</w>
el t</w>
el st</w>
el more</w>
el lie</w>
el is
el f
el ba</w>
el ara</w>
el ant
elant ra</w>
el -
egyp tian</w>
eg mont</w>
eg eld</w>
effic acy</w>
ef its</w>
edger ton</w>
eder see</w>
ed o</w>
ed m
ed dy
eddy stone</w>
ed :</w>
ed ,</w>
ect ives</w>
ec uador</w>
eas yread</w>
earn est</w>
e. v.</w>
e ug
e ther</w>
e is</w>
e fe</w>
e chin
e c</w>
dynam o</w>
dur ham</w>
dur as</w>
duplic ate
duplicate _
dun kle</w>
duck burg</w>
du sk</w>
du o</w>
du n</w>
du et</w>
du chess</w>
dro p
dre bin</w>
dre ad
dr yer</w>
dow loaded</w>
dou x</w>
dono van</w>
don nie</w>
don ation</w>
do xycycline</w>
do x
do ws</w>
do ve</w>
do ugh</w>
do ppel
do ors?</w>
do ganieri</w>
dl r</w>
divisi on
divi son</w>
dit ko</w>
disne y's</w>
discovere r.</w>
discover ing?</w>
dis ast
dis appeared</w>
director s?</w>
dion ysus</w>
din er</w>
di xon</w>
di r</w>
di goxin</w>
di fíciles</w>
di eter</w>
di et
di as</w>
di agno
dh pg])</w>
devi ces</w>
dev oti</w>
det ectives</w>
dest ino</w>
desp icable</w>
design ing</w>
desc ribing</w>
der ma
den mark</w>
den eu
den -
democra cy</w>
degre e?</w>
death .</w>
de wey</w>
de us</w>
de struct</w>
de pression</w>
de portivo</w>
de odorant</w>
de mo</w>
de fine</w>
de f</w>
de f
de ewana</w>
de er
de camerone</w>
de bian</w>
ddddddddddddde sssss</w>
daw kins</w>
dani els</w>
dam aged</w>
dam age?</w>
dallas- cowboys</w>
dal ton</w>
dais y</w>
dagu er
dach shund</w>
da vey</w>
da venport</w>
da imler</w>
d ü
d zi
d warfs</w>
d runken</w>
d n</w>
d j</w>
d j
d ill</w>
d enny</w>
d dy</w>
d c
d are</w>
cyto megalovirus</w>
cygn us</w>
cy prinus</w>
cy c</w>
cy ber</w>
cvn- 76</w>
cvn- 72</w>
cut ta</w>
curti ss</w>
curren t?</w>
cur b</w>
cum ming</w>
cub ism</w>
cu yahoga</w>
ct ure</w>
cro wn
cro ssing</w>
cro ss
cro at
croat ia</w>
crit ique</w>
crit ic</w>
crist ina</w>
cri methinc.</w>
crem ation?</w>
creat or
cre te</w>
cre ations</w>
coy ote</w>
cover ?</w>
cour thouse</w>
cou ric</w>
cost umedesigner</w>
corv ette</w>
coron ation</w>
cor respodning</w>
cor nel
cor de
cor bin</w>
cor bic</w>
cor al</w>
copyr ighted?</w>
copernic ium</w>
cook ie</w>
contribu tor?</w>
contain ers</w>
conserv atory</w>
congen ital</w>
configur ations</w>
condition er</w>
con vention</w>
con text</w>
con te</w>
con so
con rad</w>
con nick</w>
con gestus</w>
con don</w>
con da</w>
con a</w>
compu ter?</w>
compost ions</w>
composer .</w>
compos itions</w>
compo und
comp ton</w>
comp a
compa q</w>
commer ce</w>
comic ?</w>
come dies</w>
com cast</w>
colon el</w>
collect ion?</w>
colle ge.</w>
col d
cog burn</w>
coff in</w>
coff ee</w>
cock tail</w>
co ugars</w>
co scom</w>
co li
co burn</w>
club house</w>
clu es</w>
clos est</w>
clo u
clo ser</w>
clo ck</w>
clin ic</w>
clim b
climb ed?</w>
cli ppers</w>
cli mat
clevel and-
cle ver</w>
cle ment</w>
cle mens</w>
cle 's</w>
classific ation.</w>
clar ithromycin</w>
cla yton</w>
cla use
cla remont</w>
cl ump</w>
ck le</w>
cit i</w>
cirro cumulus</w>
cir que</w>
cip ro</w>
cinematograph ed</w>
cinem ark</w>
cin é</w>
cin oma</w>
cin i</w>
church ill</w>
christian ity</w>
christ ensen</w>
chor us</w>
chor tolirion</w>
choco lat
cho w
cho sen</w>
cho ng</w>
cho i</w>
chin ato
chinato wn</w>
chim bor
chimbor az
chimboraz o</w>
chil ds</w>
chi ara</w>
chen ko</w>
che yenne</w>
che ers</w>
chat ter
chann ing</w>
chand ler</w>
chan g</w>
cham plain</w>
cham ber</w>
cha insaw</w>
ch un
ch rome
ch ner</w>
ch im</w>
ch ick</w>
ch ia</w>
ch ens</w>
ch ennai</w>
ch au
ch ast
chast ain</w>
ch ana</w>
ch ag
chag rin</w>
cet i</w>
ces ky</w>
cer nan</w>
cer a</w>
cent aur</w>
cen e</w>
celest e</w>
cel tic</w>
cel da</w>
cec il</w>
ce ylon</w>
cb fc:</w>
caval ry</w>
cau liflower</w>
catal ina</w>
cat erg
cast illo</w>
cast ellan
carol in
carin ae</w>
car uso</w>
car rera</w>
car r
car go</w>
car cinoma</w>
car am
captain s</w>
capit an</w>
capit al?</w>
cap s</w>
cap o</w>
cap ella</w>
canc ri</w>
can sino</w>
can opus</w>
camp us?</w>
camp ing</w>
camer as</w>
cam pos</w>
cam el
calder on</w>
cal eb</w>
cal cutta</w>
cair ns</w>
ca verns</w>
ca useway</w>
ca serta</w>
ca kes</w>
ca gliari</w>
ca ba
caba ret</w>
c/ 2011</w>
c. v.</w>
c um</w>
c sociated</w>
c n</w>
c n
c m</w>
c les</w>
c ig
c es?</w>
c ers</w>
c ello</w>
c d
c co</w>
c ca</w>
c .com</w>
by zantine</w>
buy ers?</w>
busin ess?</w>
buri al?</w>
bur roughs</w>
bun ch</w>
budd hist</w>
bu zz
broo ker</w>
bron ze</w>
bro ugh</w>
bro mine</w>
britann ia</w>
brig gs</w>
brid ge.</w>
bren ner</w>
bre w</w>
bre scia</w>
bre cht</w>
bran gelina</w>
bran agh</w>
bra wl</w>
bra un</w>
bra ised</w>
br u</w>
borad casted?</w>
bor owski</w>
book shop</w>
boo mbox</w>
bol shoi</w>
bo ught</w>
bo th</w>
bo snia</w>
bo ise</w>
bo h
bo ck</w>
bo ck
blü ten</w>
blu ford</w>
blo w</w>
blo m
bli ss</w>
ble u</w>
ble d
ble ch
blan ca</w>
black pool</w>
bl ing</w>
bis cay</w>
bio logy</w>
bin der</w>
bil ity</w>
bic kershaw</w>
bi m</w>
bi har</w>
bhut an</w>
bho la</w>
bever age</w>
berser k</w>
berna be
bernabe u</w>
bern sen</w>
bern hard</w>
beren ices</w>
ber y</w>
ber ries</w>
ber man</w>
beng al
bengal uru</w>
ben zo
ben son</w>
ben efits</w>
ben ch</w>
bel gium</w>
beha vi
bed ford</w>
beau val</w>
bea gle</w>
be wick
be la
be h
be es</w>
bb c.com</w>
bay ern</w>
bau er</w>
battle star</w>
battle field</w>
bat on</w>
bas s
bas al-
basal- cell</w>
barcla ys</w>
barbi ere</w>
bar rett</w>
bar ba
barba dos</w>
bar an</w>
ban ner</w>
ban croft</w>
bam bi</w>
ball ard</w>
bal tic</w>
bah ia</w>
bag el</w>
bad ger</w>
back us</w>
bac o</w>
ba refoot</w>
ba o</w>
b-2 4</w>
b ö
b undchen</w>
b rent</w>
b ors</w>
b ly
b ll
b jörn</w>
b it</w>
b hai</w>
b hag
b fi</w>
b end</w>
b by</w>
b ath</w>
b ard</w>
b :</w>
az iz</w>
ax el</w>
aver age?</w>
ave c</w>
av i</w>
automat ic</w>
aus weglos</w>
aus ch
aur atus</w>
augu stine</w>
augu st
au ts</w>
au do
au burn</w>
atten ded?</w>
ato m</w>
ation s:</w>
athlet e?</w>
ath ena</w>
at ter
at rial</w>
at i</w>
ast érix</w>
ast ro</w>
ast rid</w>
ast raea</w>
ast ed</w>
ast atine</w>
asp halt</w>
asi mov</w>
asi ana</w>
as kelonian</w>
as ghar</w>
as csociated</w>
as corbic</w>
as c</w>
as -
arri ve</w>
arnol fini</w>
armo ry</w>
armen ian</w>
arist oc
arg inine</w>
are putation</w>
are as?</w>
archa ic</w>
arab ia</w>
ar yan</w>
ar shavin</w>
ar my
ar len</w>
ar den</w>
ar cona</w>
ar cade</w>
ar ach
aq aba</w>
appro ach</w>
appli ed</w>
app le
apo kalyptischen</w>
ant u
ant arctic</w>
ant -man</w>
ans el
ans ari</w>
anni bal</w>
ann o</w>
ann ah</w>
anim ator</w>
anim al?</w>
ang st</w>
ang i</w>
andre y</w>
and on</w>
and i</w>
and hra</w>
anak in</w>
ana conda</w>
an u
an onymous</w>
an er</w>
an aly
an :</w>
an /
amo xicillin</w>
amo res</w>
amer idroid</w>
am élie</w>
am it
am ino</w>
am iga</w>
am eter</w>
am bi
am ato</w>
aly as</w>
alvar o</w>
alter native</w>
alli es</w>
alli ant</w>
all red</w>
alger ia</w>
aless andro</w>
alek se
alde baran</w>
alco holic</w>
alb anian</w>
al u</w>
al tman</w>
al o</w>
al mighty</w>
al is</w>
al gol</w>
al fa</w>
al et
al cor</w>
al bu
al ber
al amo</w>
ak utan</w>
ak h</w>
airpor t?</w>
air planes</w>
air ?</w>
ai sh
agu il
agenc y?</w>
ag ne</w>
ag e
ag as
af fairs</w>
af er</w>
advis ory</w>
adverti sement</w>
ado be</w>
admit tance?</w>
admir al's</w>
adapt ation</w>
ad v
ad onis</w>
act in
acqu ah</w>
ach en</w>
acceler ation?</w>
ac ro
ac rimsat</w>
ac k
ac es</w>
ac er</w>
abbre viation?</w>
ab yssinian</w>
ab ang</w>
a. m.</w>
a ’s</w>
a vocado</w>
a more</w>
a ks</w>
a farensis</w>
a eneid</w>
a 7</w>
a 511</w>
a .c.</w>
a -2
a -10</w>
_ greater</w>
_ duplicate_
[ dhpg])</w>
: a</w>
9999 8</w>
97 87
9787 0.7</w>
95 97870.7</w>
95 4
954 27
95427 76
9542776 3
95427763 19999
9542776319999 8</w>
95 1</w>
90 4</w>
9/1 4/19
9/14/19 84</w>
9 )</w>
87 th</w>
8/1/ 2013</w>
8/ 4/19
8/4/19 81</w>
8/ 2017</w>
8/ 2011</w>
8 81</w>
8 61</w>
8 48
848 13
84813 68
8 40</w>
8 3
77 8
77 7-
777- 200
777-200 er</w>
75 3</w>
7/2 4/19
7/24/19 69</w>
7-1 808</w>
7 80
7 55
7 )</w>
64 6</w>
61 -19
61-19 25</w>
6/2 7/19
6/2 1/19
6/21/19 60</w>
6 66</w>
6 000.0</w>
6 )</w>
50 49
5049 1
50491 123
50491123 19999
5049112319999 98</w>
5/ 2013</w>
5 :</w>
5 81</w>
5 77
5 30
5 2
5 1.0</w>
49 .0</w>
459 10</w>
45 3</w>
40 7</w>
40 5</w>
40 1</w>
40 .0</w>
4/1 5/
4/1 2/2014</w>
4/ 9/19
4. 8481368
4 :</w>
4 6
4 .0</w>
39 5</w>
33 c</w>
30 /19
30/19 60</w>
3/31/1 909</w>
3/2 7/19
3/2 3/19
3/ 31/
3/ 2012</w>
3. 2</w>
3- in</w>
3 :</w>
3 30.0</w>
3 20
3 14</w>
29 0
25 00
25 /1
25 .0</w>
2012-0 7
2009 -12
2009-12 -13</w>
2009 -11
2008-11 -23</w>
2008 -10
2000 """</w>
20 1</w>
2/ 9/19
2. 85</w>
2. 6</w>
2 60</w>
2 37
2 30
2 16
2 14</w>
2 12
198 1</w>
197 7</w>
190 4</w>
190 1</w>
19 38</w>
19 29</w>
19 28</w>
19 24</w>
19 12</w>
180 7-1808</w>
18 61-1925</w>
17 57</w>
17 0
17 .0</w>
15 th</w>
15 6</w>
15 5</w>
15 4</w>
14 9597870.7</w>
14 6</w>
12/2 7/2016</w>
12 8
12 7</w>
12 2.0</w>
11/2 2/
11 a511</w>
11 2</w>
11 /29/2001</w>
10. 6</w>
10 95</w>
10 7</w>
10 6.
10 /1/
1/1/200 2</w>
1/1/199 3</w>
1/1/199 0</w>
1/1/198 8</w>
1/1/198 5</w>
1/1/19 71</w>
1/1/19 67</w>
1/1/19 65</w>
1/1/19 63</w>
1/1/19 42</w>
1/1/19 39</w>
1/1/19 22</w>
1/1/19 08</w>
1/1/18 98</w>
1/1/18 50</w>
1/1/1 808</w>
1/1/1 50
1/1/1 453</w>
1/ 2005</w>
1. 65</w>
1 37
1 35</w>
1 20
1 12
060 37
00 6</w>
00 0
0.00 0
0. 5</w>
0 2</w>
0 /19
/199 5</w>
-10 00</w>
- el</w>
- at
- 6</w>
- 20
- -</w>
, 000</w>
(di hydroxypropoxymethyl</w>
(c ns)</w>
(c mv)</w>
(19 22</w>
( voyna</w>
( the</w>
( ru)</w>
( franchise)</w>
( dc</w>
( annual</w>
( 1996</w>
( 199
%2f3000-2 1
%2f3000 -20
%2f goffen
" oil</w>
! :</w>
株 式
株式 会
株式会 社</w>
్ర ప
్రప ్ర
్రప్ర ద
్రప్రద ే
్రప్రదే శ
్రప్రదేశ ్</w>
ధ ్రప్రదేశ్</w>
ఆ ం
ఆం ధ్రప్రదేశ్</w>
р о
о в
н и
н а</w>
е т
е р
ō kai</w>
ü ber</w>
ú s</w>
ô mas</w>
è se</w>
è ne</w>
è me</w>
ç ões</w>
án chez</w>
® :</w>
zz ini
zzini ,</w>
zwe ites</w>
zwe ite</w>
zu ka</w>
zu ela</w>
zu c
zor ro</w>
zo op
zoop arc</w>
zo g</w>
zin fan
zinfan del</w>
zimmer man</w>
zim nyaya</w>
zha o</w>
zer ka
zerka wski</w>
zel ius</w>
zeit geist</w>
ze man</w>
ze j</w>
ze e</w>
zan idine</w>
z ug
z u</w>
z t
z net
z mer</w>
z la
zla f</w>
z l</w>
z in</w>
z il
z hiv
z han</w>
z et
z ers</w>
z ens</w>
z eg
z ed</w>
z az
z at</w>
z ania</w>
z am</w>
z ak</w>
z ag
z ach</w>
yu val</w>
yosh iz
yor k-
york- islanders</w>
yor k,</w>
yor k
yo urs</w>
yo ma</w>
yo ko</w>
yo ga</w>
yo f
yl um</w>
yester day</w>
yel ena</w>
yel chin</w>
year s,</w>
ye v</w>
ye sian</w>
ye on</w>
yan dex</w>
yam una</w>
y ōkai</w>
y û</w>
y ô</w>
y where</w>
y up
yup p
yupp tv</w>
y um
y ster</w>
y r</w>
y lov</w>
y lic</w>
y ip</w>
y f
y et
yet u</w>
y ab
y '
x vii</w>
x press
xpress ,</w>
x per
x li
x iii</w>
x ii</w>
x ia</w>
x ess</w>
x e</w>
x celer
xceler ator</w>
x c
x b-
wynet h</w>
wyn n</w>
www. vari
www.vari et
www.variet y.com</w>
writ ing?</w>
wrec k-
wreck- it</w>
woz niac
wozniac ki</w>
work station</w>
wor rell</w>
wool rich</w>
wool f</w>
wood son</w>
wol l
wol insky</w>
wo men
wo j
wn eck</w>
with-the- k
with-the-k ranks</w>
wit z:</w>
wit ness</w>
wit cher</w>
wit ch
wipe out</w>
wing- shing</w>
win x</w>
win ski</w>
win k
wink ler</w>
win ding</w>
will ard</w>
wilder ness</w>
wild cats</w>
wil lu
willu ps</w>
wil fried</w>
wi z</w>
wi sp
wisp like</w>
wi res</w>
wi red</w>
why da
whyda h</w>
whe els</w>
what 's</w>
wh iz</w>
wh aling</w>
wh ale</w>
west on</w>
wer k</w>
went worth</w>
wel k</w>
wein berg</w>
weg ian</w>
web media</w>
wea ther
wea pon</w>
we t</w>
we iss</w>
we ird</w>
we in</w>
we ill</w>
we iler</w>
we ights</w>
way_ 06
way_06 _
way_06_ no</w>
way ze</w>
water world</w>
watch ed</w>
wat ford</w>
wat ching</w>
wat a</w>
was artist</w>
war s:</w>
war d
wan de
wande rers</w>
wal sh</w>
wal lander</w>
wal la
wal de
walde mar</w>
wait iti</w>
wait ing
waiting ...</w>
wa y?</w>
wa xed</w>
wa sted</w>
wa ker</w>
wa i
wa ffen</w>
w ü
w y</w>
w up
wup per
wupper tal</w>
w underground</w>
w thon</w>
w ster</w>
w re</w>
w rang
w la</w>
w is</w>
w il</w>
w eth</w>
w ear</w>
w b
w ash</w>
w adi</w>
w 4
w4 v
w4v dl
w4vdl w</w>
w -
vul can</w>
vre denburg</w>
vrat il
vratil ova</w>
vol ution</w>
vol o</w>
vol l</w>
vo z</w>
vo x</w>
vo vich</w>
vo o
voo doo</w>
vo m</w>
visit phill
visitphill y.com</w>
vish n
vishn ya</w>
viron ia</w>
vin yl</w>
vin sky</w>
vin sk</w>
vin cial</w>
vin ci
vil lette</w>
vil lanu
villanu eva</w>
vil land</w>
vil lan</w>
vil ion</w>
view point</w>
view ed?</w>
vici us</w>
vi z</w>
vi z
vi v
vi ties</w>
vi sions</w>
vi sh</w>
vi k</w>
vi jay</w>
vi ja
vi g
vig go</w>
vi cky</w>
vi ca</w>
vi al</w>
vey or</w>
versi oned</w>
versi on?</w>
vers us</w>
veriz on-
verizon- wireless</w>
ver spe
verspe kuli
verspekuli ert</w>
ver sail
versail les</w>
ver ni
verni eu</w>
ver ne</w>
ver i</w>
ver he
ver da
venti st</w>
vent ura</w>
vene zuela</w>
vel vet</w>
vel oc
veloc ity?</w>
veget arian</w>
veer app
veerapp an</w>
ve red?</w>
ve itch</w>
ve gan
vegan ism</w>
ve g
vat er</w>
vas ion</w>
vas a</w>
var gas</w>
vander slo
vanderslo ot</w>
van agh</w>
valent ino</w>
val ue
val ier</w>
val et</w>
val entin</w>
va is</w>
v what</w>
v us</w>
v ement</w>
v d</w>
v c</w>
v c-1
v au
v ara</w>
v aqu
v ai
vai mo
vaimo ke</w>
v 6</w>
v -
uz be
uzbe kistan</w>
uy asha</w>
ut tered</w>
ut ic
ut es?</w>
ust ino
ustino v</w>
usi ed
usied l</w>
usam bar
usambar ave
usambarave il
usambaraveil chen</w>
us z</w>
us u</w>
us her</w>
us a-2
usa-2 48</w>
us :</w>
us )</w>
uri ?</w>
urb ino</w>
uranium-2 38</w>
ur ke</w>
ur ga</w>
ur des</w>
upun cture</w>
up silon</w>
up id</w>
up da</w>
unter welt</w>
unt u</w>
unt er</w>
unlea shed</w>
universit yof
univer se
uni v</w>
uni l</w>
under world</w>
under cover</w>
und y</w>
un saturated</w>
un sane</w>
un official</w>
un is
un ingen</w>
un g
un en</w>
un dian</w>
un cut</w>
un cle's</w>
un broken</w>
un be
um pi
umpi res</w>
um n</w>
uli ar
uliar ities</w>
ul tz</w>
ul tr
ul mer</w>
ul m</w>
uk rain
ukrain ian</w>
ugh ton-
ughton- miff
ughton-miff lin-
ughton-mifflin- harcourt</w>
ugh ?</w>
ug a</w>
uer blü
uerblü m
uerblüm chen</w>
ue isha</w>
uch ing</w>
uch en</w>
ub untu</w>
u topia</w>
u ra
u lei</w>
u las</w>
u ive</w>
u gan
u fa</w>
u dad</w>
u da</w>
u cks</w>
u ck
u bo</w>
u ally?</w>
u ada</w>
u .</w>
u .
ty ne</w>
ty .</w>
twist ed</w>
twent y-
tv movie</w>
tur tle
tur ing</w>
tuni um</w>
tul se</w>
tul sa</w>
tul p</w>
tug ela</w>
tu o</w>
tu cker</w>
tt inen</w>
tsub asa</w>
tsch eller</w>
ts dale</w>
ts :</w>
ts -
trum pet</w>
trum bull</w>
tru de</w>
tro w</w>
tro ut</w>
tro op
troop ers</w>
tro ll
trip advisor</w>
trilog y)</w>
trig ono
trigono met
trigonomet rical</w>
tri vial</w>
tri um
tri mmel</w>
tri er</w>
tri al</w>
trath ec
trathec al</w>
transl ations</w>
trans ferred</w>
trans er</w>
tran sist
transist or</w>
trail or</w>
trag ic</w>
trac ys</w>
tra um</w>
tra um
tra ined</w>
tra de?</w>
tra d
tr p</w>
tr in
tr and</w>
tr amp</w>
tox icar
tow ner</w>
tou lo
toulo use</w>
tot ally</w>
torch y</w>
tor ren
tor e</w>
tom s?</w>
tolsto y</w>
tol mach</w>
todes stra
todesstra fe</w>
todes bo
todesbo te</w>
todd ler</w>
to wer
to wards</w>
to th</w>
to shi
to pping</w>
to mas</w>
to lls</w>
to ld</w>
to is</w>
to g
to bi
tobi as</w>
to ba</w>
tle dge</w>
tit o</w>
tis dale</w>
tion s?</w>
tion s:</w>
tig re</w>
tic ino</w>
tiber ium</w>
ti zanidine</w>
ti va</w>
ti re
ti oga</w>
ti mis
timis me</w>
ti j
thro wing</w>
thro ugh?</w>
thr alic
thralic tus</w>
tho way</w>
tho uses</w>
thi k</w>
there um</w>
therap ist</w>
them sle
themsle ves</w>
them ist
themist o</w>
the ws</w>
the o</w>
the k</w>
that 's</w>
thanksgiv ing</w>
than sa</w>
than iel</w>
th yn</w>
th un</w>
th ug</w>
th t</w>
th io
th ill</w>
th i</w>
th at?</w>
th ard</w>
th ai</w>
th -
tex ts</w>
tex -
tetra zzini,</w>
ter rest
terrest rial</w>
ter bury</w>
ter ail
terail er</w>
tenn yson</w>
tenn est</w>
ten se</w>
temp us</w>
telescop es</w>
telep ort</w>
tel sen</w>
tel ford</w>
tel ec
tech systems</w>
teat ro</w>
teaspo ons</w>
teas er</w>
team ’s</w>
tea ch</w>
tea bing</w>
te x</w>
te shi
teshi k</w>
te rence</w>
te o</w>
te kin</w>
te jo</w>
te il
te ide</w>
te h</w>
te ens</w>
tc by</w>
taup o</w>
tart u
tar rant</w>
tar a
tara ji</w>
tan zania</w>
tan ks</w>
tan ker</w>
tam il
tamil nadu</w>
tam ara</w>
tam ar
tal i
take i</w>
tag us</w>
tag ung</w>
table spoon</w>
ta ste</w>
ta sh</w>
ta p
ta o</w>
ta ker</w>
ta kan
ta k</w>
ta ika</w>
ta c</w>
ta ,</w>
t- 33</w>
t ô
t win
t w</w>
t ta</w>
t se</w>
t s?</w>
t ors</w>
t onga</w>
t land</w>
t lag</w>
t kam</w>
t its</w>
t ilda</w>
t ics</w>
t ent
t ational</w>
t as</w>
t ango</w>
t 's</w>
synthe si
synthesi zer</w>
symp toms?</w>
symp hon
symbo l
symbol s?</w>
sy ds
sweet ing</w>
swe eney</w>
swe dish</w>
swe at
sw inton</w>
sw amp</w>
sven or</w>
svan k
svank maj
svankmaj er</w>
sv alb
svalb ard</w>
surre alism</w>
sur veyor</w>
sur round
surround ing</w>
superman /
superman/ batman</w>
super marine</w>
super dome</w>
suo misen</w>
sun light</w>
sun e</w>
sun ap
sunap ee</w>
sum p
sump tion</w>
sum o</w>
sulli van</w>
suit ca
suitca ses</w>
suic id
suicid al</w>
suc ce
substan ces</w>
su stain
sustain able</w>
su resh</w>
su ly
suly ap</w>
su eur</w>
su da</w>
su ckle</w>
su as
suas ion</w>
sty n</w>
stut t
stur z</w>
stuff ed</w>
sts -1
stronti um-90</w>
stro ke</w>
stri kes</w>
stre is
streis and</w>
strateg y</w>
strat ton</w>
stras bourg</w>
stran ds</w>
stra ker</w>
stra ight</w>
str ct
strct ured</w>
str 8
str8 men</w>
stopp t</w>
stopp ing</w>
stone wall</w>
stock ton</w>
sto ops</w>
sto lic</w>
sto ever</w>
stir ling</w>
stic ker</w>
ster ds</w>
step s</w>
sten sson</w>
stell ung</w>
stel vio</w>
stein meier</w>
stein beck</w>
ste ar
ste a</w>
statisit cs</w>
stat s.</w>
stat ed?</w>
star z</w>
star nberg</w>
star fighter</w>
star dust</w>
stanis las</w>
stand ford</w>
stand ards</w>
stand ardi
stan ze</w>
stal ker</w>
stal ke.
stalke. r.</w>
stain less</w>
stad t
stac khouse</w>
stac ey</w>
sta ya</w>
sta ines</w>
sta hl</w>
sta fa</w>
sta dio</w>
st upid</w>
st ronau
stronau t</w>
st rit
strit ch</w>
st rick
strick land</w>
st ren
st p</w>
st ol
st o</w>
st ler</w>
st im
st ig</w>
[...]
