#version: 0.2
? x</w>
s o
l a
m so
mso :
m b
d a</w>
la mb
lamb da</w>
i l
f il
t i
m .
fil m.
e r
? y</w>
a n
o n
a r
o r
r e
i n
mso: film.
t e
a l
i s
ti on
mso:film. film.
c o
l e
e n
i c
a t
s t
r o
s e
u n
c h
c t
a tion
al _
r a
an d</w>
. p
t h
_ d
m e
l o
i t
ation .
e x
e r</w>
o o
y .
is t</w>
s .
m a
ex ist</w>
p e
o n</w>
co m
mso: b
o r</w>
s i
d e
a se
at e</w>
i e
s p
c e
| |</w>
| ||</w>
en t
d u
er .
_d ate</w>
r i
d _
fil m</w>
a m
s _
k .
i g
ti al_
s er
or g
co un
du c
o p
p ro
ar g
s h
re le
rele ase
org an
g ra
release _date</w>
or .
u s
ser ie
th e</w>
in i
v er
a ti
e m
a ct
i z
u t
tial_ release_date</w>
ini tial_release_date</w>
mso:film.film. initial_release_date</w>
so n
coun t</w>
w or
a l</w>
i r
o f
lo c
d i
u re
u r
mso: a
com p
g e
organ iz
or t
i n</w>
p h
a te
v e
n g
o m
st r
mso:b oo
pe op
peop le
sp ort
mso: people
t _
er son
s ti
a c
q u
d .
mso:boo k.
_ of
t r
pro duc
i te
al l
ma x</w>
_ b
ig h
in g
ar t
organiz ation.
loc ation.
arg max</w>
sh i
o un
k e
a u
ure .
c on
v i
ent .
_ f
serie s</w>
n e
mso: m
r it
w ar
.p erson
2 0
_ p
w rit
te n
o l
mso:people .person
u b
gra ph
us ic
o graph
j e
h e
a d
ch em
g a
ct ure.
ati on</w>
.p la
r -
er _
or. film</w>
o f</w>
c i
a g
a n</w>
re ct
.p ro
mso:m usic
in e
mso:music .
mso: sport
shi p
r- mso:film.film.
ar ch
a s
te r</w>
a p
arch ite
b all
_ c
i o
mso: organization.
r an
t v
l e</w>
rect or</w>
in g</w>
m an
f or
b o
mso:people.person .
f ic
l i
au th
te a
ic al_
mso:sport s.
ge ograph
mso: geograph
mso:geograph y.
mso: location.
e v
lo g
so n</w>
en t</w>
ch ar
t .
t a
d is
d ate
a ce
ar ti
tion .
t o
y _
wor k
_d e
ga me
arg m
b u
str on
m o
mso: archite
mso:archite cture.
20 1
e le
e duc
ti ve
m u
er s</w>
_ st
t h</w>
mso:film.film. series</w>
sti c
log y.
mso: tv
argm in</w>
d e</w>
ti on</w>
tion _
e qu
t ra
wor k.
sp ace
f e
la s
stron om
equ al</w>
c e</w>
mso:film. act
te n</w>
f l
m ent
th e
mso:film.act or.film</w>
.pla y
n er</w>
a ir
ship .
ati stic
m ar
war d.
ti ng
str u
is tr
s u
mso: com
mso: me
l is
auth or.
_d i
mso:a ward.
writ ten</w>
mso:book. author.
comp ut
ti t
mso: am
mso:b io
mso:bio logy.
work s_
p i
b e
it y</w>
h o
works_ written</w>
mso:book.author. works_written</w>
w e
c re
/ 1
c u
si g
chem istr
mso: chemistr
mso:chemistr y.
g o
stronom y.
mso:a stronomy.
g u
act or</w>
_st atistic
f oun
er ic
_di rector</w>
ti me
oo k
chem ical_
ti n
c a
ar e
e d
ball .
ct .
s te
g .
r u
ev ent.
. de
mso:film. produc
mso:chemistry. chemical_
j o
serie s.
s t</w>
la n
_ s
_ work.
o w
m ent.
fl igh
d er</w>
comp an
un i
produc er</w>
te am
_b ook
ic _book
o si
c t</w>
t er
oo t
c ra
writ ten
ce .
b at
ma n</w>
mso:book. written
mso:film.film. actor</w>
er. film</w>
tea m.
u s</w>
.pro gra
educ ation.
char act
_of _
mso:book.written _work.
d ic
u m</w>
c v
st .
p er
mso:location. location.
tin g</w>
ag e</w>
or y</w>
t ri
mso:b ase
mso: cv
tion_ compan
m on
space fligh
spacefligh t.
mso: spaceflight.
uni ver
si on
eric an
re la
d o
mso:cv g.
a r</w>
_de sig
c k</w>
igh t</w>
e d</w>
o b
_f oot
u se
s ub
mso:com ic_book
cra f
erican _foot
mso:am erican_foot
l l
date _of
la ng
_c las
e l</w>
mso:tv .progra
m e</w>
l u
f er
v is
mso:tv.progra m.
g en
time .
in e</w>
ver n
al bu
team _
ine .
bat ting
lang u
a b
se a
ing _
20 0
go vern
mso:organization. organization.
batting _statistic
organ is
r ic
t y
d a
rela tion
vi de
de d</w>
k e</w>
arti st.
or _
e s</w>
me mb
c in
ra ting</w>
mso: time.
mso:architecture. stru
air craf
s s</w>
ball .play
vi ation.
mso:a viation.
b er
mso:architecture.stru cture.
com pe
art _director</w>
. c
p re
d re
tea m</w>
v en
di rector</w>
s ch
i m
g e</w>
mso: education.
mso:biology. organis
w a
' s</w>
n o
om o
al l</w>
n ation
mso:chemistry.chemical_ ele
b ri
con ten
mso:comic_book s.
h a
s y
m oun
vide o
co ver
e _
m i
f oo
tr an
n i
cre at
st _
_desig ner</w>
sub je
cin em
b ut
ub lis
mso:film. series.
l ic
aircraf t_
ed it
. re
mso:film.series. film</w>
k ing</w>
1 9
w in
te d_
mso:chemistry.chemical_ele ment.
e .
c er
ri v
ob je
de l
ut omo
utomo tive
a _
mso:film.produc er.film</w>
s k
la r
l on
e l
mso:music. artist.
j a
cinem at
d s</w>
c ar
tive _
t o</w>
se .
st u
mso:me dic
m in
cinemat ograph
c ke
cinematograph er</w>
conten t_
.p ar
tion al_
mso:base ball.
u al_
sport s_
dis tri
ta in
foo d.
r e</w>
p ic
at h
ar k
al .
s .pro
organiz ation
n u
s a
ur e</w>
univer se.
m er
h ar
g re
comput er_
mso:film. distri
is a</w>
fic tional_
on e</w>
v e</w>
subje ct</w>
mso: fictional_
mso:fictional_ universe.
w at
content_ rating</w>
mso:film.distri but
mso:film.distribut or.film</w>
f ro
comp osi
mso:medic ine.
mso:sports. team.
mso:cvg. computer_
pro gra
art .
c k
shi p</w>
video game
mso:cvg.computer_ videogame
.pla ce
obje ct.
ex e
comput er.
ig n
mso:film.film. director</w>
exe cu
charact er.
d_ p
ir th</w>
1 /1
ver e
mso:time. event.
so c
l in
_b irth</w>
p er</w>
op er
ce ase
p la
mso:film.film. subject</w>
coun tr
at s.
a t</w>
us ine
w il
in ter
sea son</w>
le ng
un d
i a</w>
p ar
mso:b o
t y</w>
so vere
mso:baseball. batting_statistic
are a</w>
ap pe
langu age</w>
sovere ign
mso:location. sovereign
mso:baseball.batting_statistic s.
i s</w>
execu tive_
jo h
executive_ producer</w>
le ad
a ch
c h</w>
y m
mso:film.film. art_director</w>
edit or</w>
mso: govern
vis ual_
er ship.
si fic
en g
p o
mso:music. composi
mso:film.film. producer</w>
ch il
ar d_
relation ship.
st ory</w>
st ar
v ic
e pi
char ac
at h</w>
t ro
mso:film.film. content_rating</w>
charac ter</w>
mso: soc
usine s
p e</w>
dis cover
m ic
mso:people .de
mso:people.de cease
mso:people.decease d_p
mso:people.deceased_p erson
epi so
st er
s e</w>
c or
mu se
y _of_
mso:bo ats.
w ri
b ro
mso: food.
le s
auth or</w>
ard_ memb
visual_ art.
mso: visual_art.
m is
201 7</w>
mo del
le s</w>
ver sion
.p er
t on</w>
bri d
m _
si c</w>
nu mb
l d</w>
mso:american_foot ball.play
mso:music.composi tion.
or ig
ol ym
albu m</w>
y. film</w>
tion_compan y.film</w>
mso:film.produc tion_company.film</w>
u e</w>
mso:aviation. aircraft_
loc ation</w>
d y</w>
ublis h
me t
a ge
. in
ti me</w>
ran king</w>
co stu
.par ent</w>
ro cke
l y
ar an
costu me
mso:sports. sports_
costume _designer</w>
n a
e st
wri ter</w>
tion_compan y</w>
produc tion_company</w>
i al_
sti ng
mso:people.person .parent</w>
m ent</w>
d ru
f ir
mso:award. ran
b y</w>
r on
mso: computer.
g ro
.p ublish
qu el</w>
b re
so und
mso:film.film. writer</w>
g i
creat or.
v ie
for man
sound tra
igh t_
y e
ub lic
ne t
mso:geography. la
mso:comic_books. creator.
ent _
mso:geography. moun
mso:comic_books.creator. series</w>
mso:aviation.aircraft_ model
of fic
ke d_
sch oo
mso:award.ran ked_
a war
at er
.p re
space _
mso:biology.organis m.
l a</w>
mu sic</w>
arti st</w>
an im
ite m.
chil dre
te d</w>
mso:award.ranked_ item.
mso:award.ranked_item. ranking</w>
ment _p
r un
t u
mso:music.artist. album</w>
w i
mso:am use
ment_p ark
d er
e n</w>
so f
d en
ca sting
mso:amuse ment_park
compe ti
game _
_f ir
childre n</w>
y o
leng th</w>
e di
bo d
mso:b usines
b i
casting _director</w>
u s_
mso:film.film. character</w>
r y</w>
t s</w>
s s
r is
_clas s.
la w
il it
er. organization
j u
co ach
bo ard_memb
l it
in _
he ight</w>
foun der</w>
am pi
tv _
t a</w>
lan d</w>
je ct
si on</w>
mso:american_foot ball.
m at
he d</w>
f lo
_de ath</w>
tion s</w>
t or
me s</w>
fro m</w>
mso:busines s.
h on
_s pe
n om
co l
m s</w>
serie s_
mso:sports.sports_ team_
mso:organization.organization. founder</w>
en tit
olym pic
mso:geography.moun tain
les tial_
gu lar
ce lestial_
.place _of
.p osi
mso:film.film. cinematographer</w>
. a
c las
appe aran
mso:tv .
re n
foun ded</w>
lo r</w>
ing _statistic
c y
a .
b r
u p
mso:sport s.pro
mso:geography.la ke
mso: ra
f o
ch ampi
st art
ci p
z oo
ie s</w>
foun d
fer en
start _date</w>
mso:geography. riv
it h</w>
f in
countr y</w>
_f oun
a d</w>
1 0
_ ma
mso:spaceflight. rocke
c en
/1 9
le ag
em p
mso:people.person. children</w>
tran sport
mso:a utomotive
ve lo
g ar
_foun ded</w>
soundtra ck</w>
mso:astronomy. celestial_
mso:astronomy.celestial_ object.
comp oun
mon .
f i
ment _
man u
m en
an d
mso:chemistry.chemical_ compoun
v al</w>
con feren
ty pe</w>
u e
met ers</w>
mso:music. albu
mso:music.albu m.
l l</w>
h er
mso:geography.riv er.
m y</w>
nation al</w>
mso:chemistry.chemical_compoun d.
l ig
educ ation
f ran
transport ation.
mso:com mer
t re
gen re</w>
s pe
ri de
n e</w>
ten ure.
pe .
co de</w>
u r</w>
la ke</w>
in sti
education al_
ate g
mso: transportation.
orig in</w>
o t
n am
sof t
mso: law
compe tit
the _
su m
mso:film.film. music</w>
mso:amusement_park s.
so ci
te .
pro du
fe s
ath le
date_of _birth</w>
soft war
stru ct
a m</w>
mso:fictional_universe. character.
an _
_clas sific
i d</w>
mso:organization. board_memb
f act
a de
so r
i on</w>
d o</w>
c an
v ent
mso:commer ce.
m _classific
velo per</w>
game_ version
ti c
ow n
ing .
ilit ar
co lor</w>
the ater
bod y_of_
mso: theater
l y</w>
or s</w>
h u
for ma
mso:location.sovereign .
mso:cvg. game_version
manu fact
s_ founded</w>
me _
ate d_
a f
.de veloper</w>
son g</w>
mso:time.event. start_date</w>
s ur
it e</w>
al i
mso:organization. found
mso:organization.found er.organization
mso:organization.founder.organization s_founded</w>
episo de
.re gular
a ut
forma t</w>
fer re
mso:m ilitar
emp lo
muse u
mso:sports.pro _
mso:amusement_parks. ride
f re
ar y_
s ter</w>
mso:book.written_work. author</w>
st _p
he ight_
ele ct
arti cip
mso:geography.mountain .
le r</w>
in t</w>
vie w
at or</w>
l la
or o
b ar
mso:aviation.aircraft_model .
c ap
date_of _fir
nom in
mso:location.location. area</w>
mso:base ball.play
mso:baseball.play er.
di a_
fe sti
x i
t e</w>
or e</w>
b it
g h
. 0</w>
s ity</w>
_p o
ship _
p p
mso:automotive .a
mso:automotive.a utomotive
me r</w>
insti tu
b oo
mso: re
langu age
h y
mso:biology.organis m_classific
s co
mso:automotive.automotive _class.
mso: event.
di rect
d on
champi on
a s</w>
to t
wor ld</w>
joh n</w>
th o
body_of_ wat
ar t</w>
st er.
_s y
mso:me dia_
mso:media_ com
c ted_
c k.
en d
mso:sports.sports_team_ ro
_p articip
mso:biology.organism_classific ation.
as t</w>
mso:govern ment.
b a
mso:tv .regular
mso:film.film. executive_producer</w>
th _
ser vic
mso:education. education.
emplo y
b il
tran s
mso:geography. body_of_wat
mso:geography.body_of_wat er.
mso:astronomy. a
b ur
te s</w>
m usic
entit y.
- 1
mso:visual_art. art
mso:american_football.play er
date _
at ure
ge .
educational_ institu
ation _
or t</w>
offic ial_
mso:baseball.player. batting_statistic
mso:baseball.player.batting_statistic s</w>
_sy ste
lo u
_ tv_
mso:tv.regular _tv_
mso:tv.regular_tv_ appearan
mso:film. direct
mso:film.direct or.film</w>
lit er
.pre ferre
o l</w>
si d
us e</w>
or i
al e</w>
as s
oper a.
mso:media_com mon.
mso:boats. ship.
ste lla
mso:film.film. se
anim al.
g ol
date _founded</w>
wor k</w>
w h
t on
ting s.
mso:soc cer
mso:soccer .play
mso:ra tings.
f or</w>
an t</w>
.preferre d_
or bit
op en
ac ade
r .</w>
f ac
mso:people.person. date_of_birth</w>
mso:medicine. dru
_d is
ublic ation</w>
se r</w>
mso:theater .pla
mso:theater.pla y.
it y_
tit le</w>
time _
mso:sports.pro_ athle
i c</w>
c ti
r-mso:film.film. editor</w>
r-mso:film.film. cinematographer</w>
con stella
brid ge</w>
mso:visual_art.art work.
elect ron
a k
b la
ne d</w>
lead ership.
_b u
r-mso:film.film. executive_producer</w>
l o</w>
competit or_
mso:soc c
mso:socc er.
ke y</w>
mso:spaceflight. space_
mso:astronomy. star
ja mes</w>
v o
r-mso:film.film. costume_designer</w>
mar tial_
le y</w>
i i</w>
date_of_fir st_p
te oro
teoro logy.
mso:me teorology.
orbit al_
net work
un it
un ch
numb er</w>
de n</w>
c ur
.publish er</w>
.per son</w>
it al</w>
y le</w>
r-mso:film.film. production_company</w>
mso:architecture. archite
mso:architecture.archite ct.
f u
c o</w>
au se
0 0
i m</w>
he l
to m</w>
r-mso:film.film. art_director</w>
mso:militar y.
mso:govern ment
st ar</w>
schoo l
il ity</w>
ci d
wa y</w>
tot al_
sk i
re ci
mso:tv.regular_tv_appearan ce.
per forman
tro p
olympic s.
mso: olympics.
g y</w>
creat or</w>
- _
writ er.film</w>
ty pe.
progra m
museu m.
mso:film. writer.film</w>
m il
al s</w>
mso: pro
i t</w>
mso:film.film. country</w>
i l</w>
riv er</w>
la s</w>
c ateg
_of _death</w>
an ce</w>
to ur
re d</w>
produ ct.
v al
te cted_
tected_ si
qu ot
con cer
c ity</w>
ar t_
struct ure</w>
is lan
fe ature
u p</w>
r-mso:film.film. casting_director</w>
manufact ure
i on
soci al_
r-mso:film.film. format</w>
open ed</w>
mso:people.person. height</w>
c ause
1/1 /19
w al
m a</w>
v ation</w>
s en
mso:architecture.architect. structure</w>
ne w
mso:film.film. editor</w>
g r
di o
coun ty</w>
vis ion</w>
.posi tion</w>
mso:film.film. story</w>
ent s</w>
ar y</w>
_p re
ch ris
r-mso:film.film. story</w>
n a</w>
mso:film.film. soundtrack</w>
i v
ge org
est ab
estab lis
am eric
mso:music. tra
mso:award. hon
mso:award.hon or.
la unch
de l</w>
ar d</w>
wil li
run n
g er
mso:law .in
liter ary_
me d
in a</w>
educ ation</w>
mso:people.deceased_person .preferred_
mso:people.deceased_person.preferred_ cause
mso:people.deceased_person.preferred_cause _of_death</w>
an e</w>
ne w</w>
in c
quot ation</w>
mso:location.sovereign .c
mso:location.sovereign.c all
mso:location.sovereign.call ing_
mso:location.sovereign.calling_ code</w>
_c re
numb er
competitor_ competi
competitor_competi tion_
b all</w>
leag ue</w>
l ine</w>
f ace
bu il
ing_statistic s.
i ma
relation ship</w>
mso:ratings. ra
height_ meters</w>
zoo s.
mso: zoos.
man ag
19 9
social_ network
social_network _
par k</w>
_po int</w>
mso:organization.board_memb ership.
mso:spaceflight.rocke t.
mso:medicine.dru g.
h or
h ol
ch e
sea son
game s.
d ra
p a
n ut
f ie
ad ca
mso:film.film. production_company</w>
m c
an a</w>
organiz ation</w>
mso:film.film. costume_designer</w>
ele vation</w>
sp i
mso:sports.sports_team_ro ster.
t t</w>
mso: loc
g _
v ol
ublis hed</w>
p ublished</w>
official_ language</w>
mso:location.sovereign. official_language</w>
cy c
201 4</w>
pre quel</w>
it y.
da vi
ta in</w>
mso:geography.lake .
mso:film.film. prequel</w>
d_ by</w>
k o
h i
g n
ate r</w>
te x
sy mb
comp o
art s.
mso:transportation. brid
feature d_
charact er
.pro fes
.publish er.
.de sig
we ight</w>
to w
mso:food. reci
ne t.
mso:architecture. museum.
game s</w>
an g
st yle</w>
ev ent
w ith</w>
ac h</w>
employ ment_
d on</w>
ted_ entity.
t le</w>
mso:ratings.ra ted_entity.
er ship</w>
buil d
ce _
ation s</w>
tial_ arts.
tial_arts. martial_
mso:m ar
mso:mar tial_arts.martial_
am il
fir st_
episo de</w>
en c
pla ce
mso:book. edi
ga la
for d</w>
compo ser</w>
mso:film.film.se quel</w>
mso: inter
sh ow
mso:organization. leadership.
end _date</w>
ac k
un ite
th er
p an
mso:people.person. education</w>
mso:film.film. location</w>
an ge
_b o
nut ri
1/1 /
univer sity</w>
p r
mso:film. festi
mso:amusement_parks.ride .
h igh
ber t</w>
schoo l</w>
music al_
mso:computer. softwar
mso:boats. ship
ure s</w>
mso:transportation.brid ge.
f an
mso:film.festi v
mso:book.written_work. date_of_first_p
mso:book.written_work.date_of_first_p ublication</w>
ly ric
k a
establis hed</w>
comp le
f all
s .publisher.
clas sific
joh n
are er_
ma s</w>
lig ion
r y
n er.
_syste m.
_spe ci
z one</w>
ss il
s ic
mso:people.person .profes
mso:people.person.profes sion</w>
mso:inter net.
ke t
fo ssil
con sum
series_ published</w>
s.publisher. com
s.publisher.com ic_book
s.publisher.comic_book _
s.publisher.comic_book_ series_published</w>
mso:comic_book s.publisher.comic_book_series_published</w>
fossil _speci
fossil_speci men
consum er_
type. object.
mso:boo k
mso: type.object.
m p
i r</w>
ut h</w>
ro le</w>
mso:visual_art. art_
k i
_c ap
re ce
min is
f e</w>
z e</w>
sur face
surface _
mso:music.tra ck.
il l
d an
vent or</w>
stronom ical_
s m
mso:education. educational_institu
in ventor</w>
do me
muse um</w>
cyc lon
archite ct</w>
an s</w>
so l
ri s</w>
mso:film.film. casting_director</w>
episode _
mso:computer.softwar e.
b as
ar i
mso:american_football. team.
d _d
s an
mso:people.person. quotation</w>
c ent
acade mic
mso:aviation. air
mso:architecture.structure. architect</w>
ho use
boo k</w>
_cre ator</w>
y _date</w>
mso:sports.team. fac
mso:sports.team.fac ility</w>
mso:music.album. artist</w>
ing_ time</w>
x _
tive _cap
tive_cap ital</w>
l t
si s</w>
program _creator</w>
mso:type.object. key</w>
mso:tv.program. program_creator</w>
mso:film.film. genre</w>
mso:astronomy.star .
mis sion
discover y_date</w>
col le
_f or
we b
oo d</w>
nation al
ject _particip
inter national</w>
di um</w>
date d_
bre ed
am e</w>
mso:time.event. end_date</w>
ol i
mso:music.composition. composer</w>
gala x
.desig ner</w>
minis tra
ad ministra
a sh
st o
st ate</w>
s il
o ut
mso:book. literary_
mso:book.literary_ series.
eng ine.
ac k</w>
mso:people.person. national
flo w</w>
st a
s .</w>
re cor
p ort
mso:cvg.computer_videogame .
y a</w>
pe _
mso:education.educational_institu tion.
lyric ist</w>
d i</w>
d ar
per io
ate ll
al e
mso:film. performan
li br
mso:sports. champion
mso:people.deceased_person .
mso:people.deceased_person. date_of
le _
b ra
a vi
ur ren
number _of_
j or_
georg e</w>
ac e</w>
progra m</w>
produc tions</w>
ne y</w>
in al_
ent er
w ater</w>
mso:law.in ven
lo w
j en
mso:location. dated_
mso:location.dated_ location.
mo v
da y</w>
sti n
s s_
s atell
mu l
tion. inventor</w>
t ur
mso:tv. series_
mso:medicine.drug. dru
mso:law.inven tion.inventor</w>
mso:fictional_universe.character. creator</w>
davi d</w>
di a</w>
( _
v er</w>
trop ical_
dome stic
ve l</w>
nam e</w>
mso:baseball.batting_statistics. season</w>
in s</w>
_p ass
- 2
, _
u g
tropical_ cyclon
tion_ hel
sy n
mso:meteorology. tropical_cyclon
mso:government .posi
mso:government.posi tion_hel
mso:cvg.game_version .developer</w>
m or
c le
0 0</w>
runn ing_time</w>
oo n</w>
mso:tv.program. episode_
mso:tv.program.episode_ running_time</w>
mso:people.person.national ity_
mso:people.person.nationality_ ad
mso:people.person.nationality_ad je
mso:people.person.nationality_adje cti
mso:people.person.nationality_adjecti val</w>
mso:film.film. rating</w>
mso:fictional_universe. character
sid ent</w>
mov em
fil ms</w>
the me_
theme_ song</w>
st atistic
mso:cvg.computer_videogame .developer</w>
c am
tour nam
f er</w>
d ate</w>
c tion
v il
ti es</w>
mso:sports.pro_athle te.
mso:meteorology.tropical_cyclon e.
me l
constella tion</w>
u de</w>
ic e</w>
a d_
to _
ta il
mso:tv.program. theme_song</w>
mso:government.position_hel d.
gro up
g er</w>
st ate
o k
mso:film.performan ce.
k n
ic _
f amil
d s_
y s</w>
time_ zone</w>
mso:architecture. build
l or
ing s</w>
f a
e s
b or
_dis cover
1 1
co ur
symb ol</w>
n y</w>
n or
mso:re ligion
ing re
competi tion.
ten n
rece iv
orbital_ relationship.
mso:astronomy. orbital_relationship.
j im</w>
for m</w>
ce d</w>
v an
stron aut
s ci
me n</w>
concer t_
ri al</w>
nomin ation.
mso:sports. team_
mso:spaceflight.rocke t_
la n</w>
e t</w>
win ner</w>
w ar</w>
mso:spaceflight. satell
mso:commerce. consumer_
mso:astronomy.a stronomical_
ye ar</w>
s c
ro adca
mso:b roadca
mic ha
h an
. house
mso:loc al.
mso:astronomy.astronomical_ discover
ingre di
ic e_
wat er
de p
mso:sports. competitor_competition_
mso:sports.competitor_competition_ relationship.
eng ine
e d_
b b
so ur
progra m.
mso:location.location. administra
mso:location.location.administra tive_capital</w>
mso:book.literary_series. author</w>
h ig
forman ce</w>
chris t
s h</w>
mso:organization.organization. date_founded</w>
f ort
mso:time. event
mso:comic_books. series.
i e</w>
character. appe
ve l
mso:medicine.drug.dru g
il o
ho use</w>
ati ve
z o
su per
mso:spaceflight.satell ite
mso:biology. domestic
mso:biology.domestic ated_
mso:biology.domesticated_ animal.
mso:biology.domesticated_animal. breed
mso:biology.domesticated_animal.breed s</w>
med ical_
mso:astronomy.astronomical_discover y.
la st_
est ate
b lu
: _
u l
p au
enter tain
d ge</w>
ag enc
_p er
c tion</w>
ship_ event.
mso:sports.champion ship_event.
mso:re al_
mso:real_ estate
mso:real_estate .house
mso:food. food.
k en
conferen ce
w o
mso:pro ject
mso:project s.pro
g le</w>
e u
produc tion
mso:music.composition. lyricist</w>
w n</w>
pic t
il l</w>
di e</w>
c lou
us ti
mso:location.location. time_zone</w>
mso:film.film. language</w>
ce s
c la
un d</w>
musical_ soundtrack</w>
mso:time.event .person</w>
mso:theater.play. musical_soundtrack</w>
man _
en d</w>
b on
ation_ in
ven ue</w>
unit .
st or
s se
mso:people.person. weight</w>
inc .</w>
h om
mso:geography.river. origin</w>
mso: opera.
edi tion</w>
unite d</w>
mso:film.festiv al.
k a</w>
wa y
is e</w>
g o</w>
conferen ce</w>
1 2
ve d</w>
n at
mso:zoos. zoo
a ma
ve n</w>
use d_
lis t_
micha el</w>
c lu
201 6</w>
sci en
production _designer</w>
mso:film.film. production_designer</w>
manufacture r</w>
f oot
d_ for
_bu rial</w>
tex t</w>
st an
ro ck</w>
mso:opera. opera.
entertain ment</w>
su s</w>
spe ci
r a</w>
mso:sports.team. color</w>
mat ch
j on
_ season</w>
_ )</w>
ta ine
sp ace</w>
s am
p en
o s</w>
mso:award. competition.
m on</w>
j un
famil y</w>
di vision</w>
mso:soccer.play er_
mso:commerce.consumer_ product.
ma g
en er
bil l</w>
americ an</w>
_ma jor_
tion _f
mso:internet. social_network_
mso:architecture.structure. style</w>
le e</w>
io us_
ing_statistic s</w>
cre ative
c al
own er.
mso:baseball.batting_statistics. team</w>
ir e</w>
i an</w>
ev ent_
e t
b ru
_ type</w>
u t</w>
th re
mso:sports.pro_athlete. team</w>
lon g_
yo u</w>
y or
team s_
t as
sh a
servic e</w>
mso:spaceflight.satellite .
leag ue
fes sion
ent_ aircraft_
d ers</w>
cid ent_aircraft_
avi ation_in
aviation_in cident_aircraft_
201 8</w>
v ir
p ort</w>
long_ list_
lo ve</w>
ele ment
willi am</w>
wh ite</w>
ro bert</w>
mso:computer. computer.
lig ious_
we l
t om
ow ned</w>
mso:visual_art.artwork. artist</w>
as ure
ow ner</w>
mso:people.deceased_person.date_of _death</w>
mso:book.edi tion.
m it
li fe</w>
k ing
gro up</w>
edit or
categ or
pict ures</w>
on _
i so
he ad
d ro
us er.
mul ti
mso:internet.social_network_ user.
mso:biology. animal.
f f
m ur
language .
l in</w>
fi f
b ran
as ket
as e</w>
3 5
. _
tre at
ster o
ro y
pp lic
pplic ation.
mso:people .
mso:geography. water
mso:chemistry.chemical_element. symbol</w>
mso:chemistry.chemical_element. discovery_date</w>
mso:architecture.build ing.
mso:a pplication.
mso: games.
le t</w>
is t
igh t
har d</w>
argm ore</w>
ap p
ac tion.
v ity</w>
v in</w>
moun t</w>
leng th_
h al
f r
w on</w>
sm ith</w>
m arti
k i</w>
ho st
fie ld</w>
comput er
_of f
softwar e_
mar k</w>
f ar
anim al_
. space_
ra di
john son</w>
electron ic
tro du
trodu ced</w>
se x
o ver
mso:people.deceased_person .place_of
mso:b asket
mso:basket ball.
li c</w>
l d_
j i</w>
d r.</w>
awar ds</w>
xi mu
sh o
n ic
m y
er_ classific
d am
.place_of _p
p it
mso:law .
mso:american_football.player .position</w>
jo b
govern ing
electronic s_
teams_ owned</w>
stero i
ro man
owner. teams_owned</w>
mso:sports.team_ owner.teams_owned</w>
le n
co ach</w>
. .
n ing</w>
mso:architecture.building. flo
k s</w>
il i
g ran
e y</w>
ce s</w>
19 7
. ra
s us
m o</w>
is h</w>
h it
foot ball</w>
be l
mso:real_estate.house .
mso:commerce. electronics_
mso:architecture.museum. established</w>
le g
gar y</w>
g oo
g ers</w>
co p
ck _
categ ory</w>
p ri
p l
on y</w>
mso:spaceflight.rocket_ engine.
mso:boats.ship _class.
mso:biology.organism. height_meters</w>
ener gy</w>
d_ in_
ac cid
tic _
tail s</w>
s :</w>
place _of
place_of _birth</w>
mso:biology.organism. place_of_birth</w>
medical_ treat
le n</w>
k u
e ase
d r
cu p</w>
clu b</w>
an o</w>
200 0</w>
.c urren
tected_si te
surface_ area</w>
p _
of _
mso:music. release
d own
an .
wi d
vide o</w>
th is
servic e.
qu art
pe ter</w>
p or
mso:tv.regular_tv_appearance. actor</w>
mso:military. service.
mso:chemistry.chemical_element. electron
l ine
l ight</w>
in di
c ru
_of _f
/ 2
so r</w>
pau l</w>
mso:media_common. creative
mso:media_common.creative _work.
mso:cvg.computer_videogame. release_date</w>
mso:architecture.structure. fir
mso:architecture.structure.fir m</w>
ma ximu
li e</w>
j usti
il ing
editor ial_
an ima
1 7
.place_of _birth</w>
v a</w>
tow er</w>
nation al_
mso:martial_arts.martial_ artist.
j er
iling _point</w>
g a</w>
der n</w>
d in
comple ted</w>
coach ed</w>
bo iling_point</w>
a k</w>
view _de
view_de tails</w>
mso:sports.sports_team_ coach
mso:ratings.rated_entity. view_details</w>
mso:games. game
mso:astronomy.celestial_object. me
mso:american_football.play er_
ment al_
i um</w>
ga n</w>
ct _
_c ateg
syn op
st ra
si de</w>
h er</w>
201 5</w>
synop sis</w>
sp on
sco t</w>
mso:cvg.game_version .publisher</w>
k in
h ur
d y
cen ter</w>
bla ck</w>
b ir
awar ds_
a d.
_for m.
.pro duc
war d</w>
software_ version
mso:geography.lake .in
mso:geography.lake.in flow</w>
mso:commerce.electronics_ product.
mso:award. win
mso:application. software_version
k er</w>
ie l</w>
he ad_
govern mental_
1 8
tr ilo
team_ manag
mso:zoos.zoo .
mso:film. charact
mso:film.charact er.film</w>
mso: conference
mso:conference s.
memb er</w>
me d</w>
le .
h en
er formance</w>
c lo
_bu il
.curren t_
tre at</w>
tion_f act
s an</w>
qu e
mso:me asure
mso:measure ment_
launch ed</w>
j ur
ing ton</w>
g ame</w>
c ast</w>
air port</w>
a stronaut
1/1 /1
.play er_
ten ure</w>
t t
sex ual_
se a</w>
mso:organization. organization
mso:geography. islan
mso:cvg.computer_videogame .designer</w>
mso:biology. fossil_specimen
mso:biology.fossil_specimen .
mso:aviation.air lin
ma j
k ar
jen ni
f at
cap tain</w>
b ase
.per io
.p o
up tion</w>
re p
quart ers</w>
mso:geography.mountain. last_
mso:geography.mountain.last_ er
mso:geography.mountain.last_er uption</w>
mso:cvg.computer_videogame .publisher</w>
mi d
ma x
head quarters</w>
for m
festi val</w>
f t</w>
con taine
_b e
_ are
ut e</w>
used_ to_
used_to_ treat</w>
tenn is
te ch
s at
release d</w>
pr in
mso:medicine. medical_treat
mso:medicine.medical_treat ment.
mso:medicine.medical_treatment. used_to_treat</w>
mso:film.festival. location</w>
mso:computer.software. first_
mso:computer.software.first_ released</w>
mso:award. categor
mso:award.categor y.
lead ership</w>
ge n</w>
ch an
ce p
v y</w>
v an</w>
the at
re _
mso:visual_art.art_ series.
mso:sports.pro_athle te
mso:business. employment_
mso:business.employment_ tenure.
mso:award.competition. winner</w>
b an
y ar
ting _point</w>
ski ing.
sk y
ro w
p h</w>
mso: skiing.
mel ting_point</w>
in o</w>
ha m</w>
ed_ k
b l
b en
4 0
wid th</w>
war s</w>
usines s_
trilo gy</w>
season _
s un
r and</w>
p as
o c
multi _
multi_ event_
multi_event_ tournam
mso:fictional_universe.character .place_of_birth</w>
mso:com mon.
mso:award. long_list_
mso:award.long_list_ nomination.
le ss</w>
istr ic
d man</w>
_desig ned</w>
_d istric
_ time</w>
19 8
.pro ces
u ra
st on</w>
r d
mso:music.artist. ac
mar ri
dis ease
d ri
b usiness_
w on
state s</w>
sp ort</w>
se t_
n o</w>
n ight</w>
mso:spaceflight.space_ mission
mso:people.deceased_person.place_of _burial</w>
mso:geography.islan d.
mso:aviation.airlin er_
mso:aviation.airliner_ accid
mso:astronomy. constella
mso:astronomy.constella tion.
mo del</w>
c all</w>
ber g</w>
awar d</w>
art y</w>
1 5
vic e
s a</w>
orig inal_
mso:soccer.play er.
mso:religion .re
mso:food.food. energy</w>
mso:aviation.airliner_accid ent.
mso: tennis
i o</w>
ap ol
ad dre
_b rand</w>
z e
w ood</w>
ublic ation
ub lic</w>
tra vel
th er</w>
team_ head_
team_head_ coached</w>
mso:medicine. disease
mso:american_football. coach
mso:american_football.coach .current_
mso:american_football.coach.current_ team_head_coached</w>
lon g</w>
ge o
g ir
e sti
c y</w>
c at
_clas s</w>
1/1/ 200
way ne</w>
u m
t an
st re
ski _are
pre sid
mso:sports.sports_team_coach _
mso:skiing. ski_are
mso:pro tected_site
mso:conferences. academic
mso:conferences.academic _
mso:broadca st.
mso:architecture.building.flo ors</w>
mso: language.
jenni fer</w>
ho cke
gi on</w>
_c ast</w>
x x</w>
sp ap
new spap
n ort
gen er
de s</w>
ct or</w>
b ook
b e</w>
at om
us s</w>
ja son</w>
fro m
ama z
.p oli
ta b
stru ction
ro n</w>
ric hard</w>
mso:geography.water fall
mso:geography.waterfall .
mso:american_football.play er.
match _particip
ma te
hu man_
host _c
galax y</w>
from _date</w>
el _
3 0
v ac
ub e</w>
ti c</w>
ship .person</w>
p at
mso:transportation. ro
mar y</w>
islan ds</w>
eu ro
be l</w>
al d</w>
1 0</w>
u tes</w>
sk i</w>
oper ati
n y
mso:religion.re ligious_
i den
hig h</w>
charact ers</w>
_s ite</w>
_pre sident</w>
ol d</w>
mso:projects.pro ject_particip
las t</w>
k g</w>
d .</w>
clas s</w>
201 3</w>
201 2</w>
t al
s ,</w>
multi_event_tournam ent.
mso:tv. character.appe
mso:tv.character.appe are
mso:tv.character.appeare d_in_
mso:tv.character.appeared_in_ tv_
mso:sports. multi_event_tournament.
gr and</w>
element _discover
b ab
_spe ed_k
w ic
pre ss</w>
mso:transportation.ro ad.
mso:olympics. games.
k _
f _
ase ball
am s</w>
al ex
a ver
_bo ard_memb
_b aseball
y oun
vice _president</w>
presid ent.
organization _
o k</w>
nom ine
mso:sports.pro_athlete .c
mso:sports.pro_athlete.c areer_
mso:soccer. team_manag
league _baseball
jur is
is su
er.organization _board_memb
employment_ tenure</w>
di a
champi on</w>
ch o
an dre
_d ate
4 2
yor k</w>
ye ar
yar d_d
yard_d ash
yard_dash _time</w>
y_ yard_dash_time</w>
tho mas</w>
sum mer</w>
se d</w>
mso:tv.program. air
mso:tv.program.air _date
mso:language. human_
mso:education.education. educational_institu
mso:education. school
mso:american_football.team. conference</w>
mso:american_football.player. fort
mso:american_football.player.fort y_yard_dash_time</w>
league_baseball _season</w>
juris dic
hur ric
gre at</w>
ev ent</w>
bru ce</w>
all y</w>
_major_ league_baseball_season</w>
us_ vice_president</w>
us_ president.
us_president. us_vice_president</w>
u la
pla y
pe_ ingredi
mso:government. us_president.us_vice_president</w>
ran k</w>
p ol
operati ng
mso:application.software_version .
min utes</w>
k ir
at a</w>
ac qu
_pass ing_statistics.
univer s
s ing
original_ language</w>
mso:tv.character.appeared_in_tv_ program</w>
mso:sports.championship_event. champion</w>
mso:location.dated_location. date_founded</w>
mso:food. nutri
mso:book.written_work. original_language</w>
manufact ur
ma ss</w>
ju man
jo se
j ack
h un
d ow
d ie
a h</w>
_categ ory</w>
.. .</w>
si um</w>
newspap er.
mu la</w>
mso:tv.series_ season
mso:location.location. containe
mso:location.location.containe d_by</w>
mso:comic_books.series. featured_
mso:comic_books.series.featured_ characters</w>
mso:book.written_work. synopsis</w>
mso:astronomy.astronomical_discovery. discover
gre e</w>
fran co</w>
f f</w>
e g
co m</w>
b lin
y_of_ origin</w>
wil l</w>
w ol
re venue</w>
mso:martial_arts.martial_ art.
mso:architecture.museum. director</w>
mso: travel
li m
length_ over
in c</w>
for mula</w>
fin al</w>
countr y_of_origin</w>
compan y</w>
an d_
_spe ed</w>
we ll
t w
s al
ru sh
on g</w>
o m</w>
a st
sy l
receiv ing_statistics.
mso:people.person. sexual_
mso:music.album. release_date</w>
marri age</w>
_ -_
trans it
ti fic
te l</w>
sp in
s la
p u
ner. awards_
ner.awards_ won</w>
mso:skiing.ski_are a.
mso:award.win ner.awards_won</w>
m m</w>
fil m
conferen ce.
ar me
ali ties</w>
thre e</w>
mso:organization.leadership. organization</w>
mso:government .poli
lit tle</w>
is land</w>
de ath</w>
c a</w>
tected_si te.
s.pro tected_site.
ol dman</w>
mso:protected_site s.protected_site.
mso:organization.organization. headquarters</w>
mso:aviation. aviation_incident_aircraft_
maj or</w>
l s</w>
ill er
hom e</w>
fat alities</w>
ch a
blu e</w>
t s
se n</w>
mso:sports.sports_team_roster. team</w>
mso:people.person. business_
mso:people.person.business_ employment_tenure</w>
mso:book. boo
mso:book.boo k.
m ir
log y</w>
jo ur
f al
c as
bro wn</w>
arme d_for
201 0</w>
x xx</w>
v a
libr ar
gol den</w>
g ri
first_ as
d an</w>
bi g</w>
b al
wa sh
tor o</w>
olym pi
mso:architecture.structure. height_meters</w>
k he
d un
_d ue
.play er</w>
youn g</w>
st .</w>
s _designed</w>
mso:spaceflight.space_ program.
mso:basketball. coach
mso:basketball.coach .
m un
governmental_ jurisdic
fin an
dio _
concert_ set_
_due _date</w>
we st</w>
vie w</w>
ven tion_fact
tri bu
theat re</w>
subje ct.
ss_ revenue</w>
ri gh
r us
qu e</w>
mso:film.film. gro
mso:film.film.gro ss_revenue</w>
mso:biology.organism_classification. fossil_specimen
mso:biology.organism_classification.fossil_specimen s</w>
ice_ hocke
h am
gu iller
date_ completed</w>
christ mas</w>
ac i
_of fic
.pro ject_particip
.play er.
sports_ pla
sports_pla ye
perio d_
ol it
offic e_
mso:people.person.sexual_ relationship</w>
mso:geography.mountain. elevation</w>
mso:education. academic
mso:education.academic .
mso:comic_books. character.
marti n</w>
l ie
i la
gu e
er_classific ation</w>
at ure</w>
y. team.
v ar
tra ct</w>
time_ minutes</w>
sy ste
mso:education.education.educational_institu tion</w>
mso: ice_hocke
mso:ice_hocke y.team.
for mer</w>
do ug
d or
ch ic
ac ity</w>
_distric t.
w _
ro b
ric k</w>
mso:chemistry.chemical_compound. formula</w>
mso:basketball.coach. team</w>
mso:astronomy.orbital_relationship. orbital_
ic al</w>
h in
ge t</w>
computer .proces
ch l
americ a</w>
201 1</w>
ro ster</w>
ran ge</w>
ni co
mso:media_common.creative_work. content_rating</w>
mso:aviation.aviation_incident_aircraft_ relationship.
mso:american_football. game
ll c</w>
la r</w>
fession al_
char les</w>
ch ris</w>
cen sus</w>
ar e</w>
.re gion</w>
vol u
spin _off
sol ved</w>
so lu
si r</w>
s .par
run ner</w>
period_ movem
period_movem ent.
p ra
or_ movem
mso:visual_art.art_ period_movement.
mso:boats.ship. ship
memb er
justi ce</w>
is la
e_ number</w>
c ri
bod y_
bi t</w>
ater n
/ 200
z u
wor ld_
trop olit
statistic s.
s qu
mso:people.person. marriage</w>
mso:organization.organization .place
mso:organization.organization.place _founded</w>
mso:local. entity.
ic a</w>
i b
fr atern
date_ established</w>
awar d_
am a</w>
_p as
ti m</w>
t op
st all
s o</w>
mso:location.dated_location. date
mso:location.dated_location.date _dis
mso:location.dated_location.date_dis solved</w>
mso:comic_books.character. creator</w>
mis sion</w>
ke n</w>
k an
g h</w>
for med</w>
colle ge</w>
_per io
we ight_
tic al_
t v</w>
su l
sco tt</w>
roman tic_
mso:tv.series_ episode
mso:sports.sports_team_ro ster
me m
fligh t_
fl u
d ol
co n</w>
ap pro
ad vi
ad ap
sus _district.
sti c</w>
soundtra ck.
soundtrack. film</w>
s si
r o</w>
mso:music. soundtrack.film</w>
mso:location. cen
mso:location.cen sus_district.
mso:geography.mountain _pas
mso:amusement_park s.par
mi ke</w>
ll a</w>
l y_
is h
i de</w>
guiller mo</w>
a ster.
zo o</w>
vil le</w>
ve s</w>
tion s_
ster _p
si ze</w>
s )</w>
ric e</w>
mso:sports.sports_team_coach_ tenure.
mso:chemistry.chemical_element. atom
le on
ic s</w>
fligh t</w>
c ir
at lan
_desig ner.
team_ owner</w>
team. team_owner</w>
sports_ team.team_owner</w>
re gular
r ing_
ori de</w>
mso:tennis .player.
mso:sports.pro fessional_
mso:sports.professional_ sports_team.team_owner</w>
mso:sports.multi_event_tournament. competitor_competition_
mso:sports.multi_event_tournament.competitor_competition_ relationship</w>
mso:food.reci pe
mso:book. editorial_
mso:book.editorial_ tenure.
lis t.
le vel</w>
hurric ane</w>
e k</w>
de gree</w>
art work</w>
ag ent.
vi o
ste ph
s ac
ru g
p s
olympic s</w>
ni a</w>
mso:organization.organization. leadership</w>
mso:meteorology. clou
mso:meteorology.clou d.
mso:geography.mountain_pas s.
mso:education.educational_institution. school
mso:book .perio
ly n
k o</w>
in_ series</w>
i als</w>
c ro
bro ad
addre ss</w>
8 0
weight_ kg</w>
w he
v o</w>
sp an</w>
ra y</w>
net work</w>
mso:government. governmental_jurisdic
mso:government.governmental_jurisdic tion.
mso:education.education. educational_
mso:education.education.educational_ degree</w>
mso:biology.organism. weight_kg</w>
mso:architecture.structure. opened</w>
mso:american_football.player_ receiving_statistics.
mso:american_football.player _passing_statistics.
m m
lo o
li ve</w>
k y
doug las</w>
_syste m</w>
_ n
xi mate
ximate ly</w>
ti n</w>
te mp
t _designer</w>
surface_ elevation</w>
speci al
sol ub
sk y</w>
s ar
ro se</w>
on e
mso:measurement_ unit.
mso:geography.lake. surface_elevation</w>
mso:geography.body_of_water. surface_area</w>
mso:food.reci pe.
mso:film.film.se t_designer</w>
mso:conferences.academic_ conference.
mso:american_football.team. division</w>
mso: finan
mso:finan ce.
el l</w>
appro ximately</w>
al ph
aircraf t</w>
advi sor
9 9
us a</w>
tech no
ste d</w>
re g
mso:sports.sports_team_roster .position</w>
mso:people. romantic_
mso:organization.board_memb er.organization_board_memb
mso:organization.board_member.organization_board_memb ership</w>
mso:government.governmental_jurisdiction. governing
mso:government.governmental_jurisdiction.governing _offic
mso:government.governmental_jurisdiction.governing_offic ials</w>
mso:geography.river. mo
mso:education.educational_institution. color</w>
mso:architecture.structure. con
moun tain</w>
ke s</w>
jun gle</w>
cu s</w>
ate d</w>
as soci
anima l</w>
a y
4 0</w>
.per former</w>
% 2
w a</w>
val ue</w>
radi us</w>
pas s</w>
op ula
mso:tv.program. regular
mso:biology.organism. date_of_birth</w>
lo w</w>
libr ary</w>
la dy</w>
l igh
l _
kn own
jon es</w>
it ude</w>
gre ate
g la
fall s</w>
er_ of</w>
art s</w>
an ne</w>
agenc y</w>
ti v
th or</w>
syl ve
sh e
pe _of_
p ark
mso:language.human_ language
mso:language.human_language .region</w>
mso:amusement_parks.par k.
launch _site</w>
juman ji</w>
i a
hy dro
gn itude</w>
cam er
an ni
ac id</w>
%2 f
ster_p osi
so u
ro ster_posi
ro r</w>
p s</w>
mso:medicine. manufacture
mso:geography.lake .c
mso:amusement_parks.ride .designer</w>
mat t</w>
leg isla
fif a</w>
fan tas
bo x
acade my</w>
.pla t
total_ length</w>
t te</w>
stall one</w>
sour i</w>
ro ll
re cur
r ate</w>
mso:transportation.bridge. total_length</w>
mso:ra dio
mso:government.position_held. office_
mso:film.film. format</w>
mis souri</w>
lo s</w>
l er
gu ar
gre en</w>
fin al_
cru ise</w>
craf t</w>
chl oride</w>
at o
an t_
ali for
.p opula
y .person
y.person .
tr ic
sen i
recur ring_
n ex
mso:visual_art.art_series. artwork</w>
mso:spaceflight. astronaut
mso:spaceflight.astronaut .space_
mso:militar y.person.
mso:medicine.manufacture d_d
mso:medicine.manufactured_d rug
mso:medicine.drug.drug _brand</w>
mso:astronomy.star _system.
j an
ir o</w>
ing_ team</w>
ilit y.
ie l
group .
gra vity</w>
er i
en ce</w>
dis place
con di
ch u
blin dern</w>
al o
agenc y.
_fir st_
wi th_
w er
ti ve</w>
son g
no vel</w>
mso:travel .de
ma iden
in stru
do m</w>
de _
al tit
(_ 201
view _
unit s</w>
tion .p
te le
sylve ster</w>
ne gr
n _
mso:location.location. geo
mso:location.location.geo location</w>
mso:local. entit
mso:local.entit y
maximu m
m_ h</w>
m ini
jose ph</w>
f ri
de ad</w>
ch _
b ack</w>
3 0</w>
1 2</w>
w oo
ur y</w>
uni t</w>
th ro
su per</w>
s_ ho
op p
on s</w>
mso:tv.program.regular _cast</w>
mso:theater .produc
mso:soccer. roster_posi
mso:radio .ra
mso:radio.ra dio_
mso:radio.radio_ program.
mso:music.release .
mso:education.academic. advisor
mso:education.academic.advisor s</w>
man n</w>
maiden _f
maiden_f light</w>
lon don</w>
k er
jour n
je ct</w>
har dy</w>
fe ct</w>
fantas y</w>
f ig
eng lis
e ar
ch ur
cer em
bir d</w>
ap e</w>
- 0
yo ut
ver sion</w>
stin ation</w>
ste ve</w>
st a</w>
sic i
ship s</w>
ser v
s w
s cra
ro le.
ra ting
ph o
p ow
mso:organization.board_membership. role</w>
mso:food.nutri tion.
mso:film.film. featured_
mso:film.film.featured_ song</w>
mso:biology. gen
her e</w>
e se</w>
cap tiv
c y_
apol lo</w>
an _d
wo man</w>
win ter</w>
ven ue
t _date</w>
so uth</w>
re ad
pre s
mso:zoos. animal_
mso:zoos.animal_ captiv
mso:zoos.animal_captiv ity.
mso:medic ine
mso:medicine .p
mso:medicine.p hy
mso:medicine.phy sici
mso:geography.body_of_water. dep
mso:geography.body_of_water.dep th</w>
me dia</w>
j r.</w>
ga r</w>
ele ment</w>
de ad
ber ry</w>
1/1/19 9
.place_of_p ublication</w>
.c ap
win n
venue .cap
venue.cap acity</w>
s_ho sted</w>
s mo
re view
olympic s_hosted</w>
mso:olympics. host_c
mso:olympics.host_c ity.
mso:olympics.host_city. olympics_hosted</w>
mso:geography.body_of_water. bridge</w>
mso:architecture. venue.capacity</w>
m al
lin col
ligh tho
ke _
ho tel</w>
e con
econ om
com e</w>
co me_
ci s</w>
bro adca
bo e
aut o</w>
am p
a ven
tit an
stre et</w>
solub ility</w>
re d
p art
mso:sports.team. founded</w>
mso:astronomy.celestial_object. gravity</w>
mar ine</w>
ma x_
k le</w>
ju dic
is m</w>
h ist
h all</w>
engine er</w>
dra g
cy_ code</w>
clas sic
at _
ar s_
ad o</w>
_buil t</w>
vi l</w>
ver se
t ti
sor or
s -
rep ublic</w>
mso:military.person. service</w>
mso:medicine.manufactured_drug _form.
mso:ice_hockey.team. captain</w>
mso:film.performance. film</w>
mso:education.educational_institution.school _ma
mso:education.educational_institution.school_ma scot</w>
l ing</w>
k id</w>
i _
f -
can on
c ies</w>
br and</w>
bo y</w>
y n
wash ington</w>
u .
s is
ri dge</w>
ri c</w>
por ation</w>
out side</w>
out flow</w>
organization_ leadership.
or _c
obje ct
ne t</w>
mso:religion.religious_ organization_leadership.
mso:geography.lake. outflow</w>
mso:geography.body_of_water. islands</w>
mso:chemistry.chemical_element.electron _
m s
li ber
in i</w>
hist ory</w>
goo gle</w>
date_of_first_p erformance</w>
canon ical_
arg less</w>
ar ds</w>
amaz on</w>
a x
200 8</w>
willi ams</w>
tific _
tific_ name</w>
th ers</w>
techno logy</w>
sto ck_
scien tific_name</w>
mso:event. agent.
mso:biology.organism_classification. scientific_name</w>
mso:award.honor. year</w>
line s</w>
h an</w>
d ing</w>
cre ated_
created_ by</w>
cerem ony</w>
b un
b rit
b a</w>
ar do</w>
a z
_ma ss</w>
6 0
5 0
.re ci
yo ur</w>
y an
team s</w>
te m
ste ven</w>
soror ity.
sorority. color</w>
so dium</w>
ol a</w>
nomine e.
nominee. award_
nominee.award_ nomin
nominee.award_nomin ations</w>
negr a</w>
mso:transportation.bridge. loc
mso:transportation.bridge.loc ale</w>
mso:organization.board_membership. organization</w>
mso:olympics.games. number_of_
mso:geography.la ke</w>
mso:education. fratern
mso:education.fratern ity_
mso:education.fraternity_ sorority.color</w>
mso:chemistry.chemical_element. melting_point</w>
mso:chemistry.chemical_element. boiling_point</w>
mso:award. nominee.award_nominations</w>
ke y
k at
job _
in ven
g an
con way</w>
com mer
c alifor
.in troduced</w>
y u
ur i</w>
ti red</w>
t s_
steroi d_
ste in</w>
star t</w>
si den
sch o
p age</w>
oo k</w>
n i</w>
mso:theater.produc tion.
mso:book .po
mso:book.po e
mso:book.poe m.
mso:book.poem. po
je an</w>
g all
f le
b le</w>
at s</w>
af ric
_p ol
w an</w>
vir g
vent or.
ventor. inven
ventor.inven tions</w>
sta dium</w>
st ri
st one</w>
sky scra
sh ape</w>
sat ur
s_ of_
runn er_
per fect</w>
o pe
mso:law.in ventor.inventions</w>
mso:geography.mountain. first_as
mso:geography.mountain.first_as cen
mso:geography.mountain.first_ascen ders</w>
mso:chemistry.chemical_compound. solubility</w>
mso:business.employment_tenure. employ
mso:aviation.aircraft_model .re
mso:aviation.aircraft_model.re tired</w>
lincol n</w>
ke d</w>
judic ial_
fin ity</w>
d al
be st</w>
areer_ roster</w>
a steroid_
a ir</w>
vi e</w>
unite d_
stu d
se t
s car
pan ter
o _
mso:tv.series_episode .
mso:projects.project_particip ation
mso:organization.leadership. role</w>
mso:media_common. subject.
mso:location.census_district. total_
mso:government.poli tical_
mso:geography.river.mo uth</w>
mso:computer.computer. in
mso:computer.computer.in troduced</w>
mso:astronomy.astronomical_discovery.discover er</w>
mso:architecture. skyscra
jo e</w>
ic h
i ii</w>
d wayne</w>
ch ie
c an</w>
1 1</w>
yout ube</w>
wi ki
v in
s son</w>
pro ject</w>
pe_ingredi ent.
oun d</w>
o x
mso:food.reci pe_ingredient.
mso:computer. operating
mso:comic_books.series. created_by</w>
mso:aviation.aircraft_model. maximum
mso:aviation.aircraft_model.maximum _speed_k
mso:aviation.aircraft_model.maximum_speed_k m_h</w>
mso:automotive .
lead er
la te
job_ title</w>
je di</w>
ite d</w>
har ry</w>
ha w
guar di
gn an
ger man
fi c</w>
f un
e p
cu t</w>
computer.proces sor</w>
c age</w>
bri ti
bo b</w>
alph a</w>
a be
_st ar
_discover ed</w>
_bo d
7 0
6 0</w>
1 3
.place _of_
z z
struct or</w>
steroi d.
sc ale</w>
re sor
perio d</w>
p aci
o us</w>
nomin ated_
mso:soccer.roster_posi tion.
mso:organization. leader
mso:organization.leader ship.person</w>
mso:fictional_universe.character .par
mso:fictional_universe.character.par ents</w>
mso:computer. computer.processor</w>
mso:chemistry.chemical_element. element_discover
mso:chemistry.chemical_element.element_discover er</w>
mso:boats.ship. length_over
mso:boats.ship.length_over all</w>
mso:astronomy.celestial_object.me an_d
mso:astronomy.celestial_object.mean_d en
mso:astronomy.celestial_object.mean_den sity</w>
mso:astronomy.a steroid.
ma ss_
la bel</w>
kir k</w>
k or
in structor</w>
in _b
emp ire</w>
del ta</w>
commer ci
c tion_
b er</w>
au str
at tor
ad vent
_f esti
200 9
2 5
1/1/1 8
.c .</w>
tit y</w>
tic s</w>
spin_off s</w>
ro ck
ri o</w>
performan ce</w>
or der</w>
o ce
mso:organization. role.
mso:martial_arts.martial_artist. instructor</w>
m ore</w>
m ig
li fe
k y</w>
joh an
group _
gi c</w>
g s</w>
fir st</w>
f c</w>
ex per
e th
down lo
dis tric
ch ina</w>
bil l
urren cy_code</w>
team _st
t un
s ing</w>
ra l</w>
mso:military. unit.
mso:location.sovereign. iso
mso:location.sovereign.iso 42
mso:location.sovereign.iso42 17
mso:location.sovereign.iso4217 _c
mso:location.sovereign.iso4217_c urrency_code</w>
mso:film.festiv al_
mso:film.festival_ event.
mso:event. dis
mso:business. oper
mso:astronomy.astronomical_discovery. discovery_date</w>
mini mu
me ter</w>
loc k</w>
le gen
il e</w>
en a</w>
dis ney</w>
d_ in</w>
ch i</w>
be g
ag o</w>
7 0</w>
1 6</w>
y el
wor d_
wiki pe
ti s</w>
sur vi
sub marine</w>
struction _date</w>
sta ur
si a</w>
seni or_c
senior_c areer_roster</w>
s cor
re view</w>
p er.
o ut</w>
n er
mso:soccer.player. senior_career_roster</w>
mso:music.artist.ac tive
mso:music. concert_set_
mso:music.concert_set_ list.
mso:biology. animal_
mso:architecture.structure. de
mso:architecture.structure.de struction_date</w>
mso:american_football.player .player_
lt d.</w>
j im
iz ation</w>
f la
dis cip
d om
a qu
4 5
2 0</w>
web si
websi te.
website. launched</w>
we ll</w>
u n</w>
resor t</w>
port .
ph ili
musical_ scale</w>
mso:music.composition. musical_scale</w>
mso:martial_arts.martial_artist. martial_
mso:internet. website.launched</w>
mso:food.recipe .reci
mso:aviation.air port.
m arg
li ke</w>
l ine.
gran d_
gnan cy
fil m_
f ra
euro pe
e y
d u</w>
cor poration</w>
cop y
classic s</w>
cam p
b and</w>
aver age
at ory</w>
_pass ing_statistics</w>
word_ count</w>
won der</w>
wat ers</w>
v it
ublication _perio
tropolit an_
tow n</w>
spi der</w>
season_ recor
s_ in_
ro w</w>
ro ad</w>
recurring_ event.
r ing</w>
qu an
p al
number _of
ne ll</w>
mso:tv.program.air_date _of
mso:tv.program.air_date_of _first_
mso:tv.program.air_date_of_first_ episode</w>
mso:time. recurring_event.
mso:computer.operating _system.
mso:book.written_work. word_count</w>
mso:book .place_of_p
mso:book.place_of_p ublication_perio
mic ro
member ship_
me te
j ack</w>
fre d</w>
en s</w>
e bb
colle ction</w>
c ent</w>
be n</w>
art h</w>
am i</w>
af fe
200 9</w>
. com</w>
' s_
war ri
ti al</w>
stin ation.
sour ce</w>
si an</w>
runner_ up</w>
righ t_date</w>
pe s</w>
mso:tv.program. country_of_origin</w>
mso:sports.championship_event. runner_up</w>
mso:organization.board_memb er.
mso:organization.board_member. lead
mso:organization.board_member.lead er_of</w>
mso:music.track. length</w>
mso:book.written_work. copy
mso:book.written_work.copy right_date</w>
mso:book. character.appe
mso:book.character.appe ars_
mso:book.character.appears_ in_b
mso:book.character.appears_in_b ook</w>
mso:astronomy.celestial_object.me an_
mso:astronomy.celestial_object.mean_ radius</w>
mso:astronomy. galax
literary_ series</w>
le d</w>
king dom</w>
ke vin</w>
il li
i f
h p</w>
d_ label</w>
d son</w>
d ine</w>
bro ok
bla ck
ade s</w>
ab le</w>
_di vision</w>
7 _)</w>
200 4</w>
1 4
z a</w>
u gh
ton y</w>
tin a</w>
ti ck
tem per
t ute</w>
super man</w>
se l
s cre
panter a</w>
p in
mso:sports.team. coach</w>
mso:sports.pro_athlete.career_ end</w>
mso:commerce. bran
mso:broadca st
mso:boats.ship. launched</w>
mso:biology.organism_classification. high
mso:biology.organism_classification.high er_classification</w>
mso:baseball. team.
mso:astronomy.orbital_relationship.orbital_ period</w>
mo vie</w>
lor d</w>
greate st</w>
gir l</w>
film _festi
f ol
ed ward</w>
ce_ type</w>
ce le
be ll</w>
all _
1 6
y land</w>
verse d_by</w>
ur a</w>
trans versed_by</w>
tion er</w>
steph en</w>
se cre
ro dri
of f</w>
ne ss</w>
mso:ra il
mso:music.artist.active _st
mso:music.artist.active_st art</w>
mso:medicine.disease .pre
mso:medicine.disease.pre vention_fact
mso:geography.mountain_pass. transversed_by</w>
mso:geography.lake.c ity</w>
mso:book.written_work. literary_series</w>
mso:book.perio dic
mso:book.periodic al.
mso:architecture.structure. engineer</w>
m oon</w>
fran k</w>
date_of_fir st_
christ op
c le</w>
a h
wikipe dia</w>
ug h</w>
tick er_
syste m</w>
sports_playe d.
song .performer</w>
show man</w>
sho w</w>
ri er</w>
receiv ing_statistics</w>
po t
paci fic</w>
mso:visual_art.art_period_movement. beg
mso:visual_art.art_period_movement.beg an_
mso:visual_art.art_period_movement.began_ approximately</w>
mso:sports.pro_ sports_played.
mso:soccer.player_ lo
mso:soccer.player_lo an.
mso:medicine.drug.drug _pre
mso:medicine.drug.drug_pre gnancy
mso:medicine.drug.drug_pregnancy _category</w>
mso:geography.island. max_
mso:food.nutrition. nutri
mso:film. featured_
mso:film.featured_ song.performer</w>
mso:event.dis aster.
lou is</w>
jer ry</w>
j a</w>
ine s</w>
in du
i i
hit s</w>
gu it
e s_
com man
califor nia</w>
boe ing</w>
8 0</w>
3 .
.plat form</w>
vo ice_
ts bur
tour s</w>
tain s</w>
st af
sh ir
roy al</w>
r in
pre sident</w>
pit tsbur
o xi
nex t_
mso:tv.series_season .
mso:organization.board_membership. title</w>
mso:meteorology.tropical_cyclone. affe
mso:meteorology.tropical_cyclone.affe cted_
mso:meteorology.tropical_cyclone.affected_ area</w>
mso:medicine.physici an.
mso:finance. in
mso:film. gen
mso:chemistry.chemical_compound. boiling_point</w>
mso:book.edi tion.p
mso:boats.ship .place
mso:boats.ship.place _built</w>
mso:award. nomination.
mso:astronomy.galax y.
m y_
l t</w>
l ist</w>
jack son</w>
gre g
fu l</w>
englis h</w>
do ub
dis t
d er_
ch en
c lar
aven gers</w>
a ve
3 d</w>
tw o</w>
show er</w>
or_movem ent</w>
mso:olympics. tor
mso:geography.river. bas
inter national_
guit ar</w>
gla ci
ga s</w>
f en
f a</w>
d ig
chur ch</w>
ch i
ca st
bo dy</w>
bla de</w>
as ter</w>
an th
_b ran
_ tra
0 .
.progra m</w>
(_201 7_)</w>
ve _
v inc
un g</w>
total_ fatalities</w>
te _ma
te_ma gnitude</w>
solu te_magnitude</w>
se y</w>
se con
s le
s and
ri fic
or_ text</w>
mso:time.event. location</w>
mso:sports.sports_ statistics.
mso:meteorology.tropical_cyclone. total_fatalities</w>
mso:medicine.disease.prevention_fact or_text</w>
mso:geography.river.bas in_
mso:book.book. genre</w>
mso:astronomy.celestial_object. ab
mso:astronomy.celestial_object.ab solute_magnitude</w>
med al</w>
max _speed</w>
mar s</w>
ma c
lim ited</w>
it a</w>
insti tute</w>
ie ty</w>
gu n</w>
film_festi val</w>
eng ine</w>
cle ve
christop her</w>
broad cast</w>
b au
attor ne
_c ent
5 /
- 10
y a
well _
vio us_
ty pe_of_
trans f
tit les</w>
ta y
survi v
show _
sac rific
ra tes</w>
quan tity</w>
pit ch</w>
p on
oc cur
occur ance</w>
nort h</w>
mso:spaceflight.rocket. launch_site</w>
mso:medicine.drug. canonical_
mso:medicine.drug.canonical_ brand</w>
mso:medicine.dru g
lo pe
li on</w>
j ane</w>
it y
i p
gue z</w>
ga z
fif ty</w>
fe der
f ren
entit y</w>
ebb ing</w>
dam on</w>
bo ards</w>
bill boards</w>
attorne y.
at o</w>
ar my</w>
age s</w>
1 5</w>
with_ an
with_an tenn
with_antenn a_
with_antenna_ spi
with_antenna_spi re_
with_antenna_spire_ meters</w>
web page</w>
w it
use r</w>
ur l</w>
ti o</w>
this _
th ing</w>
t ar
special ization</w>
sh ades</w>
ro om</w>
pl ut
per. height_
per.height_ with_antenna_spire_meters</w>
or_ shower</w>
nort on</w>
newspaper. school</w>
mso:spaceflight.rocket_engine. is
mso:spaceflight.rocket_engine.is p_
mso:ratings. review
mso:projects.pro ject
mso:projects.project .project_particip
mso:projects.project.project_particip ation</w>
mso:music.artist. concert_
mso:music.artist.concert_ tours</w>
mso:law. attorney.
mso:education.school _
mso:education.school_ newspaper.school</w>
mso:education.education. specialization</w>
mso:business.oper ation.
mso:architecture.skyscra per.height_with_antenna_spire_meters</w>
mm ing_
mete or_shower</w>
ment s</w>
manufactur er.
manag er</w>
ma y
ken ne
h is
fir e</w>
episode s</w>
cre di
car ol
ath er</w>
3 5</w>
3 3</w>
1 .
win d</w>
vic tor
tive_ end</w>
th or
t i</w>
stronaut s</w>
stor my</w>
satur n</w>
s n
ra tio</w>
ra gn
ragn ar
ph y
pe l
oper a</w>
ope n</w>
nominated_ work</w>
mso:zoos.zoo. nu
mso:tv.regular_tv_appearance. from</w>
mso:spaceflight.space_mission .a
mso:spaceflight.space_mission.a stronauts</w>
mso:music.artist.ac tive_end</w>
mso:music. instru
mso:music.instru ment.
mso:music. concer
mso:boats.ship. displace
mso:boats.ship.displace ment</w>
mso:baseball.batting_statistics. sacrific
mso:astronomy.constellation. meteor_shower</w>
memb ership.
match_particip ation.
k ur
k ins</w>
g ood</w>
el iz
clo sed</w>
char lie</w>
ch o</w>
be au
_bran d.
.popula tion_
.p arty</w>
y_of_ pro
w d</w>
virg ini
ty ph
t am
t -
symb ol
sil ver</w>
ori al</w>
oper a
no tes</w>
na vy</w>
mso:geography.river. city</w>
mso:finance.in come_
mso:finance.income_ ta
mso:computer.operating_system. release_date</w>
mat the
m r.</w>
ing_ time_minutes</w>
ho ur</w>
governing _bod
governing_bod y_of_pro
ele ction
date _be
commerci al_
clou d</w>
chil d</w>
cep tion</w>
bu d
ate _
at us</w>
ar th
an a
al ie
ac t</w>
a mes</w>
_p ra
_desig n
_ id</w>
w w
volu me</w>
ublic _
tion .place_of
tion.place_of _fir
tion.place_of_fir st_p
tion.place_of_first_p erformance</w>
st ation</w>
show_ time.
sh opp
serie s)</w>
recor d_label</w>
re n</w>
qu en
oce an</w>
mun ic
mso:tv.program. spin_offs</w>
mso:sports. gol
mso:sports. fac
mso:sports.fac ility.
mso:sports.facility. teams</w>
mso:organization.organization. board_memb
mso:organization.organization.board_memb ers</w>
mso:music.composi tion.place_of_first_performance</w>
mso:chemistry.chemical_element.atom ic_
mso:broadcast .progra
mso:broadcast.progra m_
mso:broadcast.program_ show_time.
m_ altit
m .</w>
loc khe
is e
i re
hon or</w>
her cu
gu ide</w>
g or
g al
f all</w>
di son</w>
del ph
de cease
dan iel</w>
competit or</w>
ca b</w>
bri an</w>
b us
are _
200 5</w>
2 6
1 3</w>
.p hon
well_ known
well_known _pra
well_known_pra cti
well_known_practi tioner</w>
vi ii</w>
und er
ublication _date</w>
typh oon</w>
tin o</w>
the ft</w>
t or</w>
t le
si n</w>
s in
re ser
ragnar ok</w>
pro fession
organis m.
omo a</w>
mso:martial_arts.martial_art. well_known_practitioner</w>
mso:games.game .play
mso:games.game.play ing_time_minutes</w>
mso:film.performance. character</w>
mso:chemistry.chemical_element.atomic_ number</w>
mso:business.employment_tenure. job_title</w>
mso:book.edition.p ublication_date</w>
mso:biology. decease
mso:biology.decease d_
mso:biology.deceased_ organism.
mso:automotive.automotive_class. body_
mso:automotive.automotive_class.body_ style</w>
matthe w</w>
ma scot</w>
ma r</w>
m omoa</w>
ll s</w>
leon ardo</w>
la tion</w>
k ing.
in ception</w>
i al</w>
countr ies</w>
content_ rating
co me
co mb
ch er</w>
bab y</w>
b y_
ad e</w>
a s_
200 6</w>
y l</w>
we ight
u el</w>
ter ry</w>
se mi
sa s</w>
s we
s ab
par is</w>
no w</w>
na me
mso:sports.team. mascot</w>
mso:opera.opera. language</w>
mso:martial_arts.martial_art. origin</w>
mso:film.film. performance</w>
mso:astronomy.star. constellation</w>
mso:architecture. lightho
mi um</w>
for e
fil e</w>
ci ties</w>
ce ss</w>
can a
bre ak</w>
ber lin</w>
ba y</w>
b is
an der</w>
35 mm</w>
x ing.
xing. box
xing.box er.
xing.boxer. weight
xing.boxer.weight _division</w>
wel come</w>
ur us</w>
tropolitan_ transit
tropolitan_transit .
tropolitan_transit. transit
sp an
sh i</w>
scho lar
rush ing_statistics.
rodri guez</w>
ra i
mso:olympics.games.number_of_ countries</w>
mso:music.tra ck
mso:media_common.subject. quotation</w>
mso:me tropolitan_transit.transit
mso:geography.waterfall. height</w>
mso:film.performance. actor</w>
mso:bo xing.boxer.weight_division</w>
min ne
micro sof
mer cur
ma gic</w>
ma gaz
i mer</w>
h ill</w>
h as
grand_ sla
fran cis</w>
fig ura
f .c.</w>
ex press</w>
engine er
en _
e p</w>
com ics</w>
chris ti
bat man</w>
base ball</w>
armed_for ce</w>
an na</w>
alex and
ale x</w>
_st u
_b ro
2 8
.pro du
.pre vious_
vi i</w>
u el_
ster n</w>
ster is
steris m.
sterism. constellation</w>
statistic s
statistics .population_
sp ir
son s</w>
scien ce</w>
scholar ly_
sa m</w>
ry an</w>
ri son</w>
que en</w>
pro file</w>
prin ce</w>
ph ila
phila delph
or a</w>
o ther</w>
nation _
n it
mso:sports.gol f_
mso:sports.golf_ cour
mso:radio.radio_program. final_
mso:radio.radio_program.final_ broadcast</w>
mso:protected_sites.protected_site. date_established</w>
mso:music.track. date</w>
mso:medicine.drug _brand.
mso:education.education. major</w>
mso:chemistry.chemical_compound. melting_point</w>
mso:book. scholarly_
mso:aviation.airliner_accident. date</w>
mso:aviation.airliner_accident. aviation_incident_aircraft_
mso:aviation.airliner_accident.aviation_incident_aircraft_ relationship</w>
mso:astronomy.a sterism.constellation</w>
mso: statistics.population_
mon th
mb er</w>
ma in
eliz abe
e arth</w>
do g</w>
cu la</w>
cal ci
b loo
ath er
appearan ces</w>
ange lo</w>
al ia</w>
ag u
a lan</w>
3 9
3 2
w er</w>
ten ure
tay lor</w>
t ation</w>
st_ release_date</w>
se e</w>
s .player</w>
re gu
r- mso:film.festival_event.
po tas
museu ms</w>
mso:sports.sports_team_coach_tenure. coach</w>
mso:spaceflight.satellite. launch
mso:rail .ra
mso:rail.ra il
mso:media_common. video
mso:local.entity .preferred_
mso:geography.river. length</w>
mso:event. commercial_
mso:event.commercial_ flight_
mso:event.commercial_flight_ action.
mso:cvg.game_version .
mso:computer.software. late
mso:computer.software.late st_release_date</w>
mso:chemistry.chemical_element.electron_ con
mso:chemistry.chemical_element.electron_con figura
mso:chemistry.chemical_element.electron_configura tion</w>
mso:book. newspaper.
mso:aviation.aircraft_model. maiden_flight</w>
mso:astronomy.star_system. star</w>
ma ted_
ma dison</w>
librar y
legen d</w>
le w
le t
in ve
ic k</w>
hercu les</w>
he art
h all
europe an</w>
esti mated_
e ag
di o</w>
countr y_
cent ral</w>
camer on</w>
bro thers</w>
ax is</w>
an g</w>
am erican
_s ing
.phon e_number</w>
win dow
u. s.</w>
to _date</w>
ta stic</w>
sul f
social_network_ profile</w>
se an</w>
san ta</w>
s_ ,_
ro me
ra b
r ms</w>
pla y</w>
ph an
on ey</w>
o u
nico las</w>
ne l</w>
music _
mso:visual_art.artwork. date_completed</w>
mso:visual_art.artwork. art_
mso:spaceflight.rocket. manufacturer</w>
mso:organization.board_membership. member</w>
mso:military. armed_for
mso:metropolitan_transit.transit _system.
mso:metropolitan_transit.transit_system. inception</w>
mso:event. event.
mso:business. shopp
mso:broadcast. broadca
mso:broadcast.broadca st.
mso:boats. ship_
mso:award.honor. category</w>
mso:astronomy.constellation. con
mso:astronomy.constellation.con tains</w>
mso:amusement_parks.ride. opened</w>
mso:amusement_parks.park. opened</w>
mso:american_football. game_
min or</w>
mb er
log ical_
li bre
k ong</w>
j .</w>
in ts</w>
h d</w>
h a</w>
german y</w>
fie ld_
f ron
f it
exper i
e st_
com mon
briti sh</w>
a la
a c</w>
.per formance</w>
. film</w>
y er</w>
x o
wo men</w>
war ner</w>
view_ social_network_profile</w>
us t</w>
type. ship
type.ship _class</w>
tot al</w>
te g
t aran
stock_ ticker_
star ted</w>
staf f</w>
se le
ris e</w>
ran ge.
produ ct_
potas sium</w>
pl us</w>
ni s</w>
n in
mso:sports.pro_athlete.career_ start</w>
mso:spaceflight.space_program. started</w>
mso:organization.leadership. title</w>
mso:music.composition. date_completed</w>
mso:internet.social_network_user. view_social_network_profile</w>
mso:business.employment_tenure.employ er</w>
mso:boats.ship_ type.ship_class</w>
mso:biology.gen e.
mso:biology.fossil_specimen. discover
mso:biology.fossil_specimen.discover e
mso:biology.fossil_specimen.discovere d_by</w>
mso:aviation.aircraft_model. aircraft_
mso:astronomy.celestial_object. surface_area</w>
microsof t</w>
lope z</w>
lon ge
lo n</w>
liber ty</w>
l ight
k ris
gh t</w>
g un
dun kirk</w>
da s</w>
competit or.
ch er
ag ent</w>
_ character</w>
winn ing_
winning_ work</w>
wat son</w>
wa y.
voice_ type</w>
tti st</w>
tra ck</w>
ting _
ter io
struct ure
stor m</w>
star _system</w>
son y</w>
sa int</w>
run s</w>
re tail
ra c
r ist</w>
p oo
opera _sing
opera_sing er.
opera_singer. voice_type</w>
ni fic
new _
ne s</w>
mso:rail.rail way.
mso:opera.opera. libre
mso:opera.opera.libre ttist</w>
mso:music. opera_singer.voice_type</w>
mso:government.political_ part
mso:award.honor. winning_work</w>
mso:award. a
mso:award.a ward.
mso: library
mso:library .p
mming_ language
mis terio
me tr
ll o</w>
la ce</w>
ke t</w>
ir a</w>
ic tion</w>
har ris</w>
gol d</w>
f ut
duc tion</w>
dr y_
date_ written</w>
c tions</w>
c c</w>
ap rio</w>
a u</w>
a .</w>
_p ow
4 .
200 8
1 4</w>
00 0</w>
.progra mming_language
we al
warri ors</w>
type_of_ museum.
type_of_museum. museums</w>
tra ck_
to u
titan ic</w>
tin e</w>
th al</w>
ted_ work.
tected_si tes</w>
te en</w>
su n</w>
su lt
struction _star
struction_star ted</w>
st ers</w>
sse s</w>
spon so
sponso red</w>
spe ed</w>
sis si
servic es</w>
ro ber
ri d
relation ship.person</w>
o s
n s</w>
n as
n ar
mur der</w>
mso:protected_sites.protected_site. governing_body_of_pro
mso:protected_sites.protected_site.governing_body_of_pro tected_sites</w>
mso:people.romantic_ relationship.person</w>
mso:education.school .
mso:common. ima
mso:common.ima ge.
mso:business.shopp ing
mso:business.shopping _cent
mso:business.shopping_cent er.
mso:architecture.structure.con struction_started</w>
mso:architecture. type_of_museum.museums</w>
mo dern</w>
misterio so</w>
mar yland</w>
m ol
lan e</w>
k il
i x</w>
high est_
fl _season</w>
dra cula</w>
dist ance</w>
d_ col
compan y_
book _
be ar
am in</w>
_n fl_season</w>
1 /
zu ki</w>
window s</w>
w ing
virgini a</w>
tr a</w>
ther n</w>
su pp
sting .
sh ar
semi _major_
semi_major_ axis</w>
qu enc
pittsbur gh</w>
ph en
ni e</w>
mso:tv.program.air_date _of_f
mso:tv.program.air_date_of_f inal_
mso:tv.program.air_date_of_final_ episode</w>
mso:spaceflight.space_ agency.
mso:spaceflight.space_agency. astronaut
mso:spaceflight.space_agency.astronaut s</w>
mso:soccer.roster_position. team</w>
mso:music.concer t.
mso:business. job
mso:business.job _po
mso:business.job_po sting.
mso:astronomy.orbital_relationship. semi_major_axis</w>
mso:american_football.game .
mis sissi
mem orial</w>
ma jor_
m r
liter ature</w>
law ren
la te</w>
j i
j ap
ing_statistic s.player</w>
in finity</w>
il le</w>
ho u
gener al</w>
g las
fre quenc
forman ce_type</w>
flu en
f igh
er y</w>
discover ed</w>
de d_
d ex
d ark
common weal
co smo
champion ships</w>
ce .program</w>
c areer_
archite ct
4 9
00 0
y an</w>
w ish</w>
w all</w>
v ari
spon sor
s_ sponsored</w>
ride _type</w>
ri e</w>
ri a</w>
plut o</w>
ph on
organis m_classific
or_ title</w>
or che
orche str
om p
mso:theater.play. date_of_first_performance</w>
mso:location.location. re
mso:library.p ublic_
mso:government.position_held.office_ or_title</w>
mso:aviation.aircraft_model. aircraft</w>
mso:astronomy.celestial_object. cosmo
mso:astronomy.celestial_object.cosmo logical_
mso:astronomy.celestial_object.cosmological_ distance</w>
mso:amusement_parks.ride. ride_type</w>
mc don
lew is</w>
in al</w>
il y</w>
hen ry</w>
guardi ans</w>
gol f</w>
game s_
fu l
for ce</w>
fe ature</w>
far e</w>
f is
drag on</w>
doub le</w>
do ctor</w>
cur ren
con te
com mit
co ok
ci a</w>
bur g</w>
arth ur</w>
an ton
a in</w>
a gan</w>
3 7
2 4</w>
19 6
1 7</w>
/ _
z er
victor ia</w>
usine ss</w>
tional_ form</w>
team_st ats.
te l
taran tino</w>
tain _
spi ri
sh er
p er_
p a</w>
of -
no ts</w>
next_ in_series</w>
n an
mso:music.composition. composi
mso:music.composition.composi tional_form</w>
mso:film. film_
mso:film.film_ son
mso:fictional_universe.character. character
mso:fictional_universe.character.character _pow
mso:fictional_universe.character.character_pow ers</w>
mso:chemistry.chemical_ classific
mso:chemistry.chemical_classific ation.
mso:chemistry. element_discover
mso:chemistry.element_discover er.
mso:chemistry.element_discoverer. discovered</w>
mso:book.written_work. next_in_series</w>
mso:book.periodical. editorial_
mso:book.periodical.editorial_ staff</w>
mso:baseball. team_stats.
mso:award.honor. winner</w>
mso:american_football.player_ rushing_statistics.
mso: computer
mon d</w>
minne so
me tho
longe st_
ll y</w>
lin ary_
legisla tive_
ing er</w>
il la</w>
he ad</w>
fl ori
er_classific ations</w>
down s</w>
discip linary_
dic aprio</w>
d le</w>
d ance</w>
cour t</w>
co u
ch rist</w>
c lin
c is
body_of_ water</w>
bo b
bat tle</w>
b usiness</w>
an n</w>
an der
al -
a y</w>
_f uel_
_f lo
_c li
_ work
_ mo
9 7
5 5
201 0
2 .
.pla y_
y. establis
y.establis he
y.establishe d_in</w>
wor th</w>
wil d</w>
war fare</w>
tournam ent_
t il
su zuki</w>
st y
space_ m_
space_m_ 2</w>
sen ted</w>
retail _flo
retail_flo or_
retail_floor_ space_m_2</w>
recor ds</w>
pre sented</w>
p per</w>
ne l
mso:sports.competitor_competition_relationship. competitor</w>
mso:projects.project_particip ation.
mso:library.public_ librar
mso:library.public_librar y.established_in</w>
mso:government.position_held. bas
mso:government.position_held.bas ic_
mso:government.position_held.basic_ title</w>
mso:event.disaster. fatalities</w>
mso:computer .programming_language
mso:business.shopping_center. retail_floor_space_m_2</w>
mso:book.written _work
mso:book.written_work .previous_
mso:book.written_work.previous_ in_series</w>
mso:boats.ship_class. max
mso:boats.ship_class.max _speed_k
mso:boats.ship_class.max_speed_k nots</w>
mso:award.honor. ceremony</w>
mso:american_football.player.player_ receiving_statistics</w>
mso:american_football.player .play
mso:american_football.player.play er
mso:american_football.player.player _passing_statistics</w>
manufactur er
lo sed</w>
le tt</w>
iso to
i ron</w>
his tor
he al
h ic
go d
fren ch</w>
ex hi
elizabe th</w>
da y
d v
commit te
ch ap
cap ital</w>
c tion.
at tribu
an ge</w>
ad am</w>
a_ world_
a v
a -
4 7</w>
.c losed</w>
z en</w>
xo don
xodon ta</w>
win ds</w>
vinc ent</w>
v ing</w>
v ent</w>
u k</w>
u e.
tele vision</w>
tab le_
sti nation_
stination_ month
stination_month ly
stination_monthly _cli
season_recor d.
s lo
re ss</w>
peop le</w>
pe t
mso:visual_art.art_series. artist</w>
mso:tv.program. genre</w>
mso:travel.de stination_monthly_cli
mso:sports.team_ season_record.
mso:sports.golf_cour se.
mso:spaceflight.rocket. country_of_origin</w>
mso:meteorology.tropical_cyclone. highest_
mso:meteorology.tropical_cyclone.highest_ winds</w>
mso:government.political_part y_
mso:geography.island. body_of_water</w>
mso:cvg.game_version. release_date</w>
mso:astronomy.asteroid. asteroid_
mso:astronomy.asteroid.asteroid_ group</w>
moun tain_
mar kle</w>
lo xodonta</w>
lead ers</w>
is a
il lu
ie s_
h op
h and
gu l
f at</w>
elect ric</w>
e d.
di men
con n
cla ude</w>
chu ck</w>
ch air
bro s.</w>
be ach</w>
ban k</w>
b le
b ach
ati vity</w>
an da</w>
aircraft_ model</w>
afric a</w>
19 5
. date</w>
- of-
" "</w>
" ""</w>
val ley</w>
v ino</w>
transf er.
tra ctor</w>
time s</w>
te _
spe cies</w>
sion s</w>
s_ level</w>
re str
re s</w>
re al</w>
po in
ph y</w>
par t</w>
nomin ation</w>
no table_
music_ video
mso:spaceflight.space_mission .de
mso:spaceflight.space_mission.de stination</w>
mso:soccer.player_ transfer.
mso:games.game .
mso:book.written_work. ato
mso:book.written_work.ato s_level</w>
mso:biology.deceased_organism. date_of
mso:biology.deceased_organism.date_of _death</w>
mso:award.category. date_established</w>
mso:aviation.aircraft_model .introduced</w>
mic hig
me gh
mat ch</w>
manag em
lo st</w>
ju dge</w>
j or
iz z
ima g
h oo
er_ co
er ne
en ds</w>
e ver
da m</w>
cre w_
ck y</w>
champion ship</w>
ce ler
bu ff
b y
associ ated_
andre w</w>
_s qu
_buil der</w>
_ -
9 0</w>
7 7
2 5</w>
.par k</w>
z i
yan ke
wel les</w>
unit .in
unit.in teg
unit.integ er_
unit.integer_ range.
tra il
t ations</w>
t arg
t .</w>
sp iel
series_ season</w>
se ll</w>
restr iction</w>
re y</w>
rd -1
quen tin</w>
p op
or .performance</w>
o dy
nic k</w>
mso:tv.regular_tv_appearance. series_season</w>
mso:projects.project_participation .project_particip
mso:projects.project_participation.project_particip ant</w>
mso:military.unit. formed</w>
mso:military.armed_for ce.
mso:military.armed_force. units</w>
mso:medicine.disease .
mso:media_common.video _off
mso:media_common.video_off er.
mso:measurement_ unit.integer_range.
mso:location.location. judicial_
mso:location.location.judicial_ capital</w>
mso:film.act or.performance</w>
mso:award. competitor.
mso:award.competitor. competi
mso:aviation. aircraf
mso:amusement_parks.ride. height_
mso:amusement_parks.ride.height_ restriction</w>
mountain_ range</w>
mil es</w>
me th
ma ster</w>
lockhe ed</w>
lawren ce</w>
khe imer</w>
hor kheimer</w>
her o</w>
her o
he art</w>
ha t</w>
h ms</w>
ge l</w>
g y
em ent_
d ney</w>
comp u
ca t</w>
b o</w>
aver age</w>
ate n
at t
anni hi
ange les</w>
an dy</w>
am ent</w>
_p la
_ value</w>
_ elevation</w>
40 9</w>
201 2
11 409</w>
/ 2014</w>
.re staur
vi s</w>
vi a</w>
ve y</w>
ve gas</w>
th at</w>
ted_work. adap
ted_work.adap tations</w>
spiel berg</w>
sion .
si bl
set ting</w>
sa la
produc tion</w>
produ ct
pp i</w>
pow er</w>
pe a
mso:soccer.team_manag ement_
mso:soccer.team_management_ tenure.
mso:religion.religious_ organization.
mso:media_common. adap
mso:media_common.adap ted_work.adaptations</w>
mso:geography.river.basin_ country</w>
mso:food.recipe.reci pe_ingredi
mso:book.poem.po em
mso:book.poem.poem _character</w>
mso:boats.ship.ship _builder</w>
mso:architecture.lightho use
mil ler</w>
ma in</w>
la ure
jo se</w>
issu e.
is i
indi ana</w>
igh ts</w>
hom o</w>
h au
gre y</w>
go als</w>
fre d
fal con</w>
f air
ele ction_
dar k</w>
d d</w>
d ,</w>
com mon</w>
co lu
book s</w>
ber n
ature _
atlan ta</w>
ati ve</w>
ath an</w>
ar n
annihi lation</w>
an ti
a bo
2 7
- 2</w>
wing span</w>
w y
visual_ artist.
vi den
vac ant_
v i</w>
tre k</w>
ton _
sun g</w>
sponsor .space_
sponsor.space_ program
sponsor.space_program s_sponsored</w>
sp ark
roll er_co
ro e</w>
rela y.
re tur
re e
r ing
progra m_
program_ sponsor.space_programs_sponsored</w>
p un
p ap
orchestr ator</w>
on ly</w>
of f
of _stu
n ing
my ster
mso:visual_art. visual_artist.
mso:tv.series_season .regular
mso:theater.play. orchestrator</w>
mso:spaceflight.space_ program_sponsor.space_programs_sponsored</w>
mso:organization. committe
mso:olympics.tor ch_
mso:olympics.torch_ relay.
mso:olympics.games. host_c
mso:olympics.games.host_c ity</w>
mso:location.census_district.total_ vacant_
mso:loc ation
mso:geography.mountain. mountain_range</w>
mso:film. content_rating
mso:chemistry.chemical_element.electron eg
mso:chemistry.chemical_element.electroneg ativity</w>
mso:book. journ
mso:biology.organism_classification. max_speed</w>
min al</w>
men 's</w>
m ine</w>
lan d_
l ies</w>
j ar
i v</w>
ho me
har rison</w>
han ks</w>
gre en
govern ment</w>
g am
fran ce</w>
fo x</w>
fo ur</w>
field_ of_stu
dio s</w>
dar ke
d -
competitor_ country_
co pe</w>
cleve land</w>
classific ations</w>
ch ev
calci um</w>
c ric
c _
build ing</w>
bud get</w>
bu l
bon us</w>
af ter</w>
ac tion_
5 0</w>
3 _
2 .0</w>
10 _
1 8</w>
.po st
war t</w>
w in</w>
the ory</w>
tex as</w>
te les
sto ck</w>
ste wart</w>
speci al</w>
sor vino</w>
si mp
sh ut
secre t</w>
se s</w>
se s
s k</w>
s ite</w>
ru ise
ruise _speed</w>
ro ger</w>
rele ase</w>
ra il
r- mso:film.character.film</w>
r i</w>
produc t</w>
prin cess</w>
pot ter</w>
park ,</w>
notable_ animal</w>
mso:zoos.zoo. notable_animal</w>
mso:transportation.road. major_
mso:transportation.road.major_ cities</w>
mso:people.romantic_ relationship.
mso:people.deceased_person.date_of _burial</w>
mso:organization.role. leaders</w>
mso:government. election
mso:cv g
mso:computer.programming_language _designer.
mso:computer.programming_language_designer. language
mso:computer.programming_language_designer.language s_designed</w>
mso:computer.computer. manufacturer
mso:computer.computer.manufacturer _brand</w>
mso:chemistry. isoto
mso:chemistry.isoto pe.
mso:biology.animal. height</w>
mso:aviation.aircraft_model. wingspan</w>
mso:aviation.aircraft_model .c
mso:aviation.aircraft_model.c ruise_speed</w>
mso:architecture.structure.con tractor</w>
ms r
mon t
mississi ppi</w>
michig an</w>
match_particip ation</w>
ma d</w>
m tv</w>
li a</w>
john ny</w>
is ton</w>
hu man</w>
ger man</w>
gen e
g len</w>
fol low
f fe
ent ly</w>
dead line</w>
darke st</w>
clas sic</w>
cke t</w>
chie f
ch in
cent re</w>
car din
ca r</w>
c er</w>
as cent</w>
ark an
air lines</w>
ab stra
a stronomical_
_squ are_
:_ the_
4 _
3 6
10 0</w>
1 _
z er</w>
ti ci
star _
spe ct
space _square_
space_square_ meters</w>
social_network_ user</w>
sh ort</w>
s u</w>
s _discovered</w>
ro ss</w>
ri ous</w>
rela ted_
re siden
ra m</w>
phon e_number</w>
p arty</w>
or_ space_square_meters</w>
object s_discovered</w>
ob ama</w>
ne bu
mso:tv.regular_tv_appearan ce.program</w>
mso:travel.de stination.
mso:theater.production. director</w>
mso:spaceflight.satellite.launch _date</w>
mso:music.artist. record_label</w>
mso:local.entity.preferred_ phone_number</w>
mso:geography.mountain. date_of_first_
mso:geography.mountain.date_of_first_ ascent</w>
mso:geography.lake. length</w>
mso:event.agent. social_network_user</w>
mso:chemistry.chemical_compound. classifications</w>
mso:chemistry.chemical_compound. average
mso:chemistry.chemical_compound.average _mo
mso:chemistry.chemical_compound.average_mo lar
mso:chemistry.chemical_compound.average_molar _mass</w>
mso:broadcast. conten
mso:broadcast.conten t.
mso:boats.ship_class. length_over
mso:boats.ship_class.length_over all_
mso:boats.ship_class.length_overall_ m</w>
mso:award.long_list_nomination. nominated_work</w>
mso:aviation.aircraft_model. manufacturer</w>
mso:amusement_parks.ride .park</w>
mso:amusement_parks. roller_co
mit ch
mc go
mar ia</w>
ma il</w>
lin d
le d_
king s
je sus</w>
io us</w>
ine _
if a_world_
ich iro</w>
hol der</w>
gen e</w>
gar den</w>
g lo
f ather</w>
ex p
e a
dow n</w>
do ors</w>
disciplinary_ ac
d ame</w>
colu mb
c lim
an iston</w>
ad ri
ad o
a i</w>
a 3
_f ifa_world_
200 7</w>
x_ fil
x_fil ing
x_filing _form.
x_filing_form. deadline</w>
we e
wat ch</w>
u de_
tr e</w>
ti um</w>
t_ rocke
t_rocke t_
t_rocket_ engine.
t _de
stu dios</w>
stronom er.
stronomer. astronomical_
stronomer.astronomical_ objects_discovered</w>
st ,</w>
sar ah</w>
sam sung</w>
re ligious_
religious_ organization_
religious_organization_ leadership</w>
radi o</w>
pro pel
propel lan
propellan t_rocket_engine.
p ublic</w>
or son</w>
on a</w>
museu m
mul us</w>
mso:transportation.road. formed</w>
mso:spaceflight. bi
mso:spaceflight.bi propellant_rocket_engine.
mso:religion.religious_organization. religious_organization_leadership</w>
mso:government.position_held.office_ holder</w>
mso:finance.income_ta x_filing_form.deadline</w>
mso:astronomy.star. star_system</w>
mso:astronomy.astronomical_discovery.discover y_
mso:astronomy.a stronomer.astronomical_objects_discovered</w>
mcgo wan</w>
li x</w>
k s
k in</w>
is _
hor se</w>
ha y
h ub
g ina</w>
fe l
ev er</w>
er a</w>
dep art
cu mulus</w>
cop per</w>
condi tion
company_ product_
co ck</w>
chic ago</w>
charact er_
ch en</w>
bo ur
bil ly</w>
be aut
awar d_for
app le</w>
all s</w>
ali e</w>
_ma y
_de p
4 9</w>
- class</w>
y d</w>
x i</w>
work _of_f
work_of_f ic
work_of_fic tion.
work_of_fiction. setting</w>
w s</w>
vention_fact or
vention_factor s.
vention_factors. condi
vention_factors.condi tions_
vention_factors.conditions_ this
vention_factors.conditions_this _may
vention_factors.conditions_this_may _pre
vention_factors.conditions_this_may_pre vent</w>
use d</w>
to p</w>
ss a</w>
sports_playe d_
sports_played_ profession
sports_played_profession ally</w>
soc iety</w>
si mon</w>
sh ell</w>
se t</w>
s i</w>
re mi
re ligion
pro te
phan tom</w>
ph one</w>
ow n</w>
ol e</w>
ob serv
mso:transportation.road. length</w>
mso:theater.play. lyricist</w>
mso:sports.pro_athlete. sports_played_professionally</w>
mso:sports.competitor_competition_relationship. rank</w>
mso:soccer.team_manag er.
mso:soccer. match
mso:music.release _tra
mso:music.release_tra ck.
mso:medicine. condition
mso:medicine.condition _pre
mso:medicine.condition_pre vention_factors.conditions_this_may_prevent</w>
mso:location.location. legisla
mso:location.location.legisla tive_capital</w>
mso:government. legislative_
mso:fictional_universe. work_of_fiction.setting</w>
mso:basketball. team.
mso:american_football.player_passing_statistics. season</w>
megh an</w>
m s_
ly n</w>
lon do</w>
lis a</w>
la _
kenne dy</w>
k u</w>
johan sson</w>
ing _f
hol ly
h t
g il
fri ends</w>
form er_
f -1
eag le</w>
e cho</w>
ch e</w>
athle tics</w>
ar ena</w>
ap poin
al bert</w>
ac celer
a va
a b</w>
8 1</w>
8 /
6 5</w>
3 9</w>
.post al_
' t</w>
wol f</w>
v on</w>
ur u
united_ state
tra in</w>
to ur</w>
tions_ won</w>
th omp
thomp son</w>
tal es</w>
t. manufacturer</w>
statistic s</w>
spiri t</w>
space craf
spacecraf t.manufacturer</w>
sig nific
signific ant</w>
shut tle</w>
ship_ type</w>
se ven</w>
s cen
phy sic
philadelph ia</w>
per man
ori ent
number_of_ grand_sla
number_of_grand_sla m_
number_of_grand_slam_ titles</w>
mso:visual_art.artwork. date_be
mso:visual_art.artwork.date_be gun</w>
mso:tennis.player. number_of_grand_slam_titles</w>
mso:sports.sports_team_roster. number</w>
mso:spaceflight.astronaut.space_ agency</w>
mso:spaceflight. spacecraft.manufacturer</w>
mso:martial_arts.martial_artist.martial_ art</w>
mso:government. agency.
mso:geography. glaci
mso:conferences.academic_conference. abstra
mso:conferences.academic_conference.abstra ct
mso:conferences.academic_conference.abstract _due_date</w>
mso:computer.computer. key
mso:computer.computer.key _design
mso:computer.computer.key_design ers</w>
mso:chemistry.chemical_element.atom ic
mso:chemistry.chemical_element.atomic _mass</w>
mso:book.editorial_tenure. editor</w>
mso:award.competitor.competi tions_won</w>
mso:aviation.airport. i
mso:aviation.airport.i ata</w>
mso:aviation.aircraft_model. length_
mso:aviation.aircraft_model.length_ meters</w>
mso:american_football.player_receiving_statistics. team</w>
metho d</w>
me an
mag ne
ma ver
ki ds</w>
je ff</w>
ja me
indu str
in fan
in -
im ent</w>
ight_ song</w>
ie t
ho ward</w>
ho st</w>
heart break</w>
hall _of_f
hall_of_f a
h ill
gi e</w>
georg ia</w>
fac e</w>
edi tions</w>
econom y_
die _
di n</w>
di ana</w>
cu lt
co pp
cinem a</w>
cent ury</w>
be t
b on</w>
b c</w>
ation_ in_
at or
art s_
ar man
ap o
anth ony</w>
a il
_f inal_
8 9
7 1</w>
4 5</w>
3 2</w>
2 2</w>
y ing</w>
work s</w>
w iz
w ine.
vic h</w>
ur al_
univers al</w>
ue fa</w>
tr y</w>
tive_ ingredi
tive_ingredi ents</w>
th em
th a</w>
temper ature_
temperature_ k</w>
t_de stination</w>
secon d</w>
s v
ry p
ric h</w>
ra y
ps 10_
ps10_ 4</w>
port ra
play er</w>
pi er
perman ently</w>
perio ds_
periods_ or_movem
periods_or_movem ents</w>
olympi ad</w>
olympi a</w>
nor th
ne er
mur phy</w>
mso:visual_art.visual_artist. associated_
mso:visual_art.visual_artist.associated_ periods_or_movements</w>
mso:tv.series_season.regular _cast</w>
mso:tv. network
mso:sports.competitor_competition_relationship. country</w>
mso:spaceflight.space_program. completed</w>
mso:soccer.team_manag er_
mso:soccer.team_manager_ match_participation.
mso:medicine.drug_brand. ac
mso:medicine.drug_brand.ac tive_ingredients</w>
mso:location.sovereign. fi
mso:location.sovereign.fi ps10_4</w>
mso:loc al
mso:local .restaur
mso:games.game. origin</w>
mso:chemistry.chemical_compound. den
mso:chemistry.chemical_compound.den sity</w>
mso:biology.organism_classification. low
mso:biology.organism_classification.low er_classification</w>
mso:award.long_list_nomination. year</w>
mso:aviation.aviation_incident_aircraft_relationship. fligh
mso:aviation.aviation_incident_aircraft_relationship.fligh t_destination</w>
mso:astronomy.star. temperature_k</w>
mso:astronomy.galaxy. constellation</w>
mso: statistics.
mcdon nell</w>
mar i
m ine
lyn ch</w>
li s</w>
lan ds</w>
la y
kn ight</w>
ke e
k is
je ss
ja ke</w>
in fluen
he im</w>
h ia</w>
ge s</w>
fu rious</w>
fre y</w>
fran k
flori da</w>
execu tive</w>
en z
dv d</w>
distri bu
co ll
cho co
cent a
cast le</w>
car ol</w>
car ano</w>
bo ys</w>
bo x</w>
b al</w>
arkan sas</w>
ari o</w>
aqu ari
amaz ing</w>
advent ures</w>
a mb
_di re
4 1</w>
4 /1
wor d</w>
wal ter</w>
w here</w>
un a</w>
th in
sy dney</w>
sh ort
scar lett</w>
ro se
r ings</w>
pi rates</w>
p ie
ori ent</w>
or ion</w>
o d
ne _
nat alie</w>
mso:zoos.zoo .closed</w>
mso:time.recurring_event. date_of
mso:time.recurring_event.date_of _final_
mso:time.recurring_event.date_of_final_ occurance</w>
mso:theater.production. date_
mso:theater.production.date_ opened</w>
mso:sports.sports_team_roster. to</w>
mso:sports.competitor_competition_relationship. medal</w>
mso:geography.lake. width</w>
mso:event. event
mso:common. attribu
mso:common.attribu tion.
mso:book.scholarly_ work.
mso:biology.organism. children</w>
mso:biology.animal_ breed
mso:biology.animal. body_
mso:biology.animal.body_ length</w>
mso:amusement_parks.park. closed</w>
mi r</w>
m uni
las h</w>
l .</w>
jon athan</w>
indi an
h ound</w>
gir ls</w>
g one</w>
g au
fie d</w>
ex chan
e viden
e lla</w>
du ty</w>
don na</w>
do w</w>
der ek</w>
de sig
conten t</w>
chen g</w>
cap e</w>
c l
bu ll
bro w
bloo d</w>
beaut y</w>
be ck
at _b
arman do</w>
ar m
ab le_
a wa
_bro ad
5 .
2 1</w>
/19 9
- 5
y _p
wil son</w>
wil d
wic ked</w>
whe n</w>
wal ker</w>
vari ation</w>
ure. religion
ure.religion _founded</w>
tr u
ton s</w>
tom b</w>
symbol .
stock_ticker_ symbol.
stin g</w>
squ are</w>
sp ar
sh u
school _
school_ or_movement</w>
s au
rob in</w>
ro let</w>
ri ver
re lig
relig ion</w>
re ad</w>
ra tion</w>
pe_ var
pat rick</w>
par ents</w>
p sy
p le
oxi de</w>
neer thal</w>
ne p
n is
mso:zoos.zoo. opened</w>
mso:sports.team. f
mso:sports.team.f ight_song</w>
mso:sports.pro_sports_played. sport</w>
mso:religion .
mso:religion. found
mso:religion.found ing_f
mso:religion.founding_f ig
mso:religion.founding_fig ure.religion_founded</w>
mso:music.concert. concert_set_
mso:music.concert.concert_set_ list</w>
mso:military.service. armed_force</w>
mso:medicine.drug.drug _class</w>
mso:government.poli tici
mso:film.film. color</w>
mso:education.education. minor</w>
mso:business. stock_ticker_symbol.
mso:book.written_work. school_or_movement</w>
mso:biology.animal_breed .place_of_
mso:biology.animal_breed.place_of_ origin</w>
mso:astronomy.orbital_relationship.orbital_ order</w>
mon roe</w>
mitch ell</w>
me l</w>
manufacture d</w>
ma ze</w>
ma ch
m p</w>
lo sses</w>
la bel
k ap
jim my</w>
jess ica</w>
ject _
it ch</w>
ho w</w>
h o</w>
h il
gra pe_var
gen der</w>
g at
fran cis
f u</w>
f on
e ll
distric t</w>
dam me</w>
copp ola</w>
con ne
commonweal th_
clim ate</w>
cir cle</w>
chev rolet</w>
bi e</w>
b ron
b an</w>
ation _date</w>
appearan ce</w>
appearan ce.
alex ander</w>
al u
al fred</w>
abo ut</w>
a i
_d ev
6 6</w>
3 8</w>
2 4
199 6</w>
' _
z el
y p
wor l
wic k</w>
wal t</w>
tur key</w>
tro pic
trail .
tou ch
the _f
t wil
sulf ur</w>
sub mission
submission _due_date</w>
stud ents</w>
s_ :_
ra n</w>
program me</w>
oo r</w>
oc cu
n ile</w>
mso:tv.program. number_of_
mso:transportation. trail.
mso:sports.sports_team_roster. from</w>
mso:sports.champion ship.
mso:spaceflight.astronaut.space_ mission</w>
mso:music.instrument. family</w>
mso:music.album. length</w>
mso:medicine.manufactured_drug_form. label
mso:geography.island.max_ width</w>
mso:conferences.academic_ conference
mso:conferences.academic_conference .p
mso:conferences.academic_conference.p ap
mso:conferences.academic_conference.pap er_
mso:conferences.academic_conference.paper_ submission_due_date</w>
mso:business. issue.
mso:book.place_of_publication_perio d.
mso:book.place_of_publication_perio d
mso:book.place_of_publication_period .place_of_publication</w>
mso:biology.animal_ bre
mso:biology.animal_bre ed.
mso:baseball.batting_statistics.sacrific e_
mso:baseball.batting_statistics.sacrifice_ hits</w>
mo ved</w>
mo ore</w>
mir a</w>
mi ami</w>
mercur y</w>
membership_ eviden
mar ch</w>
ma y</w>
ma c</w>
m i</w>
la w</w>
k it
in duction</w>
hu dson</w>
han na
group_ membership_eviden
gre g</w>
g lu
fir st
f ast</w>
ever y
element ary</w>
e vil</w>
di an</w>
d_ at
d t</w>
commonwealth_ games</w>
bat tle
bas ket
b ing</w>
b ack
austr alia</w>
as se
ar i</w>
al len</w>
ag a</w>
a er
_ ,_
3 /
00 .0</w>
.produ ct_
’ s</w>
z inc</w>
yo ur
x 4</w>
wor ship.
w e</w>
vir us</w>
vi en
version _due_date</w>
v s</w>
ts_ manufactured</w>
tre e</w>
the _b
t us</w>
t ale</w>
st e</w>
space craft</w>
so und</w>
sn ow
ship_ relationship.
sh an
sea _
sea_ level</w>
se ll
ru n</w>
rocke ts_manufactured</w>
ri m</w>
re .film</w>
ph i</w>
pen gu
or bit</w>
oper ator</w>
official_ tenure.
observ atory</w>
munic ip
mso:zoos.zoo.nu m
mso:zoos.zoo.num _spe
mso:zoos.zoo.num_spe cies</w>
mso:tv.series_season. from</w>
mso:statistics. econom
mso:statistics.econom ic_
mso:statistics.economic_ group.
mso:sports. official_tenure.
mso:spaceflight.rocket_engine.isp_ sea_level</w>
mso:spaceflight.rocket_engine. dia
mso:spaceflight.rocket_engine.dia meter</w>
mso:spaceflight.rocket_ manufacturer.
mso:spaceflight.rocket_manufacturer. rockets_manufactured</w>
mso:soccer.play er
mso:religion .place_of_
mso:religion.place_of_ worship.
mso:people. kin
mso:people.kin ship_relationship.
mso:food.food. nutri
mso:film.gen re.film</w>
mso:conferences.academic_conference. final_
mso:conferences.academic_conference.final_ version_due_date</w>
mso:commerce.bran d_col
mso:commerce.brand_col or.
mso:commerce.bran d.
mso:book.poem.po e
mso:book.poem.poe tic_
mso:automotive.automotive_class. doors</w>
mso n</w>
mi t</w>
metr o</w>
managem ent</w>
main tower</w>
magne sium</w>
ma tion</w>
ma l</w>
m us
m ph
loc al_
lin a</w>
light ning</w>
k no
jo an</w>
ja y</w>
izz ard</w>
in dep
gi on
g io
g d
eng land</w>
em ma</w>
ed die</w>
dis ne
d s
d ale</w>
compu ter</w>
c ity
bre ak
be ar</w>
at las</w>
ange l</w>
and rome
am ph
age .
administra tion</w>
a d_p
_d ur
3 4</w>
y ang
y -
x ton</w>
work. former_
work.former_ na
work.former_na mes</w>
ude_ m</w>
u k
twil ight</w>
ti sta</w>
th y</w>
structure _s
structure_s miles</w>
sp oon</w>
si z
si x</w>
sh el
se ar
sa bat
sabat hia</w>
row ing_team</w>
rece p
rab bit</w>
r ub
r ie
poo l</w>
p y
p lan
on line</w>
om s</w>
ni k</w>
new s</w>
net work.former_names</w>
net t</w>
n ob
municip al</w>
mso:tv. network.former_names</w>
mso:transportation.bridge. width</w>
mso:soccer.player_loan. bor
mso:soccer.player_loan.bor rowing_team</w>
mso:soccer.player. lo
mso:soccer.player.lo ans</w>
mso:projects.project_participation. from_date</w>
mso:military.service. from_date</w>
mso:meteorology.cloud. maximu
mso:meteorology.cloud.maximu m_altit
mso:meteorology.cloud.maximum_altit ude_m</w>
mso:geography.water fall</w>
mso:geography.moun tain</w>
mso:fictional_universe. object.
mso:chemistry.chemical_compound. structure_smiles</w>
mso:boats.ship _designer.
mso:biology.fossil_specimen. foun
mso:biology.fossil_specimen.foun d_at
mso:biology.fossil_specimen.found_at _site</w>
mso:biology.fossil_specimen. date
mso:biology.fossil_specimen.date _discovered</w>
mso:baseball.player. hall_of_fa
mso:baseball.player.hall_of_fa me_
mso:baseball.player.hall_of_fame_ induction</w>
mso:astronomy.star_system. constellation</w>
marg are
mar io</w>
local_ entity</w>
lin k</w>
ke l
k ings</w>
k h
j on</w>
j o</w>
indi an</w>
hit ch
gu y</w>
gener al_
ga b
g ru
g m
en ix</w>
e c
don ald</w>
distribu tion</w>
cy to
cri minal</w>
ci l</w>
chem ical</w>
che ss</w>
car rey</w>
ball _
as h</w>
am in
all i
4 8
2009 _nfl_season</w>
199 9</w>
% 3
ボ ブ
ボブ サ
ボブサ ッ
ボブサッ プ
y t
y n</w>
wh ite
w om
version s</w>
ve hic
ve d_
v re</w>
v on
ura l</w>
ur o</w>
tv _per
tv_per formance_type</w>
tra il</w>
total_ goals</w>
tion_fact .
ti cke
th is</w>
th an
teles cope</w>
taine er.
taineer. first_as
taineer.first_as c
taineer.first_asc ents</w>
t ag
speci al_
special_ tv_performance_type</w>
ski able_
skiable_ area</w>
series. chemical_
series.chemical_ element</w>
sa v
s na
rush ing_statistics</w>
ron ald</w>
ric o</w>
ri p
r y_
qu est
pe d</w>
p rice</w>
p oli
p _st
p_st yle</w>
on d</w>
o ur</w>
nomine e</w>
no lan</w>
ni um</w>
muni z</w>
mso:zoos.animal_captivity. animal</w>
mso:tv.regular_tv_appearance. special_tv_performance_type</w>
mso:travel.destination. climate</w>
mso:tennis.player. gri
mso:tennis.player.gri p_style</w>
mso:sports.sports_team_roster. appearances</w>
mso:sports.competitor_competition_relationship. team</w>
mso:spaceflight.rocket. mass</w>
mso:soccer. team.
mso:skiing.ski_area. skiable_area</w>
mso:opera.opera. date_written</w>
mso:martial_arts.martial_artist.martial_ arts_
mso:martial_arts.martial_artist.martial_arts_ students</w>
mso:law. judicial_
mso:law.judicial_ tenure.
mso:government.position_held. governmental_
mso:government.position_held.governmental_ body</w>
mso:government.election _pol
mso:government.election_pol l
mso:geography.moun taineer.first_ascents</w>
mso:food.nutrition.nutri ent_
mso:food.nutri tion_fact.
mso:film.film_son g_
mso:fictional_universe.character. weight</w>
mso:fictional_universe.character. character_
mso:chemistry.chemical_ele ment</w>
mso:chemistry.chemical_ series.chemical_element</w>
mso:business. acqu
mso:business.acqu isi
mso:business.acquisi tion.
mso:book.newspaper. owner</w>
mso:boats.ship_class. ship_type</w>
mso:biology.gen e_
mso:biology.animal. life
mso:biology.animal.life span</w>
mso:baseball.batting_statistics. games</w>
mso:award.long_list_nomination. nominee</w>
mso:award.category. long_list_
mso:award.category.long_list_ nomination</w>
mso:aviation.aircraft_model. range</w>
mso:amusement_parks.roller_co aster.
mso: engineer
min o
m org
m l</w>
m all</w>
le s_
ju lie</w>
je f
j an</w>
it s</w>
h ood</w>
ger ald</w>
gar den
g len
g ate</w>
feature s</w>
dis h</w>
dex tro
de an</w>
conn ors</w>
be e
basket ball</w>
bas e</w>
b ic
b ad</w>
ave ,</w>
ava ila
ari ane</w>
anim als</w>
ang le</w>
ad er</w>
ac cep
_cre mation</w>
8 9</w>
8 7</w>
.p ric
z y</w>
z en
yo u
yel low</w>
year s</w>
yang t
yangt ze</w>
y. sub
x x_
win s</w>
ur an
touch downs</w>
them e</w>
tenure .position</w>
ta _
t to</w>
t ol
supp or
su gar</w>
spark notes</w>
so x</w>
sil ver
se quel</w>
scor e</w>
s se</w>
ro u
read ing
reading _po
reading_po ints</w>
re_ ran
re_ran king.
rai der</w>
r d</w>
quest _dire
quest_dire ctions</w>
pengu in</w>
pa xton</w>
p ur
p ad
o z</w>
nat alie
n ie
mso:tv.network _dur
mso:tv.network_dur ation.
mso:tv.network_duration. network</w>
mso:statistics.population_ group
mso:sports.team. sport</w>
mso:sports.sports_team_coach_ tenure.position</w>
mso:sports.championship. league</w>
mso:spaceflight.rocket. maiden_flight</w>
mso:projects.project_participation .pro
mso:projects.project_participation.pro ject_
mso:projects.project_participation.project_ role</w>
mso:organization.role. govern
mso:organization.role.govern ors</w>
mso:opera.opera. date_of_first_performance</w>
mso:location.sovereign. form
mso:location.sovereign.form _of_
mso:location.sovereign.form_of_ government</w>
mso:location.location.re quest_directions</w>
mso:local.entity. ma
mso:local.entity.ma ke_
mso:geography.island.max_ length</w>
mso:games.game .introduced</w>
mso:film.gen re_ranking.
mso:film.film. estimated_
mso:film.film.estimated_ budget</w>
mso:cvg.computer_videogame. sequel</w>
mso:business. employ
mso:business.employ er.
mso:book.written_work. acceler
mso:book.written_work.acceler ated_
mso:book.written_work.accelerated_ reading_points</w>
mso:book.book. editions</w>
mso:architecture.lighthouse .
mir ror</w>
me tropolit
mag ic
m in</w>
la u
l ut
kings man</w>
k ryp
k ill</w>
k are
k .</w>
jame s_
j .
it al_
is s
inve st
ig e
ic k
her man</w>
h at
fut ure</w>
fl ic
fic tion</w>
fi ve</w>
f l</w>
ele ction</w>
e k
e ast
downlo ad_p
dic k</w>
d il
consumer_ product</w>
concer t</w>
con tribu
comple te</w>
clar k</w>
ce l
c ase</w>
bus h</w>
bon d</w>
bo at
ber a</w>
ather ine</w>
an ts</w>
al one</w>
al ity</w>
9 5
6 7</w>
6 4</w>
4 2</w>
3 1</w>
200 2</w>
z y
xx_ commonwealth_games</w>
wh o</w>
w hat</w>
w .</w>
vo ice</w>
uni on</w>
trans fer</w>
tion_f act</w>
ten ne
targ et
target _dev
target_dev ice</w>
t at
subject. film</w>
star_ war
spon sor</w>
solu tion</w>
sm all</w>
sil ent</w>
season s</w>
sear ch</w>
s c</w>
retur n</w>
read y</w>
re ed</w>
rd -10
ra _
portra it</w>
pi ano</w>
p c</w>
p aten
offic e</w>
of fer
no te
nebu la</w>
n g</w>
music al</w>
mso:visual_art.artwork.art_ genre</w>
mso:transportation. bridge</w>
mso:sports.pro_sports_played. career_
mso:ratings.rated_entity. rating</w>
mso:rail.railway. opened</w>
mso:radio.radio_program. first
mso:radio.radio_program.first _broad
mso:radio.radio_program.first_broad cast</w>
mso:food.recipe_ingredient. ingredi
mso:food.recipe_ingredient.ingredi ent</w>
mso:film. subject.film</w>
mso:boats.ship.ship _class</w>
mso:biology.organism. parents</w>
mso:award.competition. type</w>
mso:automotive.automotive_class. msr
mso: cric
morg an</w>
mig uel</w>
met al</w>
memb ership</w>
me mor
k em
je ter</w>
ite r</w>
h n</w>
gall ery</w>
g g
for m.
er t</w>
el der</w>
e sp
dru g</w>
davi s</w>
cti ve</w>
cre w</w>
co lo
ch ron
ch arg
cana da</w>
c li
c al</w>
bun ning</w>
bo mb
be an</w>
awa ken
app a</w>
an ce_
_fifa_world_ cu
9 0
4 x4</w>
2 /
1/1/19 5
1 .0</w>
/1 8
- 1</w>
won der
vit amin</w>
ven us</w>
vac u
vacu um</w>
v .</w>
ur s</w>
u ary</w>
tri m_
tournament_ event_
th ings</w>
th i
th ames</w>
ter ror</w>
ten do</w>
temper ament</w>
te ll
stu art</w>
stron g</w>
stan ford</w>
so ph
so da</w>
sel f</w>
s r</w>
s _de
s _d
rus sell</w>
run time_minutes</w>
ro ma</w>
re agan</w>
r-mso:film.festival_event. venue</w>
orig inal</w>
on _b
ody sse
ny c</w>
nin tendo</w>
mso:theater.play. composer</w>
mso:film.film. runtime_minutes</w>
mso:fictional_universe.character. height</w>
mso:cvg.computer_videogame .pre
mso:cvg.computer_videogame.pre quel</w>
mso:chemistry.chemical_element. chemical_
mso:chemistry.chemical_element.chemical_ series</w>
mso:biology.gene. gen
mso:biology.animal_breed. temperament</w>
mso:award.award. category</w>
mo dine</w>
mo bil
mic he
metropolit an</w>
mar sh
ma de</w>
log y_
line _
li ver
li um</w>
lead er</w>
le y
ja co
j i_
is t_
imag ine</w>
ig n</w>
i k
hor ror</w>
hin d</w>
fre e
fl y</w>
ff y</w>
f ury</w>
ex ten
e a</w>
e _de
e ,</w>
duc k</w>
do gs</w>
de s
de la
da wn</w>
d eric
cra w
con gre
comb at
christi an</w>
char lo
car l</w>
car bon</w>
c ub
bo ston</w>
be hind</w>
bau tista</w>
bar bera</w>
bar ack</w>
b s</w>
b lan
b ac
atlan tic</w>
athle te.
ate s</w>
at ors</w>
ass eng
arn old</w>
architect ure</w>
ar sen
anton io</w>
ang le_
andre as</w>
al o</w>
advent ure</w>
a ga
a ar
a a</w>
a ,</w>
_p ar
5 00</w>
4 7
197 4</w>
1/1/19 7
1 9</w>
-1 8</w>
ó n</w>
z el</w>
work .perio
work.perio d_
work.period_ or_movement</w>
wil is</w>
we st
w ers</w>
view er</w>
univer se</w>
tom _
th r
t ers</w>
stan ley</w>
spe ed_
span ish</w>
sou th
so me</w>
se x</w>
s_ s
ro me</w>
re gion
ra in
r h
produ ced</w>
pre siden
pr int</w>
port man
portman .com</w>
ph one
p ublish
p om
no .</w>
new_ yor
natalie portman.com</w>
n s
mso:visual_art.art work.period_or_movement</w>
mso:sports. competitor_country_
mso:sports.competitor_country_ relationship.
mso:spaceflight.satellite. launch_site</w>
mso:spaceflight.satellite. altit
mso:spaceflight.satellite.altit ude</w>
mso:spaceflight.rocket_engine. height</w>
mso:soccer.player .player_
mso:soccer.player.player_ transfer</w>
mso:organization.committe e_
mso:organization.committee_ membership.
mso:organization. spin_off
mso:organization. membership.
mso:law. cour
mso:law.cour t.
mso:language.human_ language.
mso:government.politici an
mso:government.politician .party</w>
mso:geography.waterfall. longest_
mso:geography.waterfall.longest_ height</w>
mso:geography.glaci er.
mso:food.recipe.recipe_ingredi ent</w>
mso:fictional_universe.character.character_ species</w>
mso:fictional_universe.character. organization</w>
mso:fictional_universe. date_
mso:commer ce
mso:book.perio d
mso:book.period ical_
mso:boats.ship_designer. boat
mso:boats.ship_designer.boat s_designed</w>
mso:astronomy.star. mass_
mso:astronomy.star.mass_ m</w>
mso: wine.
mso: computer.proces
mso:computer.proces sor
member _of_
mem ory</w>
me t</w>
mar in
m my</w>
lo ser</w>
lo gan</w>
k al
ing .p
in sur
il e
i er</w>
hor n</w>
hi o</w>
he d
h i</w>
h app
gu i
gre y
gra y</w>
gio van
g host</w>
frequenc y</w>
francis co</w>
for t</w>
f .</w>
enter p
en se</w>
en ce_
do do</w>
dig ital</w>
dan ube</w>
d iz
d b
cu l
c ad
book_ edi
blu es</w>
bl izzard</w>
bel t</w>
b m
b in
b -2
am y</w>
alie n</w>
ac y</w>
ab ra
a du
_f e
_distric t</w>
_c or
20 49</w>
2 2
. .</w>
y e</w>
wri ting</w>
winn ers</w>
view s</w>
velo p
v or
v as
um -
ti f
the_ sha
the_sha pe_of_
th ir
temp le</w>
tab let</w>
ta kes</w>
t ,</w>
str ang
stination. mission
stination.mission s_s
stination.missions_s ent_
stination.missions_sent_ here</w>
ste ven
star s</w>
st atus</w>
st al
softwar e</w>
soci al
sh in
serie s
series .publisher</w>
sco pe</w>
s_ at_
s ten
ro tation</w>
ro s</w>
ri x</w>
ra s
r he
r at
product .product_
presiden tial</w>
po st</w>
phili p</w>
per ry</w>
p us</w>
p ublic
p and
pand ora</w>
op ia</w>
op h
on es</w>
official_ webpage</w>
o t</w>
ning _work.
ning_work. honor</w>
net f
netf lix</w>
nel son</w>
ne il</w>
n on</w>
mur ray</w>
mso:visual_art.art_period_movement. en
mso:visual_art.art_period_movement.en ded_
mso:visual_art.art_period_movement.ended_ approximately</w>
mso:travel .
mso:spaceflight.satellite. dry_
mso:spaceflight.satellite.dry_ mass_
mso:spaceflight.satellite.dry_mass_ kg</w>
mso:spaceflight.rocket_engine.isp_ vacuum</w>
mso:spaceflight. mission
mso:spaceflight.mission _de
mso:spaceflight.mission_de stination.missions_sent_here</w>
mso:people.romantic_relationship. start_date</w>
mso:music. music_video
mso:government.agency. date_founded</w>
mso:geography.riv er</w>
mso:event.agent. official_webpage</w>
mso:cvg.computer_videogame .platform</w>
mso:commerce.consumer_ product.product_
mso:comic_books. series.publisher</w>
mso:chemistry. chemical</w>
mso:business. board_memb
mso:business.board_memb er.organization_board_memb
mso:business.board_member.organization_board_memb er
mso:business.board_member.organization_board_member ships</w>
mso:boats.ship_class. displace
mso:boats.ship_class.displace ment_
mso:boats.ship_class.displacement_ tons</w>
mso:boats.ship.ship _designer</w>
mso:award.win ning_work.honor</w>
mso:aviation.aircraft_model.aircraft_ engine
mso:aviation.aircraft_model.aircraft_engine _type</w>
mso:automotive.automotive_class. weight</w>
mso:astronomy.star. rotation</w>
mso:astronomy.asteroid. member_of_
mso:astronomy.asteroid.member_of_ asteroid_
mso:astronomy.asteroid.member_of_asteroid_ family</w>
mer ce
me ssi
me dic
margare t</w>
ma gnitude</w>
le vel
le no
l un
kn own</w>
ke .
ju li
je an
j am
inc lu
in_ this_
im pres
ie n</w>
i or_
hou ston</w>
he n</w>
he i
gol den
ge d_
ge d</w>
found ation</w>
fo cus</w>
fl or
exp lor
e _f
dre am
discover y</w>
de te
d ir
d ies</w>
d '
comple x
ci vil</w>
cas si
car rier</w>
camp bell</w>
ca spi
bre n
br a</w>
b or</w>
b ol
arg en
ar ies</w>
aquari um</w>
an t.
ak i</w>
ad :</w>
a o</w>
a in
_b y_p
6 /
3 3
2010 _fifa_world_cu
z z</w>
yn n</w>
ye n</w>
xi de</w>
works_ in_this_
works_in_this_ series</w>
wh it
w re
vo ir</w>
vio us
vious ly_
viously_ known
viously_known _
viously_known_ as</w>
vien na</w>
ver s
vehic le</w>
val er
usti n</w>
up on</w>
tri angle</w>
tor on
top ical</w>
to_ the_
thor pe</w>
t z
stu dio</w>
stru ction_
struction_ method</w>
star_war s_:_
stan t_
ss en
speed_ on_
speed_on_ orbit</w>
sk u
sh oo
s_ per_
ro ute</w>
ro oms</w>
ro l</w>
ri de</w>
ren t</w>
reg ina</w>
recep tions</w>
re staur
qu a
pu er
pre viously_known_as</w>
pla ce</w>
par ad
p .</w>
or ange</w>
operating _system</w>
op er</w>
ograph y</w>
object _de
object_de struction_method</w>
nit ro
nat ural</w>
mso:zoos.zoo.nu m_
mso:zoos.zoo.num_ animals</w>
mso:zoos.animal_captivity. from</w>
mso:tv. conte
mso:tv.conte stant_
mso:sports.team. previously_known_as</w>
mso:spaceflight.satellite. speed_on_orbit</w>
mso:ratings.rated_entity. review</w>
mso:music.concert_set_list. song</w>
mso:music.concert_set_list. artist</w>
mso:military.service. unit</w>
mso:media_com mon
mso:media_common .c
mso:media_common.c at
mso:media_common.cat alo
mso:media_common.catalo ged_
mso:geography.body_of_water. mean
mso:geography.body_of_water.mean _dep
mso:geography.body_of_water.mean_dep th</w>
mso:food.recipe.reci pe_
mso:fictional_universe.object. object_destruction_method</w>
mso:book.literary_series. works_in_this_series</w>
mso:biology.animal. mass</w>
mso:basketball.team. conference</w>
mso:baseball.batting_statistics. hit
mso:baseball.batting_statistics.hit _by_p
mso:baseball.batting_statistics.hit_by_p itch</w>
mso:award.category. winners</w>
mso:astronomy.celestial_object. magnitude</w>
mso:american_football.player_receiving_statistics. receptions</w>
mso:american_football.game. game_
mic hel
me dia
mar ket</w>
lu x
ll ini</w>
leno vo</w>
le tt
ky o</w>
k la
k an</w>
jer em
it al
international_ film_festival</w>
im a</w>
ili ad:</w>
i max</w>
ho me_
he dra
hedra l</w>
hand ler</w>
ham let</w>
h r</w>
h art
grey hound</w>
graph ic</w>
gr in
giovan ni</w>
g illi
fun tastic</w>
fro zen</w>
fre ed</w>
fort ress</w>
fan tastic</w>
face book</w>
exchan ge</w>
er e</w>
ent e</w>
election_ re
ed mon
e z</w>
e ast</w>
e _b
du g
dimen sion
die go</w>
di am
da ys</w>
d c</w>
credi t</w>
cre ek</w>
com mo
coll ins</w>
col or
cle f</w>
choco late</w>
ces sion</w>
car los</w>
ca pe_
c y.
c i</w>
battle ship</w>
bach el
b art
anima tion</w>
an no
am oun
ali an</w>
alexand ria</w>
al to
ag o
a way</w>
_p er_
8 6</w>
6 8</w>
6 .
4 3</w>
199 4</w>
x y
woo d
war e</w>
w_ rate</w>
w rin
w en
v ine</w>
un known</w>
ty pe
trans form
transform ers</w>
track_ length</w>
the_ last_
ter min
tenne sse
ta xi</w>
spar row</w>
sou thern</w>
sof ia</w>
sha ke
shake spe
school s</w>
school _district</w>
sch e</w>
s me
s li
rus sian</w>
ru s</w>
riv e</w>
ric har
reser voir</w>
reci pe</w>
re volu
re ll</w>
re d_
pri ze</w>
pr o</w>
phili pp
ph e
pe t</w>
pe ar
om ob
omob il
omobil es
omobiles _designed</w>
odysse y</w>
no tre</w>
ner. aut
ner.aut omobiles_designed</w>
name sa
na z
n -
mso:time.recurring_event. date_of_first_
mso:time.recurring_event.date_of_first_ occurance</w>
mso:organization.organization .phone_number</w>
mso:music.instrument. variation</w>
mso:meteorology.cloud. minimu
mso:meteorology.cloud.minimu m_altit
mso:meteorology.cloud.minimum_altit ude</w>
mso:geography.waterfall. flo
mso:geography.waterfall.flo w_rate</w>
mso:food.recipe .pre
mso:food.recipe.pre par
mso:chemistry.chemical_element.electron_ af
mso:chemistry.chemical_element.electron_af finity</w>
mso:chemistry.chemical_classification. low
mso:chemistry.chemical_classification.low er_classifications</w>
mso:business. company_product_
mso:book.editorial_tenure. title</w>
mso:book. magaz
mso:baseball.team. league</w>
mso:baseball.batting_statistics.sacrific e_f
mso:baseball.batting_statistics.sacrifice_f lies</w>
mso:baseball.batting_statistics. hits</w>
mso:award.ran king.
mso:aviation.aviation_incident_aircraft_relationship. aircraft_model</w>
mso:automotive .desig
mso:automotive.desig ner.automobiles_designed</w>
mso:astronomy.celestial_object. celestial_
mso:amusement_parks.roller_coaster. track_length</w>
mon t</w>
mis s</w>
mino sity</w>
minimu m_
mid dle</w>
mi a</w>
me di
mar y_
mar ie</w>
ma donna</w>
lu minosity</w>
la s_
kee per</w>
ke lly</w>
k ub
k im</w>
justi n</w>
juman ji_
jap an</w>
it o</w>
is en
io t</w>
ic o</w>
ic h</w>
hop e</w>
hol mes</w>
hitch cock</w>
hero es</w>
har vey</w>
hal f_
ha d</w>
h r
h e</w>
gra te
gor don</w>
gol d
glen n</w>
glas s</w>
gd p</w>
g lee</w>
g em
fro m_
fr ie
flo wer</w>
fi re
fe deric
fa ir</w>
f arg
ey e</w>
experi ence</w>
ev e</w>
episode_ vi
ele ction.
e o
dome stic</w>
do u
do s</w>
de e</w>
dal las</w>
d river</w>
d le
d h
con flic
com mun
chan nel</w>
centa uri</w>
cat hedral</w>
car ter</w>
c ris
bur n</w>
brook lyn</w>
brid ge
bo y
bo ard</w>
ber g
androme da</w>
and ro</w>
am ine</w>
alu min
al a</w>
a y_
a ustin</w>
_f in
_d ay
_categ or
_ work</w>
7 5
3 6</w>
2010_fifa_world_cu p_
1/1/200 9</w>
zel da</w>
z on
yanke es</w>
x_ )</w>
well s</w>
we in
vi c</w>
ve loc
ve ga</w>
us_ paten
us_paten t.
tra ck
to d</w>
tif fan
the_shape_of_ water</w>
t_ size</w>
t ta</w>
st at
sport s</w>
spi der
sme lls</w>
si e
sh in</w>
sh a</w>
sell ing_team</w>
s_in_ line</w>
s_ on_b
s_on_b alls</w>
ro d
ro b</w>
ri l</w>
regu lar</w>
reg iment</w>
ra w</w>
r-mso:film.festival_event. film</w>
qu in
puer to</w>
pol ice</w>
po p</w>
po i
pho enix</w>
ph illi
pea vy</w>
par amoun
p ine</w>
organism_classific ation_
organism_classification_ rank</w>
orbital_ speed</w>
on to
o hio</w>
ne ar
near by_
na m</w>
na iss
naiss ance</w>
n d
mso:zoos.animal_captivity. exhi
mso:zoos.animal_captivity.exhi bit</w>
mso:sports.sports_team_roster. total_goals</w>
mso:spaceflight.space_mission .space_
mso:spaceflight.space_mission.space_ program</w>
mso:soccer.player_transfer. selling_team</w>
mso:soccer. disciplinary_ac
mso:real_estate.house. nearby_
mso:ratings.review .re
mso:ratings.review .
mso:ratings.ra ting
mso:organization. relationship.
mso:music.track .play_
mso:medicine.manufactured_drug_form.label _
mso:medicine.drug.dru g_
mso:medicine.drug.drug_ leg
mso:medicine.drug.drug_leg al_
mso:medicine.drug.drug_legal_ status</w>
mso:law.court. judge</w>
mso:law. us_patent.
mso:internet.social_network_user. follow
mso:food.food.nutri tion_fact</w>
mso:event. action.
mso:event.action. action_
mso:event.action.action_ handler</w>
mso:education.school. school_district</w>
mso:cric ket
mso:chemistry.isotope. half_
mso:chemistry.isotope.half_ life</w>
mso:biology.organism_classification. organism_classification_rank</w>
mso:baseball.batting_statistics. base
mso:baseball.batting_statistics.base s_on_balls</w>
mso:baseball.batting_statistics. at_b
mso:baseball.batting_statistics.at_b ats</w>
mso:aviation.airport. operator</w>
mso:aviation.aircraft_model.aircraft_ type</w>
mso:aviation.aircraft_ line.
mso:aviation.aircraft_line. model
mso:aviation.aircraft_line.model s_in_line</w>
mso:automotive.automotive_class. fron
mso:automotive.automotive_class.fron t_
mso:astronomy.orbital_relationship. me
mso:astronomy.orbital_relationship.me an_
mso:astronomy.orbital_relationship.mean_ orbital_speed</w>
mso:astronomy.astronomical_discovery.discovery_ organization</w>
mon th</w>
mo use</w>
minneso ta</w>
min istr
mi c</w>
me asure
ma ster
ma s
m om
m ater
lo x</w>
lightho use</w>
li ving</w>
li on
laure n</w>
lar y</w>
la id</w>
l ight_
l i</w>
k ra
k appa</w>
ju lie
j oli
ist an</w>
issu e</w>
ir ing_
infan try</w>
hy de</w>
hon g</w>
he a
har t</w>
h t</w>
h im
gue st_
gri ff
glaci er</w>
garden s</w>
g .</w>
fre ed
fre e</w>
fl ying</w>
fer din
f ame</w>
every thing</w>
erson al_
e an</w>
e -
dro me</w>
do dge</w>
der ella</w>
d r</w>
cyto gene
craw ford</w>
commo d
come dy</w>
columb ia</w>
clin t</w>
chron ic
ch lor
ch and
carol ina</w>
c ut
c s</w>
c are
bri gh
br y
be ast
ba y
ba sti
b oro
b lon
b ach</w>
at ch
ar iz
ander son</w>
an n
al ong</w>
_fuel_ economy_
_ win
_ sum
6 3</w>
6 2</w>
2 _
10 1</w>
/1 /
._ /_
-1 2
zo mb
z il</w>
ym pic
ympic s</w>
wi tho
wa gen</w>
w is
vol ks
volks wagen</w>
vo y
vis ion
view_ action.
v amp
vamp ire</w>
un der</w>
u. s.
tun e</w>
trim_ level
trim_level .
tow n
tom my</w>
to kyo</w>
tive s</w>
time keeper</w>
thro ugh</w>
thin k
ter n
temp ts</w>
team_st ats</w>
symbol s.
symbols. namesa
symbols.namesa ke.
symbols.namesake. name
symbols.namesake.name d_
symbols.namesake.named_ after</w>
stu dy</w>
star_wars_:_ episode_vi
star_wars_:_episode_vi ii
star_wars_:_episode_viii _-_
star_wars_:_episode_viii_-_ the_last_
st roy
stroy er</w>
st and
sp ring
so ames</w>
sk a</w>
sig ma</w>
si m
sher lock</w>
sexual_ orient
se cession</w>
sala d</w>
roy ale</w>
ro oney</w>
ro o
ro man</w>
ri us</w>
ri d</w>
relation ship
rac ing</w>
ra h</w>
r uth</w>
r ine</w>
pre d
p ul
p ler</w>
p g
p -
organism_classific ation</w>
onto logy_
on y
of _date</w>
occu pan
o h</w>
o h
o ak
o '
number_of _b
nu t</w>
nor thern</w>
nep tune</w>
mso:tv.program.number_of_ episodes</w>
mso:tv. crew_
mso:statistics.population_ group.
mso:spaceflight.rocket_engine. dry_
mso:spaceflight.rocket_engine.dry_ mass</w>
mso:skiing.ski_area. base
mso:skiing.ski_area.base _elevation</w>
mso:real_estate.house. number_of_b
mso:military.service. rank</w>
mso:measurement_unit. measure
mso:measurement_unit.measure ment
mso:measurement_unit.measurement _system.
mso:measurement_unit. dimension
mso:law.us_patent. inventor</w>
mso:event. view_action.
mso:cvg .plat
mso:cvg.plat form.
mso:business.employment_tenure.employ er_
mso:business.employment_tenure.employer_ name</w>
mso:baseball.team_stats. season</w>
mso:baseball.team. team_stats</w>
mso:award.nomination. category</w>
mso:automotive.automotive_class. width</w>
mso:automotive.automotive_class. length</w>
mso:automotive. trim_level.
mso:architecture.build ing_
mso:architecture.building_ complex
mso:architecture.building_complex .
mso:amusement_parks.ride. theme</w>
mso:american_football.player_rushing_statistics. season</w>
mso:american_football.player.player_ rushing_statistics</w>
mso: symbols.namesake.named_after</w>
mr ._
min _
messi er</w>
me dium</w>
mar c</w>
ma d
m ing</w>
lind sey</w>
language s</w>
la ris</w>
l lo
k ent</w>
k am
k -
joli e</w>
j ac
isa ac</w>
i f</w>
hy dra
hy dr
ho sp
hanna -
hanna- barbera</w>
ha i</w>
h tt
gu sta
gar cia</w>
g ly
foo d</w>
fie l
ferre d</w>
fe n</w>
ea stern</w>
du ration</w>
dre w</w>
dre am</w>
dextro se</w>
de z</w>
de tro
de fen
da ily</w>
con cep
cin derella</w>
chic ken</w>
che ster</w>
char l
car bon
c ath
c all
c al_
c -
but ter
bo w
b eng
award_for _be
award_for_be st_
at tempts</w>
as_ of_date</w>
are s</w>
ar o</w>
ar a</w>
ange lina</w>
alumin um</w>
al ympics</w>
ag greg
ad ams</w>
a f</w>
_f amil
_c ity</w>
_b ridge</w>
4 /
199 5</w>
& _
year _
wrin kle</w>
wiz ard</w>
witho ut</w>
wel come_
welcome_ to_the_
w ing</w>
w b</w>
vers ary</w>
ver age
veloc ity</w>
val en
us and</w>
united_state s_
trans mission</w>
tiffan y</w>
tic al</w>
tho usand</w>
the ater</w>
th ie
tenure .party</w>
team_ season_recor
team_season_recor d</w>
te. month</w>
tab le</w>
syn drome</w>
sti g
st ro
st ance</w>
so lar</w>
scre en_
sc roll
residen tial_
rep ublic
re id</w>
rd ,</w>
ras sic</w>
po int</w>
pin k</w>
pe ace</w>
paramoun t</w>
parad ise</w>
oxi diz
oxidiz er
oxidizer _fuel_
oxidizer_fuel_ ratio</w>
ox y
or le
ontology_ group_membership_eviden
on ce</w>
om e</w>
no tific
new_yor k_
ne u
n on_
n ad
mso:visual_art.artwork.art_ subject</w>
mso:travel.destination_monthly_cli mate
mso:travel.destination_monthly_climate .a
mso:travel.destination_monthly_climate.a verage
mso:travel.destination_monthly_cli ma
mso:travel.destination_monthly_clima te.month</w>
mso:tennis .
mso:sports.team_season_record. season</w>
mso:sports.team. team_season_record</w>
mso:sports.sports_team_coach_tenure. from</w>
mso:sports. tournament_event_
mso:spaceflight.satellite _
mso:spaceflight.satellite_ manufacturer.
mso:spaceflight.satellite_manufacturer. spacecraft</w>
mso:spaceflight.bipropellant_rocket_engine. oxidizer_fuel_ratio</w>
mso:soccer.player_ match_participation.
mso:soccer.player_ match_particip
mso:soccer.player_match_particip ation
mso:soccer.player_match_participation .player</w>
mso:soccer.match .player_
mso:soccer.match.player_ match_participation</w>
mso:religion.religious_organization_leadership. start_date</w>
mso:real_estate.house. estimated_
mso:people.person. sibl
mso:organization.membership. membership_
mso:organization.membership.membership_ organization</w>
mso:military.service. to_date</w>
mso:meteorology. beau
mso:location .postal_
mso:location.postal_ region
mso:ice_hockey.team. division</w>
mso:government.political_party_ tenure.party</w>
mso:government.political_party_ tenure.
mso:geography.lake.c atch
mso:geography.lake.catch ment_
mso:geography.lake.catchment_ area</w>
mso:fictional_universe.character. education</w>
mso:boats.ship. ke
mso:boats.ship.ke el_
mso:boats.ship.keel_ laid</w>
mso:aviation.air line.
mso:architecture.architect. style</w>
mso:american_football.player_passing_statistics. team</w>
mso:american_football.game. game
mso:american_football.game.game _passing_statistics</w>
mso:american_football.game _passing_statistics.
mso:american_football.game _pass
mso:american_football.game_pass ing_statistics.player</w>
mon s</w>
mig -2
memb er_of</w>
maver ick</w>
mar a</w>
man ning</w>
m ut
m ort
m and</w>
lo ve_
k ar</w>
jumanji_ :_
jumanji_:_ welcome_to_the_
ju rassic</w>
jor dan</w>
it _
indian apol
in dia</w>
ib ious</w>
hydro chloride</w>
hy e</w>
hurric an
htt p
gu ard</w>
greate st_
gilli am</w>
ge un</w>
g he
for m_
fis her</w>
ferre ll</w>
f ab
ex pe
er ic</w>
emplo ye
electron ic</w>
e li
e .</w>
de stroyer</w>
cyclon e</w>
cult ure</w>
co s</w>
co co</w>
cir cu
champion s</w>
caspi an</w>
car r
cana dian</w>
ca ball
c ted</w>
c row
brit ain</w>
bob by</w>
bm w</w>
bar bar
bab e</w>
au f</w>
associ ation</w>
anni versary</w>
and o</w>
amph ibious</w>
al ic
a wd</w>
_pol ice</w>
_p ersonal_
_day s_
9 8</w>
9 3</w>
7 5</w>
7 /
6 .0</w>
5 5</w>
35 00</w>
3 .0</w>
2 :</w>
-1 4</w>
zer o</w>
z a
y ton</w>
x xi
x -
we stern</w>
wal lace</w>
w u</w>
vol .</w>
vi kings</w>
valer ian</w>
vac ant</w>
v ol</w>
v ig
univers ity.
u er
tur k
tri but
tit an</w>
the_ greatest_
the m</w>
th y
ter rier</w>
ta ke
t_ re
t ate</w>
t _designer.
t_designer. model
t_designer.model s_designed</w>
strang er</w>
st y</w>
ss ing</w>
sp o
sing les</w>
si mon
si e</w>
sh or
sh _
sand ler</w>
sam uel</w>
sa y</w>
sa in
sa il
s_per_ shell</w>
s und
s by</w>
s ap
ro y</w>
ro bo
re ese</w>
rating _s
ra ce</w>
r al_
qu i
ph il</w>
p le</w>
p i</w>
o v</w>
o ma
o il</w>
n em
n ,</w>
mso:tv.regular_tv_appearance. to</w>
mso:ratings.rated_entity. rating_s
mso:people .profes
mso:people.profes sion.
mso:music.track. genre</w>
mso:measurement_unit.integer_range. low
mso:measurement_unit.integer_range.low _value</w>
mso:measurement_unit.integer_range. high
mso:measurement_unit.integer_range.high _value</w>
mso:location.census_district. average
mso:location.census_district.average _days_
mso:education. university.
mso:cvg.computer_videogame. game_
mso:cvg.computer_videogame.game_ series</w>
mso:commerce.electronics_product. screen_
mso:chemistry.chemical_element.electron s_per_shell</w>
mso:chemistry.chemical_classification. high
mso:chemistry.chemical_classification.high er_classifications</w>
mso:book.scholarly_work. do
mso:book.journ al_
mso:book.edition. l
mso:baseball.batting_statistics. home_
mso:baseball.batting_statistics.home_ runs</w>
mso:award.long_list_nomination. award</w>
mso:award.award. honor</w>
mso:aviation.aircraf t_designer.models_designed</w>
mso:aviation.aircraf t.
mso:automotive.automotive_class. transmission</w>
mso:astronomy.star. luminosity</w>
mso:architecture.building.flo or_space_square_meters</w>
mso:amusement_parks.ride. height</w>
mo vie
mo s</w>
memb er.
mb ur
manag ing</w>
lu ca
lo t</w>
lic ense</w>
leag ue.
le x
lar ry</w>
la b</w>
k re
k on
k ill
j r</w>
j ing
ing _p
in ferred</w>
ig h</w>
i ra
i .</w>
hydr ate</w>
hun ger</w>
holly wood</w>
haw k</w>
hal f</w>
ha ve</w>
h .</w>
go d</w>
g i</w>
g ger</w>
g -
federic o</w>
fa il
f ish
f au
ex pan
er_ wa
east wood</w>
e ta</w>
e in
dug gar</w>
di re
de velop
da d</w>
cre ated</w>
cour se</w>
cor p</w>
co o
co .</w>
cle .
chief _of
chief_of _police</w>
ch ie</w>
ch as
cele brit
caball us</w>
c ine
c d</w>
c atherine</w>
c .</w>
buff alo</w>
bu sters</w>
bu s</w>
bo tt
bo s</w>
blu e
ben z</w>
beau ti
be ta</w>
batting _
batting_ average</w>
bar ry</w>
arti cle.
an t
ale j
al .c
adri an</w>
ad van
a stronom
a _c
_s ch
8 5</w>
8 5
8 4</w>
7 2</w>
7 /19
4 /19
3 7</w>
200 5
199 8</w>
.p articip
-1 9</w>
-1 3</w>
yt tri
yel p</w>
y_ of</w>
y.sub discip
y.subdiscip lines</w>
y l
wri ght</w>
wit ch</w>
wi ther
wither spoon</w>
whe el
wash ing
war craft</w>
w u
w all
vic e</w>
ver s</w>
univers it
u x</w>
u ri
tra x</w>
total_ experi
total_experi ence_
total_experience_ year</w>
toron to</w>
tor n
ta g</w>
t_re presented</w>
t er_
su ic
str atus</w>
so me
sku ll</w>
sion. date_be
sion.date_be gan</w>
shor e_
shore_ length</w>
sh eri
set _design
set_design er.film</w>
ses sion.date_began</w>
serv ing_
se se</w>
san do
s_ used</w>
s_ produced</w>
s ten</w>
s it
ro t</w>
ric h
ren e</w>
rela ys</w>
re de
ra ch
r hy
pro fit
profit _
profit_ organization.
profit_organization. don
profit_organization.don ate_
profit_organization.donate_ url</w>
p arti
p ack
offic ial</w>
ob ser
number_of_ runs</w>
notific ation_date</w>
non_ profit_organization.donate_url</w>
no t</w>
n ight
n ation</w>
myster y</w>
mso:tv .produc
mso:soccer. league
mso:skiing.ski_area. number_of_runs</w>
mso:people .person</w>
mso:organization. non_profit_organization.donate_url</w>
mso:olympics.torch_relay. olympics</w>
mso:olympics.tor ch
mso:olympics.torch bear
mso:olympics.torchbear er
mso:olympics.torchbearer .particip
mso:olympics.torchbearer.particip ation_in_
mso:olympics.torchbearer.participation_in_ relays</w>
mso:olympics.games.number_of_ athle
mso:olympics.games.number_of_athle tes</w>
mso:medicine.physician. medical_
mso:location.location. address</w>
mso:government.position_held. distric
mso:government.position_held.distric t_represented</w>
mso:government.legislative_ session.date_began</w>
mso:geography.lake. shore_length</w>
mso:food.nutrition.nutrient_ quantity</w>
mso:food.food. serving_
mso:food. bott
mso:film. set_designer.film</w>
mso:education. field_of_stu
mso:education.field_of_stu d
mso:education.field_of_stud y.subdisciplines</w>
mso:conferences.academic_conference. notification_date</w>
mso:commerce.electronics_product. wi
mso:commerce .produ
mso:commerce.produ ct.
mso:book.poem.poetic_ meter</w>
mso:book.newspaper. headquarters</w>
mso:book.editorial_tenure. from</w>
mso:award.category. categor
mso:award.category.categor y_of</w>
mso:astronomy.celestial_object. es
mso:astronomy.celestial_object.es cape_
mso:astronomy.celestial_object.escape_ velocity</w>
mo ther</w>
mo sco
mine craft</w>
may or</w>
mar t</w>
ma lay
ma ke</w>
lyn n</w>
lon i
ll i</w>
li t</w>
l ington</w>
kryp ton
kap oor</w>
k ent
jumanji_:_welcome_to_the_ jungle</w>
journ al</w>
je t</w>
j ust</w>
j amin</w>
j acqu
ish ment</w>
is ton_
inter state</w>
inter face</w>
industr y</w>
indep end
in stan
illu str
hub ble</w>
http %3
http%3 a
http%3a %2f
http%3a%2f %2f
hor se
hocke y</w>
hi d
heal th</w>
gu e</w>
glo bal</w>
g on
g host
g ent
fore st</w>
fl ynn</w>
field_of_stu dy</w>
far m</w>
f y</w>
f ate</w>
ex cer
excer p
es a</w>
e ssen
d ash</w>
cur tis</w>
cook ies</w>
congre ss</w>
concert_ performan
col li
co w
co oper</w>
co ld</w>
chair man</w>
ch ine
cer es</w>
ce ll</w>
cardin als</w>
car men</w>
c -1
but ter</w>
bo u
ben jamin</w>
beast s</w>
b lo
b in</w>
as a</w>
argen tina</w>
ar s</w>
anima ted</w>
an il</w>
an i</w>
air e</w>
afric an</w>
ad a
aar on</w>
a_ -_
a sian</w>
_star s</w>
_f or_
8 3</w>
7 _
4 8</w>
3 000
2 3</w>
199 7</w>
19 0
( _f
wom en
willi am
wi g</w>
web ster</w>
we n</w>
wal king</w>
von n</w>
vo sto
vir tu
vie t
vi ation</w>
ur ban</w>
tribu te_
tra ction.
traction. location</w>
tour ist_
tourist_ at
tourist_at traction.location</w>
torn ado</w>
tor s</w>
top _elevation</w>
to y</w>
to o</w>
tit led</w>
tion _p
ti er</w>
ther ap
termin ator</w>
tennesse e</w>
temp _
temp_ c</w>
tab le
sy mph
symph ony</w>
sw an
suppor ted_
stor y
ste in
st ad
sp lash</w>
so vie
sea s</w>
se o</w>
sa w</w>
sa urus</w>
s word</w>
s now</w>
rit chie</w>
rit a</w>
remi x_)</w>
recor d</w>
ra mi
ra in</w>
qua ke</w>
pom pi
pompi do
pompido u</w>
po cket</w>
ph ilo
pe ak</w>
pa lace</w>
p an</w>
p ad</w>
ow sky</w>
or i</w>
one al</w>
ol in</w>
offic er</w>
obje ct</w>
o y</w>
nu al</w>
nor way</w>
n ur
n an</w>
mso:zoos. zoo</w>
mso:travel.destination_monthly_climate.average _
mso:travel. tourist_attraction.location</w>
mso:sports.sports_statistics. event</w>
mso:spaceflight.rocket. height_meters</w>
mso:soccer.team_manager. team</w>
mso:skiing.ski_area. top_elevation</w>
mso:military.unit. armed_force</w>
mso:meteorology.beau fort
mso:meteorology.beaufort _win
mso:meteorology.beaufort_win d_for
mso:media_common.cataloged_ instan
mso:media_common.cataloged_instan ce.
mso:media_common.cataloged_instance. value</w>
mso:location.location. city</w>
mso:local.restaur ant.
mso:geography.glacier. length</w>
mso:food.recipe_ingredient. quantity</w>
mso:engineer ing.p
mso:engineering.p iston_
mso:engineering.piston_ engine.
mso:computer.processor .proces
mso:computer.processor.proces sor
mso:book.edition. is
mso:book.edi tion
mso:aviation.aircraft. aircraft_model</w>
mso:amusement_parks.ride. max_speed</w>
mon ster</w>
mo st</w>
minimu m</w>
mb o</w>
manu al</w>
ma ur
ma id</w>
ma h
m b</w>
lu is</w>
lis ting_
lin da</w>
le igh</w>
la ura</w>
la bor
ke ith</w>
ka z
k han</w>
k ane</w>
jen kins</w>
is ter
ire land</w>
invest ment</w>
inve stig
i re_
i a_
hydro gen</w>
ht ml</w>
hor iz
ho les</w>
har mon</w>
han na</w>
h us
h em
gul f</w>
ga y</w>
g t</w>
g ig
freed om</w>
fratern ity</w>
frank lin</w>
fin land</w>
figh ter</w>
f fic
exten ded</w>
ev ol
er rol</w>
englis h
ed war
e m</w>
e isen
dri ve
downlo ad_
download_ count</w>
don 't</w>
di pper</w>
depart ment</w>
dep p</w>
de mo
d or</w>
d oo
cu mu
col ts</w>
co l</w>
ch a</w>
cat s</w>
cas ino</w>
c ry</w>
c ry
c ca</w>
bu y</w>
bu d</w>
bu ck
bri ght</w>
bre viation</w>
br o</w>
bour ne</w>
bb s</w>
bat ter
b log
b io
astronom y</w>
asseng ers</w>
ar bon
anno tation</w>
an o
an nual</w>
an ia</w>
alej andro</w>
al y
al um
al i</w>
al bi
ab breviation</w>
_particip ation.
_famil y</w>
_c a
_b y_
9 /1
8 7
7 9
6 /1
2012 -0
200 3</w>
2 9
2 3
199 2</w>
10 40</w>
1/1/200 8</w>
.p assengers</w>
ī n</w>
ī do</w>
ā t
āt īn</w>
í a</w>
á n</w>
zon e.
zone. off
zone.off set_
zone.offset_ from_
zone.offset_from_ u
zone.offset_from_u ct</w>
x _form.
x_form. form_
x_form.form_ url</w>
wa sp
wasp -18</w>
wa s</w>
viet nam</w>
vi a
val ue
uru sh
urush īdo</w>
ure _
universit y_of_
univers ity
u.s. _
u ser
u al</w>
top e</w>
time_ zone.offset_from_uct</w>
ti gers</w>
think pad</w>
th ron
tea ch
syn cy
syncy tial</w>
sv )</w>
sus an</w>
su gar
str ange</w>
sto ck
steven s</w>
star_wars_:_episode_viii_-_the_last_ jedi</w>
st an</w>
st am
spir atory</w>
spider man</w>
sour ce_
social ist</w>
simp son</w>
si rius</w>
si ms</w>
shi ba</w>
sha qu
ser ge
season_ number</w>
se basti
se at
scor sese</w>
sco tti
sal t</w>
sa t</w>
s.pro du
s.produ ct_
s.product_ line.
s ātīn</w>
s ally</w>
ru m</w>
rober to</w>
ri ders</w>
regu la
re ven
re spiratory</w>
re naissance</w>
ran k.
rail way</w>
ra ted</w>
ra p
r sv)</w>
r s-
r al
r .
pi d</w>
phone call</w>
pho sp
pe ter
p ige
p g</w>
p at</w>
oxy gen</w>
o is</w>
nu cle
new ton</w>
net. com
net s</w>
ne ther
nation s</w>
museum -of-
mu mmy</w>
mso:visual_art.artwork. medium</w>
mso:tv.contestant_ appearance.
mso:transportation.bridge. longest_
mso:transportation.bridge.longest_ span</w>
mso:time. time_zone.offset_from_uct</w>
mso:soccer.team_management_tenure. manager</w>
mso:soccer.team. manager</w>
mso:rail.railway. length</w>
mso:meteorology.cloud. clou
mso:meteorology.cloud.clou d_
mso:meteorology.cloud.cloud_ family</w>
mso:media_common.subject. creative
mso:media_common.subject.creative _work</w>
mso:location. addre
mso:local.entity.make_ phonecall</w>
mso:local.entity. location</w>
mso:local.entity .phone_number</w>
mso:internet.social_network_user. social_network_
mso:geography.river.basin_ area</w>
mso:geography.mountain_pass. elevation</w>
mso:food.nutrition.nutri ent</w>
mso:finance.income_ta x_form.form_url</w>
mso:film.content_rating .film</w>
mso:education.academic. field_of_study</w>
mso:chemistry.chemical_element. iso
mso:chemistry.chemical_element.iso tope</w>
mso:busines s.product_line.
mso:book.written_work. date_written</w>
mso:biology. anim
mso:biology.anim al.c
mso:biology.animal.c lut
mso:biology.animal.clut ch_
mso:biology.animal.clutch_ size</w>
mso:award.nomination. ceremony</w>
mso:application.software_version. market</w>
mr._ olympia</w>
mon ey</w>
mil e</w>
michel le</w>
mic h</w>
met cal
mercur y_
med it
me lis
melis sa</w>
mb us</w>
manu el</w>
luca s</w>
lu thor</w>
lu ke</w>
lu cky</w>
loni mbus</w>
log ical</w>
lo _
li kes</w>
la st
kur t</w>
kub rick</w>
ken stein</w>
k ol
k ie
k ate</w>
jen ny</w>
ja h</w>
islan d_
ire_ webpage</w>
ini um</w>
impres sions</w>
il lin
iet y_
ie _
i z</w>
http%3a%2f%2f downlo
http%3a%2f%2fdownlo ad.
http%3a%2f%2fdownload. c
http%3a%2f%2fdownload.c net.com
ho t</w>
has sium</w>
has bro</w>
hal mich</w>
h l
h ex
h amil
gru m
gro und</w>
gra ce</w>
go w</w>
gi ore</w>
gi ant</w>
ge l
gau l
gall o</w>
g lor
figh ting</w>
farg o</w>
eo -19</w>
en e</w>
el len</w>
el le</w>
ear th
e uro</w>
e mail</w>
do main</w>
do cu
den nis</w>
dela ware</w>
date d</w>
dar ya</w>
dam n</w>
cumu lonimbus</w>
con tin
con sult
commun ity</w>
chine se</w>
ch ad</w>
cardin al</w>
c ure</w>
c ran
brow ns</w>
bra d</w>
boro ugh</w>
bor n</w>
blog :
bic arbon
beck ham</w>
bar on</w>
bal ti
b ig
availa b
are a_
app urushīdo</w>
al co
acqu ire_webpage</w>
a si
_s a
_for m</w>
_ th
8 2</w>
6 5
5 3</w>
5 )</w>
4 6</w>
4 4</w>
20 0</w>
2 8</w>
197 2</w>
000 .0</w>
/200 7</w>
-12 -2
( rsv)</w>
( c
%2f 3000
ym ent</w>
y _c
wonder ful</w>
wa ys</w>
vol can
vo sk
vo cal</w>
virtu al</w>
v s.</w>
tt i</w>
tro n</w>
tribute_ concert</w>
to s</w>
to dd</w>
ti m
thre e_
the_f red
the_fred die_
the_freddie_ mercury_
the_freddie_mercury_ tribute_concert</w>
team_manag er_
team_manager_ match_participation</w>
te es</w>
ta r</w>
ta ke</w>
ta ka
t u</w>
t ty</w>
t ts</w>
t oo
t au
stru ction</w>
st al</w>
ss i</w>
sp ring</w>
so vo</w>
so li
shir t</w>
se y
se l</w>
satell ite</w>
s_,_ 2009
s mart</w>
s lu
s ar</w>
ron an</w>
revolu tion</w>
review s</w>
reci pes</w>
receiving_statistics. team</w>
receiv ing_statistics.player</w>
re sident</w>
rach el</w>
ra te
pro gre
port man</w>
pige on</w>
pict ure</w>
pi ers</w>
p is
p ine
p ac
or :</w>
offic i
o ct
number_of _st
nor man</w>
no te</w>
nis san</w>
ne y_
nation als</w>
n on
mso:transportation.bridge. bridge
mso:transportation.bridge.bridge _type</w>
mso:sports.golf_course. holes</w>
mso:spaceflight.rocket. dia
mso:spaceflight.rocket.dia met
mso:spaceflight.rocket.diamet er_
mso:spaceflight.rocket.diameter_ meters</w>
mso:soccer.team_manager_match_participation. team</w>
mso:soccer.team_manager_match_participation. match</w>
mso:soccer.team_manager. team_manager_match_participation</w>
mso:soccer.player_loan. len
mso:soccer.player_loan.len d
mso:soccer.player_loan.lend ing_team</w>
mso:religion.place_of_worship. religion</w>
mso:medicine.physici an
mso:measurement_unit.dimension s.
mso:geography.island. island_
mso:geography.island.island_ group</w>
mso:food.bott led_
mso:finance. curren
mso:film.festival. focus</w>
mso:film.content_rating .
mso:book.scholarly_ work
mso:book.place_of_publication_period. to</w>
mso:book.journ al
mso:book.journal .place_of_publication</w>
mso:biology.fossil_specimen. organism_classification</w>
mso:aviation.aircraft_ model</w>
mso:architecture.building_complex. flo
mso:architecture.building_complex.flo or_space_square_meters</w>
mso:architecture.build ing</w>
mso:application. download_p
mso:american_football.game_ receiving_statistics.team</w>
mso:american_football.game_ receiving_statistics.player</w>
mso:american_football.game.game_ receiving_statistics</w>
mso: event
mso:event .play_
mso:event.play_ au
mso:event.play_au dio_
mso:event.play_audio_ action.
mon u
mobil e</w>
min i</w>
min d</w>
metcal f</w>
mem ph
me x
marin ers</w>
mar vin</w>
mar vel</w>
mar cus</w>
man _s
m er_
low s</w>
lou t</w>
lo ve
le. ex
l us
l '
ko sovo</w>
ki e</w>
ke l</w>
ke e</w>
k ho
k end
ju an</w>
job s</w>
jerem y</w>
jer sey</w>
ja zz</w>
j agu
in '</w>
il a</w>
i rates</w>
hun ter</w>
hill s</w>
high way</w>
har d
group_ membership</w>
gran t</w>
gra ham</w>
ge _
g g</w>
for re
flo yd</w>
fle e
ferdin and</w>
feder al</w>
fe llini</w>
f m</w>
ev ans</w>
erne st</w>
enz le</w>
enterp rise</w>
duc t</w>
dr ,</w>
dis aster</w>
develop ment</w>
de ep</w>
dan c
da i</w>
d w
d ad
cre w
cor n</w>
consult ant</w>
composi tions</w>
comman der</w>
com ing</w>
co up
co t
co g
co de
ck er</w>
chic ago
cha os</w>
celebrit y</w>
can e
ca ke</w>
c .
bur ton</w>
broadca sting</w>
bro ther</w>
bor der
bo at</w>
bl u</w>
bi enzle</w>
bern ard</w>
bear s</w>
ave x</w>
ati ng</w>
amin o_
am or
all y_
ad or</w>
ad ol
act s</w>
_d o
_ in
_ ._
9 /
6 1</w>
5 4</w>
200 0
2 6</w>
2 /1
12 /1
1/1/ 2017</w>
( 19
公 式
ö r
year _first_
year_first_ lit</w>
y ,</w>
y 's</w>
x ander</w>
wre st
world_ champion
world_champion ship
world_championship s_in_
world_championships_in_ athletics</w>
wic h</w>
wal d</w>
ven ue.
venue. olympic
venue.olympic _
venue.olympic_ games_
venue.olympic_games_ used_
venue.olympic_games_used_ in</w>
v al_
ty ler</w>
tr um
tr ue</w>
tournament_ champion
three_ lett
three_lett er_
three_letter_ abbreviation</w>
the_greatest_ show
the_greatest_show man_s
the_greatest_showman_s ing_
the_greatest_showman_sing_ -_
the_greatest_showman_sing_-_ a_-_
the_greatest_showman_sing_-_a_-_ long</w>
the od
the _c
tex t.
ten nis</w>
t amp
tamp a</w>
syste ms</w>
sy mp
swe et</w>
sum mit</w>
su pre
su it
st_ taxi</w>
st s</w>
st rial</w>
spect ral_
spectral_ type</w>
sp ut
son of
sonof krypton
sonofkrypton /
sonofkrypton/ alexander</w>
sion _
si p
sip ated</w>
shakespe are</w>
sha w
seat tle</w>
scroll s</w>
scotti sh</w>
scien ces</w>
sando val</w>
sa o
sao ir
sa ch
s. found
s.found ation
s.foundation women</w>
ro t
ro s
ro gers</w>
ro d</w>
rid ley</w>
ri n</w>
release _type</w>
release .date</w>
recurring_ event</w>
re be
ra m
ra g
r- mso:book.literary_series.works_in_this_series</w>
que st_taxi</w>
produc ci
play station</w>
pic k
ph ill
pen n
pe te</w>
pat ric
ow ski</w>
organization. memb
organization.memb ers</w>
or lan
nic ho
nether lands</w>
n cis</w>
mso:wine. grape_var
mso:wine.grape_var iety_
mso:wine.grape_variety_ composi
mso:travel.destination_monthly_climate.average_ min_
mso:travel.destination_monthly_climate.average_min_ temp_c</w>
mso:tennis. tournament_champion
mso:sports.pro_sports_played.career_ start</w>
mso:religion.religious_organization_leadership. role</w>
mso:protected_site s.
mso:olympics. venue.olympic_games_used_in</w>
mso:music.track. release
mso:music.music_video _per
mso:music.music_video_per forman
mso:music.music_video_performan ce.
mso:music.music_video_performance. music_video
mso:music.concert_set_list. guest_
mso:music.concert_set_list.guest_ artist</w>
mso:music.album. record_label</w>
mso:meteorology.tropical_cyclone. dis
mso:meteorology.tropical_cyclone.dis sipated</w>
mso:medicine.drug_brand. canonical_
mso:medicine.drug_brand.canonical_ drug</w>
mso:measurement_unit. angle_
mso:location.location.re quest_taxi</w>
mso:government.legislative_ election_re
mso:government.legislative_election_re sult
mso:food.recipe. nutri
mso:film.performan ce
mso:film.performance .per
mso:film.performance.per formance_type</w>
mso:film.film. distribution</w>
mso:film. release.date</w>
mso:cvg.game_version .platform</w>
mso:cvg .publisher.
mso:common. text.
mso:commerce.electronics_product. batter
mso:commerce.electronics_product.batter y_
mso:business.operation. industry</w>
mso:business.issue. issu
mso:biology. amino_
mso:biology.amino_ aci
mso:biology.amino_aci d.
mso:biology.amino_acid. three_letter_abbreviation</w>
mso:baseball.team_stats. losses</w>
mso:baseball.team. division</w>
mso:baseball.batting_statistics. grand_sla
mso:baseball.batting_statistics.grand_sla ms</w>
mso:aviation.aviation_incident_aircraft_relationship. flight_
mso:aviation.aviation_incident_aircraft_relationship.flight_ origin</w>
mso:aviation.airliner_accident. fat
mso:aviation.airliner_accident.fat ality</w>
mso:astronomy.star. spectral_type</w>
mso:architecture.stru ct
mso:architecture.lighthouse. year_first_lit</w>
mr s.</w>
mid winter</w>
mi th
mal ia</w>
mach ine</w>
ma dri
ma cin
m s.foundationwomen</w>
m ilitar
m ath
m art
lin _
le ne</w>
le man</w>
le m
last sonofkrypton/alexander</w>
kent u
ke pler</w>
kar ate</w>
jun o</w>
jo dor
jodor owsky</w>
jan uary</w>
it 's</w>
is to</w>
is ra
is er</w>
in si
in credi
i ti
i -
http%3a%2f%2fdownload.cnet.com %2f
hol i
hel m</w>
he ll</w>
he ar
happ y</w>
hal le
grape_var iety</w>
glor ia</w>
glas gow</w>
gener ation</w>
ge st
ge ob
gar y_
g ur
fran kenstein</w>
for mat
fin d</w>
fil i
fe ld</w>
fal lout</w>
f t_
f org
ey es</w>
exhi bi
et te</w>
er. track
en ti
emplo yment</w>
el i</w>
eisen ho
dy nam
du l
don _
dire ct</w>
dig ital_
dete ctive</w>
desig n</w>
dead pool</w>
da ve</w>
d 's</w>
cri me</w>
coun t
coun cil</w>
con an</w>
color ado</w>
chief s</w>
chie f</w>
charlo tte</w>
ch t</w>
cath ol
car rie</w>
car e</w>
c ity_
c it
c ine</w>
c cane
bur y</w>
bri de</w>
break fast</w>
box ing</w>
blog: lastsonofkrypton/alexander</w>
beauti ful</w>
be at
be ast</w>
bachel or
b son</w>
b ris
b ar</w>
au d
at ra</w>
asse ts</w>
ash ley</w>
as pe
arm strong</w>
ariz ona</w>
ar _
and -
ance_ accep
ance_accep ted</w>
an i
american _
al t
ack s</w>
ac tion</w>
ac commod
abra ham</w>
a w</w>
a vo
a p</w>
a e</w>
_s cor
_pla t
_of_ the
_de ad_
5 /1
4 _major_league_baseball_season</w>
3 00</w>
199 1</w>
10 0
1/1/200 1</w>
0 5</w>
.progra ms_
á n
z o</w>
yn ol
ynol ds</w>
year _built</w>
y am
wor ship</w>
women 's</w>
wol ver
we en</w>
wal nut</w>
w .
vosk ho
voskho d</w>
volcan o</w>
virg in</w>
via duct</w>
ven ice</w>
ve d_in_
ved_in_ constellation</w>
val ent_
valent_ radius</w>
v ation_in_
vation_in_ meters</w>
v at
ut ah</w>
un rated</w>
um- 90</w>
u th_
uth_ ele
uth_ele vation_in_meters</w>
tribut e</w>
transf er_wa
transfer_wa s_
transfer_was_ ag
transfer_was_ag reed</w>
ton ya</w>
ti vity</w>
ti st</w>
thron es</w>
therap y</w>
theat ric
theatric al</w>
the cus</w>
ted_ to</w>
te e</w>
tal k</w>
t_ of_
t x</w>
t ch</w>
t c
sy fy</w>
suic ide</w>
stra ted</w>
stor ies</w>
stock_ticker_ symbol</w>
sti ne</w>
st. _
son ic</w>
sk in
sion_ ratio</w>
shoo ting</w>
shaqu ille</w>
sh ed
sh ado
shado w</w>
serv ings</w>
scor pi
sach use
s ley</w>
rob lox</w>
rob bie</w>
ro m_
ro ll</w>
riv al</w>
rela tives</w>
re ynolds</w>
re search</w>
ran gers</w>
r ina</w>
producci ones</w>
pres ent
pre mium</w>
po laris</w>
pla y_
pie ce</w>
pat ri
par li
p o</w>
p ent
ox ford</w>
ot e</w>
on ia</w>
official_ tenure</w>
offici al.
official. official_tenure</w>
obser ved_in_constellation</w>
obje ct_
object_ age</w>
o va</w>
nucle ar</w>
no bel</w>
nitro gen</w>
ni ko
n d</w>
mu s</w>
mso:transportation.brid ge
mso:transportation.bridge .c
mso:transportation.bridge.c le
mso:transportation.bridge.cle aran
mso:transportation.bridge.clearan ce
mso:transportation.bridge.clearance _be
mso:transportation.bridge.clearance_be low</w>
mso:time.event. inclu
mso:time. da
mso:time.da y_of_
mso:sports.sports_team_coach_tenure. to</w>
mso:sports.sports_ agent.
mso:sports.official_tenure. league</w>
mso:sports.official_tenure. from_date</w>
mso:sports.golf_course. year_built</w>
mso:sports. official.official_tenure</w>
mso:spaceflight.space_program. sponsor</w>
mso:spaceflight.bipropellant_rocket_engine. expan
mso:spaceflight.bipropellant_rocket_engine.expan sion_ratio</w>
mso:soccer.roster_position. from</w>
mso:soccer.player_transfer. date_
mso:soccer.player_transfer.date_ transfer_was_agreed</w>
mso:religion.religious_organization_leadership. end_date</w>
mso:people.person. relatives</w>
mso:people.kinship_relationship. object</w>
mso:people.kinship_relationship. kin
mso:people.kinship_relationship.kin ship</w>
mso:organization.organization. child</w>
mso:music.artist. track</w>
mso:meteorology.cloud. appearance</w>
mso:local.restaur ant_
mso:local.restaurant_ offer
mso:geography.river.mo uth_elevation_in_meters</w>
mso:film.distri bu
mso:film.distribu tion.
mso:education.educational_institution. mo
mso:education.educational_institution.mo tto</w>
mso:commerce.brand_color. color</w>
mso:commerce.brand. bran
mso:commerce.brand.bran d_col
mso:commerce.brand.brand_col ors</w>
mso:commerce. digital_
mso:commerce.digital_ camer
mso:chemistry.isotope. mass_
mso:chemistry.isotope.mass_ number</w>
mso:chemistry.chemical_element. co
mso:chemistry.chemical_element.co valent_radius</w>
mso:business.operation. assets</w>
mso:business.job_posting. job_title</w>
mso:business.issue. stock_ticker_symbol</w>
mso:broadcast.program_show_time. time_zone</w>
mso:baseball.batting_statistics. gdp</w>
mso:automotive. engine.
mso:astronomy.constellation. galax
mso:astronomy.constellation.galax ies_
mso:astronomy.constellation.galaxies_ observed_in_constellation</w>
mso:astronomy.celestial_object.celestial_ object_age</w>
mso:amusement_parks.ride. manufacturer</w>
mso:american_football.player_rushing_statistics. touchdowns</w>
mo z
mo tion</w>
mit t</w>
mi ko
ment ary</w>
mater ial</w>
mas sachuse
marsh all</w>
magic _c
magic_c at_
magic_cat_ academy</w>
magaz ine</w>
mag gie</w>
m ä
m ck
low ship</w>
libr ary_
li o</w>
le y_
le on</w>
le ar
lar son</w>
lar ge</w>
king da</w>
kil dow</w>
kenne th</w>
kat an</w>
kare n</w>
k un
k le
k ath
jose ph
jap an
jaco b</w>
jack son
j -2</w>
iz e</w>
io dine</w>
ing rid</w>
indi ans</w>
illu strated</w>
il la
il es</w>
ib m</w>
i phone</w>
i g</w>
i er
i con</w>
hu l
hor net</w>
holi day</w>
hig g
hid den</w>
hex a
hel p</w>
he in
halle lu
h ut
h iro</w>
gu il
grate ful
goo d
god father</w>
go v</w>
go th
gen re
gal ile
g al</w>
feren ce</w>
fer n
fel lowship</w>
fal co</w>
f ru
f ish</w>
f em
f an</w>
event s_
es cape</w>
er gy</w>
en de
election_ ,_
election ,</w>
du s</w>
du ffy</w>
dro p_
dra per</w>
dol lar</w>
dir ty</w>
dia z</w>
de m
de ath
davi d_
dark er</w>
d nie
d ding</w>
cu s_
cre ation</w>
contribu tions</w>
cla us</w>
cin dy</w>
chap lin</w>
ch el
ch ase</w>
ch al
ce :</w>
car bo
cap it
c in</w>
c ic
but ler</w>
bu gs</w>
brook s</w>
brigh ton</w>
bo ur</w>
ber ke
ber ger</w>
be d
bar ium</w>
ban g</w>
ba ker</w>
b ad
b .</w>
au r</w>
au en</w>
ation_ text</w>
ar my_
appoin t
ap ril</w>
ap par
an thro
alto cumulus</w>
ak ira</w>
adu lt</w>
ad ler</w>
a ya</w>
a w
_s ub
_p arty</w>
_of_ the_
_f inal</w>
_bo ard</w>
9 /19
8 6
7 8</w>
7 7</w>
7 4</w>
7 3</w>
6 /2
2 7</w>
198 4</w>
198 0</w>
10 41</w>
10 /1
1/1/ 2013</w>
1 1/1
/ a
.c ri
- and-
" _
公式 チ
公式チ ャ
公式チャ ン
公式チャン ネ
公式チャンネ ル
公式チャンネル ボブサップ
公式チャンネルボブサップ tv</w>
ボブサップ 公式チャンネルボブサップtv</w>
z im
y ama</w>
wol f
win d_
wi i</w>
wh is
we ster
war ren</w>
wal es</w>
w au
vosto k</w>
vol vo</w>
vil le
vil la
vi ata</w>
van e
ut s</w>
us ter</w>
ure vich</w>
ur al-
ural- history</w>
un ishment</w>
u d</w>
tur ner</w>
tropic al</w>
tran si
tr o</w>
ton ,</w>
to yo
to sh</w>
tion.p unishment</w>
ticke ts</w>
ti mo
this _type</w>
the -
th er_
ted_ in</w>
te ll</w>
te ers</w>
ta il</w>
t wins</w>
t ure</w>
t ni</w>
surviv or</w>
surviv al_
super fortress</w>
su e</w>
sty le
stri ke
strike out
strikeout s</w>
str o</w>
stock_ exchange</w>
ste el</w>
st ant</w>
ssi ve</w>
squ are
special ty</w>
sp run
sprun g</w>
sp in</w>
sp ic
soci al</w>
sle ep
sing h</w>
sexual_orient ation_
sexual_orientation_ ph
sexual_orientation_ph ase
sexual_orientation_phase .
sen ator</w>
sen ate</w>
se th</w>
se ction</w>
saoir se</w>
sand ra</w>
s_ on_
s s.
s mith
s burg</w>
s as
s aga</w>
rock star</w>
ro und</w>
ris ing</w>
ri z
ri an</w>
rh ine</w>
relationship. film</w>
relationship .performer</w>
rede mp
re ald</w>
ran dom
ra fa
ra dio
quot ation.
pro ton</w>
pla net</w>
pier re</w>
pick up</w>
philli ps</w>
pa y
pa la
p riv
p .
own ership.
orlan do</w>
or b
op rah</w>
on t
olympi c</w>
ol iv
occupan cy.
o z
o -
nutri ent</w>
number_of_st ages</w>
ns w</w>
no z
ne igh
ne ed</w>
nat ural-history</w>
na sh
n ights</w>
n a_
museum-of- natural-history</w>
mu la
mso:tv.series_episode. air
mso:tv.series_episode.air _date</w>
mso:statistics.population_group .popula
mso:sports.team_season_record. losses</w>
mso:sports. league.
mso:spaceflight.rocket_ engine</w>
mso:spaceflight.rocket. number_of_stages</w>
mso:soccer.match .
mso:soccer.league _participation.
mso:soccer.disciplinary_ac tion.punishment</w>
mso:skiing.ski_are a_
mso:skiing.ski_area_ ownership.
mso:real_estate.house .p
mso:real_estate.house.p rice</w>
mso:people.deceased_person.place_of _cremation</w>
mso:people.deceased_person.date_of _cremation</w>
mso:people. sexual_orientation_phase.
mso:organization.relationship. child</w>
mso:organization.organization. acqu
mso:organization.organization.acqu ire
mso:organization.organization.acquire d_by</w>
mso:olympics.torch_relay. age</w>
mso:olympics. athlete.
mso:media_common. quotation.
mso:measurement_unit. mon
mso:measurement_unit.mon et
mso:measurement_unit.monet ary_
mso:location.addre ss.
mso:law.judicial_tenure. judge</w>
mso:government.election_poll _scor
mso:government.election_poll_scor e.
mso:government.election_poll .
mso:food.nutrition_fact. quantity</w>
mso:food.nutrition_fact. nutrient</w>
mso:film.genre_ranking. ranking</w>
mso:film.film_song_ relationship.performer</w>
mso:film.film_song_ relationship.film</w>
mso:film.film_son g.
mso:film.film_song. film</w>
mso:business.acquisition. date</w>
mso:business.acquisition. acqu
mso:business.acquisition.acqu iring_
mso:business.acquisition.acquiring_ company</w>
mso:book.place_of_publication_period. from</w>
mso:book.magaz ine
mso:book.magazine .place_of_publication</w>
mso:baseball.batting_statistics. strikeouts</w>
mso:baseball.batting_statistics. i
mso:baseball.batting_statistics.i bbs</w>
mso:baseball.batting_statistics. batting_average</w>
mso:aviation. aircraft</w>
mso:automotive.automotive_class. city
mso:automotive.automotive_class.city _fuel_economy_
mso:architecture.structure. closed</w>
mso:architecture. occupancy.
mso:american_football.player_passing_statistics. inter
mso:american_football.player_passing_statistics.inter cep
mso:american_football.player_passing_statistics.intercep tions</w>
mso:american_football.player_passing_statistics. attempts</w>
mosco w</w>
mor d</w>
mol ly</w>
ministr y</w>
min ster</w>
miko yan</w>
merce de
ment al</w>
maximu m</w>
mar ce
man 's</w>
malay sia</w>
madri d</w>
mac be
ma _
m uth</w>
m d</w>
m ale
lu ci
lt d</w>
lon a</w>
lo com
locom o
li ons</w>
leag u
le v</w>
le o</w>
laure n
lar a</w>
lan ds
la ke_
ku mar</w>
kor ea</w>
ko v
kno ck
kill ing</w>
ker ry</w>
kentu cky</w>
ka i</w>
k now</w>
k 2</w>
john _
jef frey</w>
jean -
je sse</w>
je ky
j u</w>
is ter</w>
is le</w>
io wa</w>
institu tion</w>
ine d</w>
independ ent</w>
il ey</w>
iden ti
i us</w>
i u
i al
ho g</w>
ho e</w>
ho bb
histor ical_
he ights</w>
hau s</w>
h unch
h off
h l</w>
genre .
gam ma</w>
gab ler</w>
ga gar
ga br
g urevich</w>
g lie
fro gger</w>
fred dy</w>
fran ces</w>
fit z
fact ory</w>
f- 1</w>
f ur
f i</w>
f c
events_ compe
events_compe ted_in</w>
ev a</w>
er n
ep sil
em s</w>
eg on</w>
edmon ton</w>
ear le</w>
e vere
duc ks</w>
dra ma</w>
dom ini
dom in
disciplinary_ac tion</w>
dimen sions</w>
diam ond</w>
di ony
de stin
de si
dar at</w>
dad dy</w>
da vy</w>
d ments</w>
d :</w>
cti c</w>
cre am</w>
con stance</w>
comman dments</w>
com o</w>
colli er</w>
co sta</w>
clar ke</w>
cine ma
ci al</w>
chronic les</w>
chair man
ch op
cele br
ce s_
ce _of_
car lo</w>
car d</w>
can y
can e</w>
ca v
c ase
bur lington</w>
bun ny</w>
broad way</w>
bro n</w>
bor ne</w>
bor g</w>
book_edi tion_
barbar a</w>
b-2 9</w>
b run
awaken s</w>
austr alian</w>
au gh
at on</w>
as us</w>
as sin</w>
ar u</w>
ar rival</w>
ar ab
ange s</w>
ang katan</w>
an u</w>
an ing</w>
american -
american- museum-of-natural-history</w>
air line</w>
ag er</w>
a ur
a sp
a g</w>
a /
_syste m
_perio d</w>
_f rom_
_f ail
_b an
9 00</w>
8 .
6 7
6 4
6 20
5 1
3 -
200 6
10 /
1/1/199 5</w>
1/1/ 2010</w>
.postal_ code</w>
y b
yb den
x on</w>
wrest ling</w>
win frey</w>
wil helm</w>
wi th
wi fe</w>
web ber</w>
we st_
war d
wa y_
vis it
vane ssa</w>
use s</w>
us a_
united_state s_of_
united_states_of_ america</w>
um -2
u lt
type _of
type_of _pla
type_of_pla ce_of_
type_of_place_of_ worship</w>
tw in</w>
tu -1
ts_ ,_
tra de</w>
toyo ta</w>
tion_ name</w>
til die</w>
ti m_
ti a</w>
this_ edition</w>
thir d</w>
ther on</w>
ter re
te ch</w>
t_ number</w>
syste m
sy rac
syrac use</w>
surviv ors</w>
sund ance</w>
su z
su dan</w>
st ats.
squ er
sp it
sp ica</w>
sovie t</w>
so malia</w>
so ar
soar in'</w>
smith son
slu gg
slugg ing_p
slugging_p ct</w>
sle eve</w>
siz ing</w>
si d</w>
show time</w>
sho ck</w>
shir t_number</w>
shar p</w>
sh re
sh ine</w>
seni or</w>
se p
sch we
sch el</w>
s_of_ this_type</w>
s wi
s er.
rocke t
residen ce</w>
rep rise</w>
redemp tion</w>
re vis
re in
ra z
pun is
psy cho
ps i</w>
pow ers</w>
pittsbur gh
pi e</w>
phosp hor
per cy</w>
pe yton</w>
parli ament</w>
p up
p iter</w>
ort ra
orle ans</w>
on ium</w>
on ic</w>
ody mium</w>
o x</w>
o ts</w>
o il
nur se</w>
number_of _p
number_of_p ages</w>
note book</w>
nor thro
nex t</w>
national_ foot
national_foot ball_
national_football_ team</w>
nash ville</w>
n ine</w>
n ig
n ath
mus ke
mso:sports.tournament_event_ competition.
mso:spaceflight.rocke t</w>
mso:spaceflight.astronaut.space_ time_minutes</w>
mso:soccer.team_management_tenure. from</w>
mso:soccer.player_match_participation. shirt_number</w>
mso:religion.place_of_worship. type_of_place_of_worship</w>
mso:real_estate.house. buil
mso:real_estate.house.buil t_date</w>
mso:people.person.national ity</w>
mso:people.person. member_of</w>
mso:organization.leadership. as_of_date</w>
mso:medicine.manufactured_drug_form.label_ section</w>
mso:media_common.video_offer. target_device</w>
mso:location.census_district.total_vacant_ residence</w>
mso:government.political_party_tenure. to</w>
mso:government.political_ appoint
mso:government.political_appoint er.
mso:government.political_appointer. appoin
mso:government.political_appointer.appoin tees</w>
mso:geography.waterfall. drop_
mso:geography.waterfall.drop_ number</w>
mso:food.recipe_ingredient. recipe</w>
mso:food.recipe.recipe_ingredi ent_
mso:food.recipe.recipe_ingredient_ text</w>
mso:food.recipe.prepar ation_in
mso:food.recipe.preparation_in struction</w>
mso:film.genre_ranking. genre</w>
mso:fictional_universe. universe.
mso:education.education.educational_institu tion_name</w>
mso:cricket .player_
mso:cricket.player_ stats.
mso:commerce.consumer_product.product_ line</w>
mso:commerce.consumer_product. weight</w>
mso:commerce.consumer_product. dimensions</w>
mso:chemistry.chemical_compound. iu
mso:chemistry.chemical_compound.iu ap
mso:chemistry.chemical_compound.iuap c
mso:chemistry.chemical_compound.iuapc _id</w>
mso:book.edition. editor
mso:book.edition.editor _of_
mso:book.edition.editor_of_ this_edition</w>
mso:baseball.batting_statistics. slugging_pct</w>
mso:automotive.engine. horse
mso:automotive.engine.horse power</w>
mso:astronomy.galaxy. appar
mso:astronomy.galaxy.appar ent_
mso:astronomy.galaxy.apparent_ mass</w>
mso:astronomy.astronomical_discovery.discovery_ site</w>
mso:application.software_version. target_device</w>
mso:application.software_version .platform</w>
mso:american_football.player_receiving_statistics. season</w>
mont ana</w>
mon te
mol ybden
mo tor
mo to</w>
mid dle
miche l</w>
mic key</w>
met z</w>
medit er
mediter ran
me g
mag giore</w>
macin tosh</w>
ma con</w>
m oo
m ing
lu d
loc h</w>
lo u</w>
lo s_
ll _
lit e</w>
leon ard</w>
le na</w>
lar d</w>
la m</w>
ko ta</w>
julie t</w>
ju piter</w>
ju d
jo sh</w>
jo s
jeky ll</w>
jef fer
je ction</w>
japan ese</w>
jam ie</w>
jacqu es</w>
ja s</w>
j it
it z</w>
is i</w>
indu strial</w>
in side</w>
ilit y_
il lo</w>
i rene</w>
i j
i h</w>
hunch back</w>
hun dre
hon g
hon da</w>
ho u</w>
hi ro
he p
har v
hallelu jah</w>
ha s</w>
ha ir</w>
greg or</w>
gm c</w>
glu con
glucon ate</w>
gir l
gi o</w>
gar field</w>
g ates</w>
g anges</w>
fu el_
flu or
fi er</w>
fe ar</w>
famil i
f- 4</w>
f ini
engineer ing</w>
eisenho wer</w>
ed gar</w>
ear l</w>
e mb
dre ssing</w>
dre ss</w>
don e
demo cra
del l</w>
de ut
d y_
d one</w>
cra ig</w>
cor e</w>
con e</w>
compan ies_
come t</w>
co ver</w>
co ok</w>
co aster</w>
clo oney</w>
city_ entity</w>
cin cin
chur ch
chap ter</w>
chairman _of_the
chairman_of_the _board</w>
ch u</w>
ce lona</w>
can is</w>
camp us</w>
call isto</w>
c r
c au
butter fly</w>
buff alo
brook lyn
bri e</w>
bre tt</w>
bre ad</w>
bra zil</w>
bo t
bil ity</w>
bi um</w>
avi ation</w>
auth or
au g
at ar</w>
ass ist
ass assin</w>
ash er</w>
arsen ic</w>
anni e</w>
ange ls</w>
ang o</w>
and re</w>
alic ia</w>
alexand re</w>
ala b
al iz
ail y_
ach e</w>
ac tivity</w>
a ze
a e
a )</w>
a 's</w>
_par alympics</w>
_p rice</w>
_dis ease
_d ie
_d aily_
_c ar
_c am
_ 6
_ (_2017_)</w>
9 5</w>
8 8</w>
8 /1
6 9</w>
5 7</w>
30 .0</w>
201 3_
198 5</w>
18 0
10 3</w>
10 .
1/1/200 3</w>
1/1/1 7
/200 5</w>
.c ause
._/_ ._
-_ season_
( 197
z rs-
zrs- 5)</w>
year_ tur
year_tur ne
year_turne d_p
year_turned_p ro</w>
ye d_in</w>
y da</w>
wil l
wheel base</w>
wer ner</w>
wer e</w>
wein land</w>
we b</w>
w ings</w>
vir go</w>
value _per
value_per cent</w>
us aa</w>
ure _fail
ure_fail ure.
ul tra</w>
u ly
u chi</w>
u ally</w>
tt er.
tter. ..
tter... less</w>
trum p</w>
tropic a</w>
tri p</w>
tra in
total_ time</w>
tin um</w>
time. date_
time.date_ time</w>
time .p
time.p ortra
time.portra yed_in</w>
tic a</w>
ti ger</w>
thre e
ter ior_
terior_ color</w>
ter horn</w>
teams_ coached</w>
t z</w>
t _d
swan son</w>
su per_
su c
stud ies</w>
stri al_
sten ergy</w>
stat ue</w>
stan g</w>
ssi ble</w>
squer ader</w>
sput nik</w>
spir it
spi der_
spider_ -_
sp or
son _
some where</w>
so lis
solis :</w>
sna fu</w>
sing _date</w>
sim mons</w>
sil icon</w>
sig nu
signu p
signup _date</w>
si l</w>
si er</w>
sho t</w>
sho p</w>
sen ting_
se ver
sch war
scen es</w>
sc rip
sa ints</w>
s_,_ inc.</w>
s ma
s l</w>
s g
s .p
s '</w>
rose anne</w>
roman tic
rocket dy
rocketdy ne</w>
rocke ts</w>
ro gue</w>
ro ad
ric ky</w>
restaur ant_
restaurant_ che
restaurant_che f_
restaurant_chef_ associ
restaurant_chef_associ ation.
remi x</w>
reg ister
ree ves</w>
re tt</w>
re print</w>
re present
rd -2
random house
randomhouse .com</w>
ran op
ranop lan</w>
ran ked</w>
r hin
pro vin
pro fes
prin cip
pri mary</w>
pre tty</w>
pow er
pot ato</w>
por sche</w>
pop tropica</w>
pon t</w>
po tter...less</w>
pla tinum</w>
pittsburgh _p
pittsburgh_p irates</w>
ph rine</w>
pe i</w>
pas sion</w>
parti cle</w>
p ut
p pe</w>
p ale
over ture</w>
or der
open _
on au
onau tics</w>
om a</w>
oliv er</w>
o ke</w>
o .
nico le</w>
na ked</w>
n ina</w>
n c
n au
mu stang</w>
mso:tv.series_episode. writer</w>
mso:tv.crew_ gig
mso:tv.crew_gig .
mso:tv. crew
mso:tv.crew member.
mso:tv.crewmember. crew_
mso:tv.crewmember.crew_ gi
mso:tv.crewmember.crew_gi g</w>
mso:tennis.player. year_turned_pro</w>
mso:sports.sports_team_coach .
mso:sports.sports_team_coach. teams_coached</w>
mso:sports.multi_event_tournament. competitor_country_
mso:sports.multi_event_tournament.competitor_country_ relationship</w>
mso:sports.competitor_country_relationship. sport</w>
mso:soccer.player_loan. from</w>
mso:religion.religious_organization_leadership. leader</w>
mso:real_estate.house.nearby_ home</w>
mso:ratings.rating .
mso:ratings.rated_entity.rating_s enti
mso:ratings.rated_entity.rating_senti ment</w>
mso:ratings.rated_entity. ranking</w>
mso:projects.project_participation. to_date</w>
mso:organization.spin_off .date</w>
mso:organization.spin_off .
mso:organization.spin_off. chil
mso:organization.spin_off.chil d_
mso:organization.spin_off.child_ company</w>
mso:organization.organization. spin_offs</w>
mso:organization.committee_membership. title</w>
mso:organization.committee_membership. member</w>
mso:organization.committe e.
mso:organization.committee. member</w>
mso:music.release. release_date</w>
mso:music.composition. credit</w>
mso:music. concert_performan
mso:music.concert_performan ce.
mso:military. comman
mso:military.comman d.
mso:location.location. city_entity</w>
mso:location.census_district.total_vacant_ other</w>
mso:local.entity. clo
mso:local.entity.clo sing_date</w>
mso:internet.social_network_user. signup_date</w>
mso:government. general_
mso:government.general_ election.
mso:food.recipe. total_time</w>
mso:food.recipe. servings</w>
mso:food.nutrition.nutri ent
mso:food.nutrition.nutrient _daily_
mso:food.nutrition.nutrient_daily_ value_percent</w>
mso:food. restaurant_chef_association.
mso:fictional_universe.date_ time.portrayed_in</w>
mso:fictional_universe.date_ time.date_time</w>
mso:fictional_universe.character. date_of_birth</w>
mso:event.commercial_flight_action. flight_
mso:event.commercial_flight_action.flight_ identi
mso:event.commercial_flight_action.flight_identi fier</w>
mso:common.attribution. text</w>
mso:commerce.electronics_product. supported_
mso:commerce.consumer_product. form
mso:commerce.consumer_product.form _f
mso:commerce.consumer_product.form_f actor</w>
mso:business.company_product_ line_
mso:business.company_product_line_ relationship.
mso:book.periodical_ frequenc
mso:book.periodical_frequenc y.
mso:book.periodical_ format
mso:book.periodical_format _perio
mso:book.periodical_format_perio d.
mso:book.edition .place_of_publication</w>
mso:automotive.automotive_class. engine</w>
mso:astronomy.celestial_object. equ
mso:astronomy.celestial_object.equ ator
mso:astronomy.celestial_object.equator ial_
mso:astronomy.celestial_object.equatorial_ circu
mso:astronomy.celestial_object.equatorial_circu m
mso:astronomy.celestial_object.equatorial_circum ference</w>
mso:architecture.struct ure_failure.
mso:architecture.skyscra per</w>
mso:american_football.player_receiving_statistics. touchdowns</w>
molybden um</w>
minneso ta_
mil wau
mid night</w>
mex ico</w>
memph is</w>
me lo
mat terhorn</w>
massachuse tts</w>
ma ss
ma s_
ma f
m u</w>
lun -class</w>
love_ remix_)</w>
lou vre</w>
lon g
log o</w>
loc us</w>
lo me
liver y_
lis ten</w>
li th
leg acy</w>
lear ning</w>
le ft</w>
lan der</w>
la u</w>
la go</w>
la g
kris tina</w>
knock downs</w>
k_ love_remix_)</w>
k yle</w>
k r
k h</w>
k ad
justi ce_
j uni
iv an</w>
islan ders</w>
insur ance</w>
in op
in n</w>
in jection</w>
ic e
ia e</w>
hol m</w>
hol d</w>
histor ic</w>
her schel</w>
hei di</w>
heal th_
he len</w>
har a</w>
ha wa
h ren
h is</w>
h and</w>
h ab
gusta v</w>
gu k_love_remix_)</w>
gu ine
gro und
grateful _dead_
gran de</w>
go u
ghost busters</w>
georg es</w>
gen e_
gem ini</w>
gan g</w>
fu n</w>
fu el
fuel _de
fuel_de livery_
fo ster</w>
fo cus_
flo wers</w>
fir stenergy</w>
fil es</w>
fe l</w>
fail ure</w>
f lash</w>
f am
euro pe</w>
euro pa</w>
eri k</w>
er ra</w>
ent al</w>
employe es</w>
el guk_love_remix_)</w>
ek ranoplan</w>
edi e</w>
e_b ra
e ve
e st</w>
e lis
down sizing</w>
dou g</w>
disne yland</w>
dic _
den zel</w>
dan ie
dan ger
da kota</w>
d_ of_
d rive</w>
d rich</w>
d ra</w>
d al</w>
d _de
cytogene tic</w>
cre ed</w>
cre ation_date</w>
con feder
comple x</w>
co bra</w>
ci e</w>
che e
charg e</w>
ch an</w>
celebr ation_
celebration_ (_f
celebration_(_f elguk_love_remix_)</w>
ce ,</w>
cassi ope
carol ine</w>
car ib
can cer</w>
cal vin</w>
ca mb
c-1 30</w>
c n</w>
c lan
c ale</w>
bull dogs</w>
bu lls</w>
bu ck</w>
bro ken</w>
bra d
boe ing_
bo w</w>
blon de</w>
bicarbon ate</w>
berg man</w>
be y
bas s</w>
bar celona</w>
bachelor _of_
ba la
b und</w>
b u</w>
b ago</w>
awards_ presented</w>
av atar</w>
ast ros</w>
ass o</w>
ar ound</w>
anthro pus</w>
ana heim</w>
an ton</w>
an ol</w>
an 's</w>
alum inium</w>
all e</w>
ale yda</w>
al lan</w>
aer onautics</w>
ad i</w>
ac le</w>
a ve</w>
_st ate_
_sch oo
_fin als</w>
_de _
_d ra
_ vehicle</w>
_ series</w>
_ 1_
7 _major_league_baseball_season</w>
7 6</w>
7 /1
7 .0</w>
7 .
6 8
6 00</w>
5 _
4 -
4 )</w>
35 0</w>
3 60</w>
3 1/1
2008 -12-2
200 3
200 1</w>
2 -
1/1/ 2011</w>
1 _major_league_baseball_season</w>
/200 4</w>
.pre senting_
) _
( zrs-5)</w>
' t_
' re</w>
z _
y le
x l</w>
x avi
ww e</w>
wu ther
wuther ing</w>
work. nomination</w>
woo dy</w>
woo ds</w>
won g</w>
web p
webp age.
way ne_
ward .presenting_
ward.presenting_ organization.
w ski</w>
w ag
video _
vi der</w>
ve ter
v la
ut _
us ing</w>
ural_ failure</w>
un ch</w>
ul ty
ulty _category</w>
ul der</w>
ugh t</w>
u m_
tom or
tion _category</w>
tion .player</w>
tim_ conway</w>
ticker_ symbol</w>
ti fied</w>
tho lome
ther e</w>
the _ma
th ur
th en
temp or
te ss</w>
te en
tam inop
tal king</w>
table _b
ta urus</w>
ta i
t_ time</w>
t. la
t.la st_p
t.last_p eri
t.last_peri he
t.last_perihe lion</w>
t sub
t an</w>
sum mary</w>
sulf ate</w>
sub way</w>
su ya</w>
su ch</w>
sty le.ex
style.ex amp
style.examp les</w>
struct ural_failure</w>
stre et
star t_time</w>
st ill</w>
st and</w>
ssi e</w>
sp rings</w>
softwar e_de
software_de veloper</w>
smithson ian</w>
sm us
sig n</w>
sic ario</w>
si x
ship. winner</w>
sh am
ser en
se mann</w>
se m
sch e
scar let</w>
sa fe
s.p article.
s.particle. spin</w>
s- benz</w>
s l
s field</w>
s ad
ry e</w>
roman ce</w>
rod gers</w>
ro mo
righ ts</w>
rhe agan</w>
re gion</w>
ray mond</w>
ran d
ra ven
ra smus
r ho
que st</w>
qu al
punis her</w>
publish ing</w>
public ation.
prote in</w>
priv ate</w>
pre view</w>
pre par
po ssible</w>
po k
ple ase</w>
physic s.particle.spin</w>
philipp ines</w>
per se
pe n</w>
patri ots</w>
par d</w>
pa in
p ran
p il
p ath</w>
p ag
or ,</w>
oper ation</w>
oma ted</w>
ok la
okla hom
oklahom a</w>
of_ light</w>
ob er
o ver</w>
o p</w>
o di</w>
ny it</w>
north west</w>
nominated_ work.nomination</w>
nific ent</w>
nicho las</w>
ni x</w>
ng c</w>
nat i</w>
nas a</w>
nas a.
nasa. gov</w>
n ers</w>
n ba</w>
n ap
my ers</w>
muske teers</w>
music i
mso:tv.regular_tv_appearance. episode</w>
mso:transportation.trail. di
mso:transportation.trail.di ffic
mso:transportation.trail.diffic ulty_category</w>
mso:tennis.tournament_champion ship.winner</w>
mso:statistics.population_group. un
mso:sports.sports_statistics. action_
mso:sports.sports_statistics.action_ comple
mso:sports.sports_statistics.action_comple tion_category</w>
mso:sports. athlete.
mso:spaceflight.satellite.launch _vehicle</w>
mso:soccer.player. total_
mso:soccer.play er</w>
mso:ratings.review.re viewer</w>
mso:ratings.review. text</w>
mso:people.person.sibl ings</w>
mso:people.person. language</w>
mso:people.person. gender</w>
mso:music.track.play_ link</w>
mso:music.track. song</w>
mso:music.track. artist</w>
mso:music.track. acquire_webpage</w>
mso:music.release. release_type</w>
mso:military. conflic
mso:military.conflic t.
mso:military. combat
mso:meteorology.tropical_cyclone. formed</w>
mso:media_common.video_offer. source</w>
mso:location.location. state</w>
mso:location.location. geob
mso:location.location.geob ound</w>
mso:location.census_district.total_vacant_ business</w>
mso:local.entity.preferred_ webpage</w>
mso:language.human_language. iso
mso:language.human_language.iso _6
mso:language.human_language.iso_6 39
mso:language.human_language.iso_639 _1_
mso:language.human_language.iso_639_1_ code</w>
mso:food.recipe.recipe_ collection</w>
mso:food.recipe.recipe_ author</w>
mso:food.recipe. video</w>
mso:food. be
mso:film.film. wat
mso:film.film. synopsis</w>
mso:film.film. aspe
mso:film.film.aspe ct_
mso:film.film.aspect_ ratio</w>
mso:event.event .pro
mso:event.event.pro vider</w>
mso:event.commercial_flight_action. depart
mso:event.commercial_flight_action.depart ure</w>
mso:event.commercial_flight_action. arrival</w>
mso:event.commercial_flight_action. airline</w>
mso:cvg.computer_videogame. genre</w>
mso:computer.software. software_developer</w>
mso:common.image. source</w>
mso:common. webpage.
mso:common. related_
mso:business.stock_ticker_symbol. ticker_symbol</w>
mso:business.stock_ticker_symbol. stock_exchange</w>
mso:broadcast.program_show_time. start_time</w>
mso:broadcast.program_show_time. network</w>
mso:book.journal_ publication.
mso:book.edition.is f
mso:book.edition.isf db
mso:book.edition.isfdb _id</w>
mso:award. nominated_work.nomination</w>
mso:aviation.aviation_incident_aircraft_relationship. survivors</w>
mso:aviation.airline. flee
mso:aviation.airline.flee t_size</w>
mso:automotive.automotive_class.msr p</w>
mso:astronomy. come
mso:astronomy.come t.last_perihelion</w>
mso:architecture.structure. structural_failure</w>
mso:architecture.lighthouse. fo
mso:architecture.lighthouse.fo cal_
mso:architecture.lighthouse.focal_ height_
mso:architecture.lighthouse.focal_height_ of_light</w>
mso:architecture.lightho use</w>
mso:architecture. style.examples</w>
mso:amusement_parks.ride. duration</w>
mso:american_football.team. historical_
mso:american_football.team.historical_ roster</w>
mso:a ward.presenting_organization.
mso: physics.particle.spin</w>
mor ris</w>
mon sters</w>
mir anda</w>
min a</w>
mil lion</w>
mi x
mi ra
mercede s-benz</w>
mer _paralympics</w>
me tropolitan_
mary_ release</w>
mar k
maj or
mag nificent</w>
ma sa
lu te
lu cy</w>
lu c
lou ise</w>
lla s</w>
lic a</w>
li vi
les lie</w>
le v
lamb org
la unch</w>
l wb</w>
ku ro
kris ten</w>
kis s</w>
key word</w>
kem p</w>
ka zu
k son</w>
k ati
johan n</w>
jac ket</w>
ja m</w>
j _-_
j_-_ lo</w>
ite ms</w>
inter n
ini an</w>
in to</w>
im per
im ma
ili ad</w>
il ler</w>
il led_
ik al</w>
igh ty</w>
ic t
i da</w>
i da
hy po
hun t</w>
hu mph
hong kong</w>
hon ey</w>
ho semann</w>
ho l</w>
high more</w>
higg ins</w>
hexa hydrate</w>
head room</w>
he wit
he ll
he at</w>
ham p
ha un
h n
griff ith</w>
gra ph</w>
gra cie</w>
go es</w>
gi ft</w>
gi f
games_ published</w>
fun ny</w>
fu ll</w>
fro st</w>
fri day</w>
free man</w>
fred die</w>
fre sh</w>
forre st</w>
form ing</w>
for d_
fluor ine</w>
flo wer
finan cial</w>
feder er</w>
far lane</w>
fa vre</w>
f-1 6</w>
f s</w>
f o</w>
f ine</w>
f ight
f ar</w>
eth an</w>
et ta</w>
erne stine</w>
er o</w>
er e
en ne</w>
electron ic_
ele na</w>
eg yp
ea ster
e w
e ight</w>
e e</w>
e as
e -0
dre ams</w>
dol l</w>
docu mentary</w>
dio xide</w>
dic_ table_b
di t</w>
di ary</w>
di aries</w>
den ver</w>
de vil</w>
de vil
de b
d ington</w>
cv n-
cra zy</w>
cour ville</w>
cor p.</w>
concep t.
cleve land_
cla u
cinemat o
cinema scope</w>
charl ize</w>
ch romo
ch ange
cer tified</w>
carib bean</w>
car son</w>
cany on</w>
cal yp
ca ine</w>
ca b
c r</w>
c co</w>
c ampi
campi on</w>
bur g
bu ccane
bran don</w>
bon nie</w>
bo ulder</w>
blue bear</w>
bey ond</w>
bel le</w>
be s</w>
bar tholome
balti more</w>
ba ikal</w>
b ure
b one</w>
b -
atom ic</w>
ation .p
ate_ rating</w>
ar k</w>
apo st
an atom
am c</w>
alab ama</w>
al_ concept.
al tern
al ism</w>
al ice</w>
al ba</w>
ak a</w>
aggreg ate_rating</w>
aer o
act ually</w>
ach er</w>
ace taminop
acade my_
ac a</w>
ab le
ab c</w>
a we
_sum mer_
_f ran
_c ru
_b row
_b on
_ and_
7 47</w>
7 /2
5 /19
201 4_
201 4
198 6</w>
11 /
/2 2
.perio dic_table_b
.a .</w>
. _p
-1 1
-0 9
- in-
- 19
組 動
組動 画</w>
番 組動画</w>
レ ビ
レビ 番組動画</w>
フ ジ
フジ テ
フジテ レビ番組動画</w>
zomb ie</w>
z an</w>
yttri um-90</w>
yo shi
yanke es_
yankees_ pr
yankees_pr _dep
yankees_pr_dep t.</w>
ya ho
y es</w>
xavi er</w>
won der_
willi e</w>
web site</w>
web _brow
wa hl
wahl berg</w>
w gt</w>
video _of
video_of fer</w>
vi r</w>
vi o</w>
verse _form</w>
ver iz
ve y
van ese</w>
v ampi
ut omated</w>
ure_ code</w>
up rising</w>
ul tron</w>
u tion</w>
tv _st
tv -14</w>
tun nel</w>
tri via</w>
transport ation</w>
tra cy</w>
tor que</w>
ton ’s</w>
tion_p ack
ti s
ti ber
ti an</w>
thr ill</w>
thie ves</w>
ther_ address</w>
the y</w>
ter dam</w>
tel ge
telge use</w>
tain er</w>
t p_
tp_ life
tp_life gu
tp_lifegu ard_
tp_lifeguard_ service</w>
t all</w>
syl van
sw b</w>
super coup
supercoup le.
supercouple. celebrity</w>
su it</w>
stud ent</w>
stron tium</w>
str a</w>
steph an
ss_ line</w>
sp here</w>
sky lab</w>
sion al</w>
simon e</w>
silver ado</w>
short s</w>
sheri dan</w>
sele nium</w>
sele cted</w>
secon d
second ary_
secondary_ nominated_work</w>
sch u
sav ing_time</w>
satur day</w>
sat ya
sar a</w>
safe ty</w>
sac red</w>
sab res</w>
s_ id</w>
s. supercouple.celebrity</w>
s y</w>
s r
row an</w>
rot terdam</w>
roo se
ro les</w>
ro l
ris es</w>
reven ge</w>
re acher</w>
re -
ran dy</w>
rafa el</w>
ra d
qu id</w>
ps 3</w>
profes sor</w>
product_ id</w>
pro ce
pr at
play ed</w>
place _of_death</w>
pen n</w>
pen e
pear l</w>
pe pper</w>
park er</w>
pa sta</w>
pa ign
p ass
oun ces</w>
ot ta
orbit s</w>
or io
orio les</w>
op tion_pack
oo t</w>
on e_
om ic_
omic_ locus</w>
ob livi
o ther_address</w>
o me
no de
node .in
node.in fluen
node.influen ce
node.influence d_by</w>
nic ity</w>
net worth</w>
ne bra
nebra ska</w>
nd c_
ndc_ product_id</w>
nc bi
ncbi _id</w>
nat ural_
nad ines</w>
na val</w>
n ag
mä d
my n
mso:transportation.trail. season</w>
mso:sports.pro_sports_played.career_ end</w>
mso:real_estate.house.number_of_b ed
mso:real_estate.house.number_of_bed rooms</w>
mso:rail .
mso:rail. locomo
mso:people.person. networth</w>
mso:music.release. artist</w>
mso:medicine.manufactured_drug_form. ndc_product_id</w>
mso:medicine.manufactured_drug_form. manufacturer</w>
mso:medicine.manufactured_drug_form. availab
mso:medicine.manufactured_drug_form.availab le_
mso:medicine.manufactured_drug_form.available_ in</w>
mso:media_common.creative_work. genre</w>
mso:location.postal_region .postal_code</w>
mso:location.location. day
mso:location.location.day light_
mso:location.location.daylight_ saving_time</w>
mso:location.census_district.total_ other_address</w>
mso:location .popula
mso:location.popula ted_
mso:local.entity. containe
mso:local.entity.containe d_
mso:local.entity.contained_ local_entity</w>
mso:local.entity .pric
mso:local.entity.pric e_bra
mso:local.entity.price_bra cket</w>
mso:law.attorney. total_experience_year</w>
mso:language.human_language. cult
mso:language.human_language.cult ure_code</w>
mso:internet.social_network_user.social_network_ url</w>
mso:internet.social_network_user.follow ing</w>
mso:internet.social_network_user.follow ers</w>
mso:government.position_held. from</w>
mso:geography.mountain .pro
mso:geography.mountain.pro min
mso:geography.mountain.promin ence</w>
mso:food.recipe.nutri tion</w>
mso:food.recipe. dish</w>
mso:event.view_action. book</w>
mso:event.event .par
mso:event.event.par ent_
mso:event.event.parent_ event</w>
mso:engineering.piston_engine. torque</w>
mso:cvg.platform. games</w>
mso:commerce.electronics_product.screen_ size</w>
mso:commerce.consumer_product.product_ model</w>
mso:commerce.consumer_product. brand</w>
mso:commerce.consumer_product. availa
mso:commerce.consumer_product.availa bility</w>
mso:chemistry.chemical_element. ca
mso:chemistry.chemical_element.ca s_id</w>
mso:chemistry.chemical_ele ment
mso:chemistry.chemical_element .periodic_table_b
mso:chemistry.chemical_element.periodic_table_b lock</w>
mso:business.product_line. consumer_product</w>
mso:business.job_posting. base
mso:business.job_posting.base _sa
mso:business.job_posting.base_sa lary</w>
mso:book.scholarly_work.do i</w>
mso:book.poem.poetic_ verse_form</w>
mso:boats.ship. be
mso:boats.ship.be am</w>
mso:biology.gene. ncbi_id</w>
mso:biology.deceased_organism. place_of_death</w>
mso:basketball.team. division</w>
mso:award.nomination. secondary_nominated_work</w>
mso:automotive.automotive_class. wheelbase</w>
mso:astronomy.orbital_relationship. orbits</w>
mso:architecture.lighthouse .a
mso:architecture.lighthouse.a utomated</w>
mso:application.software_version. download_p
mso:application.software_version.download_p age</w>
mso:amusement_parks.ride .in
mso:amusement_parks.ride.in versions</w>
mso: influen
mso:influen ce.
mso:influence. influen
mso:influence.influen ce_
mso:influence.influence_ node.influenced_by</w>
mso: cele
mso:cele briti
mso:celebriti e
mso:celebritie s.supercouple.celebrity</w>
moun t_
mor e_
mon ke
model _
mo uth</w>
mo ur</w>
mo ther
mo on
mis sing</w>
min ds</w>
milwau kee</w>
mil ls</w>
mil len
millen nium</w>
me ss
me i</w>
me ad</w>
maf ia</w>
mac farlane</w>
ma m
ma ce
m v
m ori
lyric s</w>
lute tium</w>
lud wig</w>
lou is
loo king</w>
lo ire</w>
lo dge</w>
li z</w>
le d
le -
lar _
lan o</w>
lan a</w>
la t
la mp
la kes</w>
l n,</w>
kare o</w>
kar l</w>
kan sas</w>
k as
jurisdic tion</w>
jun e</w>
ju n</w>
jo shu
jing le</w>
jagu ar</w>
ja h
ite s</w>
it i</w>
it ania</w>
isra el</w>
is sa</w>
inter ior_
ing o</w>
indep en
in vol
in done
in d
imma cu
ima ge</w>
il _
ign on</w>
ich i</w>
i p</w>
i de
i d
i as</w>
i '
hu ghe
her bert</w>
hea ven</w>
he lium</w>
he it</w>
haun ted</w>
ha vanese</w>
h ap
guine a</w>
guardi an</w>
gu s</w>
gu g
gug gen
greg ory</w>
gre nadines</w>
governmental_jurisdic tion</w>
goo se</w>
go on
gly cer
glu t</w>
gi org
geo storm</w>
gagar in</w>
g ent</w>
g ato</w>
ful ler</w>
fu ji</w>
fron t</w>
fro n</w>
fore ign</w>
for ever</w>
fon da</w>
fo ur
fo u</w>
fig ures</w>
fi x
fi t</w>
fa ith</w>
explor er</w>
evol ution</w>
evere st</w>
eth nicity</w>
eth anol</w>
er os</w>
er o
epsil on</w>
en o</w>
en ce
el vis</w>
el s</w>
edit h</w>
e i</w>
e b
duc k
du ke</w>
du e</w>
don key</w>
do dson</w>
dnie per</w>
dist illed_
dis ab
di s</w>
di phen
de sp
de sh</w>
danc ing</w>
da _
cri mson</w>
cou pe</w>
conte stant</w>
con cent
compan y.
commonweal th</w>
com mand</w>
co st</w>
co ck
cli f
cle aning</w>
cincin nati</w>
christi e</w>
che ese</w>
chal leng
cha in</w>
ch rome</w>
ch am
ce ph
ce ll
cat cher</w>
case y</w>
can nes</w>
c us
c ite
c ie
c art
bur ton’s</w>
bul lock</w>
bre es</w>
bow l</w>
book_edi tions_
blan c</w>
black berry</w>
bis muth</w>
bi an</w>
ber lin_
be telgeuse</w>
ba hn</w>
b i</w>
author ity</w>
aut o
au s</w>
au dio</w>
ath ers</w>
ath a</w>
are d</w>
ar ia</w>
apol lo_
an d_p
an ad
am u</w>
am anda</w>
alli ance</w>
al ber
air bus</w>
addre ss_line</w>
ac re</w>
ac -5
ac-5 620
ab lo</w>
a z</w>
a egon</w>
a da</w>
a _bo
_st or
_p ay_
_fe ature
_b at
8 8
7 9</w>
5 6</w>
5 1</w>
3. 5</w>
2008-12-2 8</w>
197 0</w>
12 /2
1/1/200 6</w>
1/1/200 5</w>
00 7</w>
0 6</w>
/200 9</w>
- corporation</w>
é s</w>
z we
z am
z aire</w>
y. system
y.system _of_
y.system_of_ nob
y.system_of_nob ility.
y.system_of_nobility. used_
y.system_of_nobility.used_ from_date</w>
y. star_system</w>
y ne</w>
y :</w>
worl ds</w>
wol ves</w>
wol fe</w>
wis con
wiscon sin</w>
wind_ spe
wind_spe ed_k
wind_speed_k m_h</w>
whe el</w>
wen dy</w>
washing ton_
war ran
warran ty</w>
w ie
w ho
w ang</w>
w an
voice_ -_season_
vision _
view _s
view_s ni
view_sni p
view_snip pet</w>
video_ of</w>
veter ans</w>
vent ure
ved_ with</w>
v ul
v re
uru gu
uran us</w>
ur chas
urchas ing_team</w>
university _of
un e</w>
uk :</w>
u mb
u -
ty son</w>
turk ish</w>
tun g
trans fer
transfer .p
transfer.p urchasing_team</w>
tr uth</w>
tr us
to l</w>
tion .position</w>
timo thy</w>
tim ate</w>
ti mbur
timbur ton</w>
thre ad</w>
thor n
thorn ton</w>
this _plat
this_plat form</w>
ther o
thero ck</w>
the_ voice_-_season_
the a</w>
th m</w>
tech nic
te tra
te bb
tebb e</w>
tag line</w>
t wee
sub aru</w>
sub _series</w>
stron ti
ste fan
st on_
ss o</w>
spring field</w>
spider_-_ man</w>
son ata</w>
son ,</w>
sol di
sna ke</w>
siz e_
sing le.
single. versions</w>
sig ht</w>
si ve</w>
shel ley</w>
sh ing</w>
sh ane</w>
sep te
sele ctions</w>
se u
scre en</w>
sau ce</w>
san ti
sa y
s_of_ the_
s_ website</w>
s_ flight_
s ven
s v</w>
s ler</w>
s day</w>
s d
s ag
roy alt
royalt y.system_of_nobility.used_from_date</w>
roy al_
rober t_
ro eth
roeth lis
roethlis berger</w>
ri am</w>
rhin o
residential_ vacant</w>
residential_ address</w>
reser ve_
reser vation</w>
represent ative
representative s</w>
relationship. consumer_product</w>
related_ local_entity</w>
regula tors</w>
reg gie</w>
rebe cca</w>
re s
re creation</w>
re a
rd -0
rap tor</w>
ran ge
ral ph</w>
rail road</w>
ra j
ra i</w>
r ies</w>
r hen
r _
produ k
pri x</w>
pres ents</w>
pred ators</w>
pra i
prai rie</w>
pr ie
port ug
pop e</w>
pol y
po d</w>
pla za</w>
phill ies</w>
ph ant</w>
pen ny</w>
pe g</w>
pan thers</w>
pad dington</w>
p seu
p ir
p in</w>
p ga</w>
p ati
p ak
order ing</w>
or n</w>
operating _in
operating_in come</w>
op i
opi thecus</w>
ontology_group_membership_eviden ce_type</w>
ontology_group_membership_eviden ce.
ontology_group_membership_evidence. gene_
ontology_group_membership_evidence.gene_ ontology_group_membership_evidence_type</w>
on_ this_platform</w>
ol sen</w>
ol i</w>
offer ing</w>
oblivi on</w>
number_of_ employees</w>
no bu
new man</w>
ne ver</w>
ne ver
national_ book_
n iro</w>
n ach
msr p</w>
mso:tv.series_season. episodes</w>
mso:tv.regular _personal_
mso:tv. act
mso:tv.act or.
mso:sports.sports_statistics. value</w>
mso:sports.multi_event_tournament. competi
mso:sports.multi_event_tournament.competi tions</w>
mso:soccer.player_ transfer.purchasing_team</w>
mso:real_estate.house.number_of_b ath
mso:real_estate.house.number_of_bath rooms</w>
mso:real_estate.house.estimated_ rent</w>
mso:real_estate.house.estimated_ price</w>
mso:real_estate.house. lo
mso:real_estate.house.lo t_size</w>
mso:real_estate.house. feature</w>
mso:ratings.review.re view_snippet</w>
mso:ratings.review .date</w>
mso:people.person .place_of_birth</w>
mso:organization. membership_
mso:organization.membership_ organization.members</w>
mso:music.track.release s</w>
mso:music.track.play_ track</w>
mso:music.track. lyric
mso:music.track.lyric s_website</w>
mso:music.track .produc
mso:music.track.produc er</w>
mso:music.release_track. release</w>
mso:music.release_track. length</w>
mso:music.release .region</w>
mso:music.album. compositions</w>
mso:music. single.versions</w>
mso:music. musici
mso:music .produc
mso:music.produc er.track
mso:music.producer.track s_produced</w>
mso:meteorology.beaufort_wind_for ce.
mso:meteorology.beaufort_wind_force. minimum_
mso:meteorology.beaufort_wind_force.minimum_ wind_speed_km_h</w>
mso:medicine.disease. medical_treat
mso:medicine.disease.medical_treat ment_
mso:medicine.disease.medical_treatment_ text</w>
mso:media_common.video_offer. video_of</w>
mso:location.location. event</w>
mso:location.location. country</w>
mso:location.census_district.total_ residential_address</w>
mso:location.census_district.average_days_ residential_vacant</w>
mso:local.restaurant. offering</w>
mso:local.entity.make_ reservation</w>
mso:local.entity. related_local_entity</w>
mso:local.entity. disab
mso:local.entity.disab led</w>
mso:inter est
mso:interest s.
mso:games. game</w>
mso:food.food.serving_ size</w>
mso:film.festival. sponsor</w>
mso:film.festival. date_founded</w>
mso:event.event. venue</w>
mso:event.event. summary</w>
mso:engineer ing.
mso:cvg.platform. games_
mso:cvg.platform.games_ on_this_platform</w>
mso:computer.software. operating_system</w>
mso:computer.software. language
mso:computer.software.language s_used</w>
mso:common.image. ordering</w>
mso:common.attribution. uri</w>
mso:commerce.electronics_product. operating_system</w>
mso:commerce.electronics_product. har
mso:commerce.electronics_product.har d_d
mso:commerce.electronics_product.hard_d rive</w>
mso:commerce.consumer_product. warranty</w>
mso:commerce.consumer_product. msrp</w>
mso:business.operation. operating_income</w>
mso:business.job_posting. location</w>
mso:business.employer. number_of_employees</w>
mso:business.company_product_ relationship.consumer_product</w>
mso:book.edition.l cc</w>
mso:book.edition. credi
mso:book.edition.credi ted_to</w>
mso:book.book. character</w>
mso:book.author. book_editions_
mso:biology.gene_ ontology_group_membership_evidence.gene_ontology_group_membership_evidence_type</w>
mso:biology.gene_ group_membership_eviden
mso:biology.gene_group_membership_eviden ce.
mso:biology.gene_group_membership_evidence. membership</w>
mso:biology.gene.gen ome</w>
mso:aviation.aircraft_model .passengers</w>
mso:automotive.automotive_class. re
mso:astronomy.star _system
mso:astronomy.star_system _bod
mso:astronomy.star_system_bod y.star_system</w>
mso: royalty.system_of_nobility.used_from_date</w>
moun tains</w>
mor rison</w>
mon a</w>
mil ky</w>
micha el_
mi x</w>
mi k
meth yl</w>
merce des</w>
mel bourne</w>
me yer</w>
mb le</w>
mat rix</w>
mass acre</w>
mar tha</w>
mar ck</w>
managem ent
manag ing
managing _director</w>
man gan
mangan ese</w>
ma la
m und</w>
m n</w>
m mer</w>
m ith</w>
m cke
lu b</w>
lo af</w>
li ve
legen ds</w>
le w</w>
le gion</w>
le bron</w>
las sie</w>
lan g</w>
lamborg hin
lamborghin i</w>
la tus</w>
la stic</w>
l il
kn m</w>
kn ights</w>
k ri
k ers</w>
k alo
jour ney</w>
jo el</w>
je wish</w>
jan et</w>
james_ franco</w>
it un
it t</w>
issu es_
international_ airport</w>
inter net</w>
indianapol is</w>
in son</w>
in no
im possible</w>
illin ois</w>
il ica</w>
ic t</w>
i um-2
i th
i )</w>
hydro xide</w>
hy g
hyg ie
hughe s</w>
hu ston</w>
hu gh</w>
hr lic
home coming</w>
high way
hawa ii</w>
haw king</w>
hamil ton</w>
h al</w>
h .
gro w
grin ch</w>
griff in</w>
govern or</w>
goon ies</w>
go ih</w>
go ds</w>
glie se</w>
gi bson</w>
gi ants</w>
gi an
ge t
gary_ oldman</w>
gala c
g ris
g le_
g ill</w>
frie drich</w>
fran z</w>
fra u</w>
foo t</w>
fil mes</w>
ffe ine</w>
fe st</w>
fa hren
f ü
f und</w>
f m_
f lan
f ever</w>
exper iment</w>
expe ct
ex tra</w>
est ate</w>
er ie</w>
er 's</w>
equ us</w>
ende avo
endeavo ur</w>
en g</w>
em o
eli as</w>
el ler</w>
ed win</w>
ed er
eag les</w>
e b</w>
dynam ics</w>
dy lan</w>
dw ight</w>
du r
drag on
dow ney</w>
dol ph</w>
dol ph
diphen hydra
diony sis</w>
desi re</w>
den is</w>
del bert</w>
de i
danger ous</w>
da w
d ner</w>
d er.
d d
d c-
d ana</w>
d ag
cti cut</w>
cry stal</w>
cru z</w>
cro ss</w>
cre ws</w>
cot ton</w>
cor ps</w>
cor nell</w>
conne cticut</w>
concer to</w>
con tro
con tempor
co st
co hen</w>
clin ton</w>
ci vil
char d</w>
cassiope iae</w>
cas ter</w>
can di
can 't</w>
ca ffeine</w>
c lic
c ler
c be</w>
c and
c ade</w>
bur ge
bru ce_
bro ok</w>
bra ve</w>
bra in</w>
bra dy</w>
border lands</w>
blin d</w>
bir ds</w>
bet ty</w>
ben ed
be ver
be llo</w>
be at</w>
bas ilica</w>
bar ron</w>
bachelor_of_ arts</w>
ba sil</w>
ba _finals</w>
b les</w>
b iz
b ap
b .
austr al
austral opithecus</w>
aud acity</w>
au gu
as ure</w>
architect ures</w>
ap t</w>
an_ -_
an je
an ci
am on</w>
albi on</w>
al es</w>
al de
air borne</w>
agu a</w>
aero space</w>
a id</w>
a _b
_sum mer_paralympics</w>
_personal_ appearances</w>
_n ba_finals</w>
_de l_
_de fini
_- _s
_ th_
_ li
[ _
99 99
80 8
8 e-0
8 2
4 wd</w>
3 1
3 /2
200 4_major_league_baseball_season</w>
198 9</w>
12 /
10 00</w>
1/1/199 6</w>
1/1/ 2014</w>
/200 1</w>
్ ర
é mon</w>
z ar</w>
yo t</w>
y_c ard</w>
y_ action.
y_action. film_
y_action.film_ show
y_action.film_show ing</w>
y. com</w>
y uri</w>
y o</w>
y me
yme de</w>
y lic</w>
y as
y ak</w>
xxi ii</w>
x x
x er
x anad
xanad u</w>
wor ms</w>
wor d.
with_ this
with_this _s
with_this_s cope</w>
wil der</w>
wic k
wh at
web b</w>
we igh
warri or</w>
wal k</w>
wa ve</w>
w art
w ant</w>
voy ager</w>
vol un
vis ta</w>
video game</w>
vic tor</w>
vic t
ver ti
ver i
venture star</w>
ven era</w>
vel t</w>
van _d
vac ation</w>
v an_
user s</w>
us_ state</w>
uran ium-2
ur sa</w>
up on_
univers ity_
united_ kingdom</w>
unit _
unit_ cost</w>
under ground</w>
un t</w>
un dai</w>
uly sses</w>
ue shiba</w>
u.s._ army_
u.s._army_ medical_
u.s._army_medical_ corp.</w>
tung sten</w>
tu tion</w>
tu i
tui tion</w>
ts_ hol
ts_hol der_
ts_holder_ attribu
ts_holder_attribu tion_
ts_holder_attribution_ text</w>
tru ck</w>
treat ment</w>
transi t</w>
track_ list</w>
tra ded</w>
tra ce
tow ers</w>
tournam ents</w>
tournam ent</w>
titan ium</w>
tion ary</w>
tic _ban
tic_ban d.
ti z</w>
ti mber
ti g
ti e</w>
the_ -_
the mes</w>
terre strial_
terrestrial_ broadca
terrestrial_broadca st
terrestrial_broadcast _f
terrestrial_broadcast_f ac
terrestrial_broadcast_fac ility.
terrestrial_broadcast_facility. frequency</w>
te t</w>
te k</w>
tau ght</w>
tar zan</w>
tar on
tan k</w>
ta ir</w>
ta hoe</w>
ta -
t_ publish
t_publish er</w>
t. recipes</w>
t ö
t y_
t su
t oon</w>
t n</w>
swi ft</w>
survival_ ra
survival_ra te.
surviv or:</w>
supre me</w>
sun day</w>
sum mer
sul t</w>
suit able
suitable _for
suitable_for _die
suitable_for_die ts</w>
sub titled</w>
su sp
sti tution</w>
stephan ie</w>
statistic s_
st ore</w>
ss_ interface</w>
squ aw</w>
squ ad</w>
sports_ statistics</w>
sports_ play
sports_play er.
span ned</w>
span iel</w>
sp ur
soph ia</w>
solub ility_
solubility_ relationship.
soc cer</w>
so yu
so s</w>
so me_
so m</w>
so lo
so line</w>
so le
sle ds</w>
si erra</w>
shir ley</w>
shan k</w>
sha w</w>
sh ang
ser ved</w>
se uss</w>
scrip tion</w>
sco pe.
scope. organization
scope.organization s_
scope.organizations_ with_this_scope</w>
scho lastic</w>
scen e</w>
san ct
s_,_ 2008
s_ created</w>
s_ by</w>
s_ baseball</w>
s no
s ca
s _dis
ry _p
rus h</w>
ru ther
roose velt</w>
romantic ally_
romantically_ invol
romantically_invol ved_with</w>
rock well</w>
rob inson</w>
righ ts_holder_attribution_text</w>
richar d_
ri ze</w>
ri os</w>
restaur ant</w>
rele ss_interface</w>
red_ interface</w>
red dit</w>
recor ding</w>
re x</w>
re sult</w>
re solution</w>
rai ders</w>
rab bit
ra o</w>
ra m_
ram_ memory</w>
r usti
qu er
pu y</w>
psy ch</w>
pri son
pri me</w>
pre mi
pra do</w>
pon ti
pon te</w>
pok émon</w>
poi rot</w>
po s</w>
pl io
phosphor us</w>
philo soph
philipp ine</w>
ph ase</w>
per forming</w>
pe ts</w>
pe l</w>
pe ga
pe ak
patric ia</w>
park s</w>
pal mer</w>
p iz
p erson
ot to</w>
org e</w>
or_ editor</w>
or mond</w>
or bi
op arts.
oparts. com</w>
ont ario</w>
on as</w>
offic e
office -of-
office-of- management
office-of-management -and-
office-of-management-and- budget</w>
oct ob
occu p
ob e</w>
o w</w>
o to</w>
o le
ny chu
nychu k</w>
nebu la_
nebula_ award_for_best_
ne z</w>
nan cy</w>
na vig
myn x</w>
muse o</w>
multi_event_tournam ent</w>
mu t</w>
mso:tv.program.number_of_ seasons</w>
mso:tv.program. seasons</w>
mso:tv.progra m
mso:tv.program _cre
mso:tv.program_cre ator
mso:tv.program_creator .programs_
mso:tv.program_creator.programs_ created</w>
mso:tv.contestant_appearance. result</w>
mso:transportation.bridge. body_of_wat
mso:transportation.bridge.body_of_wat er_
mso:transportation.bridge.body_of_water_ spanned</w>
mso:tennis.player. career_
mso:tennis .player</w>
mso:statistics.population_group.popula tion</w>
mso:statistics.population_group. employment</w>
mso:statistics.economic_group. labor
mso:statistics.economic_group.labor _for
mso:statistics.economic_group.labor_for ce</w>
mso:sports.tournament_event_competition. multi_event_tournament</w>
mso:sports.sports_statistics. statistics_
mso:sports.sports_agent. tournaments</w>
mso:sports.golf_course. length</w>
mso:sports. electronic_
mso:sports.electronic_ sports_player.
mso:real_estate.house.nearby_ schools</w>
mso:real_estate.house. listing_
mso:real_estate.house.listing_ agent</w>
mso:real_estate.house .house
mso:real_estate.house.house _type</w>
mso:ratings.rating. aggreg
mso:ratings.rating.aggreg ation_
mso:ratings.rating.aggregation_ type</w>
mso:ratings.rating .ra
mso:organization.organization .parent</w>
mso:organization. scope.organizations_with_this_scope</w>
mso:music.track .pla
mso:music.track.pla ce</w>
mso:music.release. track_list</w>
mso:music.release. length</w>
mso:music.composition. lyrics</w>
mso:music.composition. language</w>
mso:music.artist. influen
mso:music.artist.influen ces</w>
mso:medicine.physician. business</w>
mso:medicine.physician .preferre
mso:medicine.physician.preferre d_de
mso:medicine.physician.preferred_de gree</w>
mso:medicine.disease. symp
mso:medicine. survival_rate.
mso:media_common.creative_work. creation_date</w>
mso:location.postal_region .
mso:location.postal_region. country</w>
mso:location.location. gn
mso:location.location.gn is
mso:location.location.gnis _feature
mso:location.location.gnis_feature _id</w>
mso:location.location. curren
mso:location.location.curren cy</w>
mso:location.location. address_line</w>
mso:location.census_district.average_days_ business_
mso:location.census_district.average_days_business_ vacant</w>
mso:location. us_state</w>
mso:law.attorney. fe
mso:law.attorney.fe es_
mso:law.attorney.fees_ and_p
mso:law.attorney.fees_and_p ay
mso:law.attorney.fees_and_pay ments</w>
mso:government.agency. governmental_jurisdiction</w>
mso:geography.river. dis
mso:geography.river.dis charge</w>
mso:food.recipe.prepar ation_
mso:food.recipe.preparation_ time</w>
mso:food.recipe. suitable_for_diets</w>
mso:food.recipe. cook
mso:food.recipe.cook ing_time</w>
mso:food.nutrition.nutrient_ unit</w>
mso:food. die
mso:food.die t.recipes</w>
mso:finance.curren cy.
mso:film.film. tagline</w>
mso:film.festival_event. film</w>
mso:fictional_universe.character. romantically_involved_with</w>
mso:event.view_action. review</w>
mso:event.event. tag</w>
mso:event.event. category</w>
mso:event.event .performer</w>
mso:event.agent. address</w>
mso:event. bu
mso:event.bu y_action.film_showing</w>
mso:education.university. domestic
mso:education.university.domestic _
mso:education.university.domestic_ tuition</w>
mso:education.educational_institu tion
mso:conferences. conference.
mso:conferences.conference. conference
mso:conferences.conference.conference _sub
mso:conferences.conference.conference_sub ject</w>
mso:computer.processor.processor _
mso:computer.processor.processor_ manufacturer</w>
mso:common.webpage. uri</w>
mso:common.image. rights_holder_attribution_text</w>
mso:common.attribution. order</w>
mso:commerce.product. users</w>
mso:commerce.product. c
mso:commerce.product.c are_
mso:commerce.product.care_ and_
mso:commerce.product.care_and_ cleaning</w>
mso:commerce.electronics_product.wi reless_interface</w>
mso:commerce.electronics_product.wi red_interface</w>
mso:commerce.electronics_product.supported_ memor
mso:commerce.electronics_product.supported_memor y_card</w>
mso:commerce.electronics_product.battery_ used</w>
mso:commerce.electronics_product. ram_memory</w>
mso:commerce.consumer_product. themes</w>
mso:commerce.consumer_product. color</w>
mso:chemistry.chemical_element. ion
mso:chemistry.chemical_element.ion iz
mso:chemistry.chemical_element.ioniz ation_
mso:chemistry.chemical_element.ionization_ energy</w>
mso:chemistry. solubility_relationship.
mso:business.employer. employment_tenure</w>
mso:broadcast.content. duration</w>
mso:broadcast.broadcast. frequency</w>
mso:broadcast.broadcast. area_
mso:broadcast.broadcast.area_ served</w>
mso:broadcast. fm_
mso:broadcast.fm_ terrestrial_broadcast_facility.frequency</w>
mso:book.scholarly_work .pro
mso:book.scholarly_work.pro mp
mso:book.scholarly_work.promp t_publisher</w>
mso:book.editorial_tenure. to</w>
mso:book.edition.l c
mso:book.edition.lc cn</w>
mso:book.edition. interior_
mso:book.edition.interior_ illustr
mso:book.edition.interior_illustr ation
mso:book.edition.interior_illustration s_by</w>
mso:book.edition. book_edition_
mso:book.edition.book_edition_ series</w>
mso:book.edition. auth
mso:book.edition.auth or_editor</w>
mso:biology.organis m</w>
mso:biology.gene.gen e_
mso:biology.gene.gene_ group_membership</w>
mso:biology.gene. symbol</w>
mso:biology.animal. gest
mso:biology.animal.gest ation
mso:biology.animal.gestation _period</w>
mso:biology. cytogene
mso:biology.cytogene tic_band.
mso:aviation.aircraft_model. unit_cost</w>
mso:automotive.automotive_class.city_fuel_economy_ maximum</w>
mso:automotive.automotive_class. drive
mso:automotive.automotive_class.drive train</w>
mso:architecture. museum</w>
mso:application.download_p age.
mso:application.download_page. download_count</w>
mso:amusement_parks.ride .closed</w>
mon y</w>
mis s_
min ute</w>
mi e</w>
mel nychuk</w>
mediterran ean</w>
medic ine</w>
me an</w>
mc la
mc gregor</w>
mc car
mat he
marti n
marg ot</w>
man z
man h
manh att
ma ha
ma ck
m iz
m im
m arch
lus itania</w>
lu cer
lo vir</w>
llo yd</w>
lion el</w>
line s_flight_
lin ux</w>
lin s</w>
li quid</w>
les h</w>
leagu e_
le u
le m</w>
le i</w>
launch _
lan d
lamp oon</w>
la ke
la ce
l v
l u</w>
l p
kil ler</w>
key word.
kend rick</w>
ka y</w>
k er_
k au
k as</w>
juli an</w>
ju lia</w>
joshu a</w>
jeffer son</w>
je ts</w>
jackson ville</w>
ja ys</w>
ja ya</w>
j ub
iz a</w>
it as</w>
it ali
ir on_
ir ish</w>
io s</w>
io dar
iodar one</w>
inter view
indone sia</w>
indian s_baseball</w>
indepen den
in s
in k
in fe
im o</w>
illi an</w>
ill in</w>
ig u
ie t</w>
iden tity</w>
ic _st
ic_st rip
i x
i ka</w>
hydro xy
hy undai</w>
hu man
hu go</w>
hop kins</w>
ho ur
hewit t</w>
hep burn</w>
hea vy</w>
he i</w>
hay es</w>
haw ks</w>
hart nett</w>
har dt</w>
har bour</w>
ha i
h k</w>
h ir
h d_
h ag
gui des</w>
gu chi</w>
grum man</w>
gra de_
grade_ taught</w>
gr ill</w>
gil bert</w>
georg e_
ge ld</w>
gar rett</w>
gan ymede</w>
gall ium</w>
ga soline</w>
g t
g inger</w>
g gy</w>
ful ton</w>
fu j
fro g</w>
fri end
fred eric
fra me</w>
fo x
fl ute</w>
fe lis</w>
famili ar
fam ous</w>
fahren heit</w>
fa vor
fa shi
f- 35</w>
f t
f li
f /a
euro tunnel</w>
eu ph
eu gene</w>
et amine</w>
er s_
er is</w>
entertain ment_
en tebbe</w>
em manu
em ily</w>
ell iot</w>
el a</w>
edwar ds</w>
ed s</w>
ed ge</w>
earth quake</w>
e z
e ur</w>
e in</w>
e fron</w>
e den</w>
disne y
dis h
di ver
dex ter</w>
devil s</w>
detro it</w>
dead ly</w>
de m</w>
de lla</w>
de -
dar ren</w>
dan iel
d é
d ina</w>
d .p
cyc le</w>
ct us</w>
con cor
commerci al</w>
com munic
colle ctor</w>
colle ction
code .
co la</w>
co d
co ated</w>
co ast</w>
cleveland_ indians_baseball</w>
clas h</w>
cla y</w>
cir ro
ci ti
challeng e</w>
ch or
ch on</w>
ch ance</w>
ceph alex
cephalex in</w>
centa urus</w>
ce_ role</w>
ce aut
ceaut oparts.com</w>
ce )</w>
cat us</w>
cassi dy</w>
carr ies</w>
car di
cam p</w>
ca in</w>
bur nett</w>
bull dog</w>
buccane ers</w>
brit tan
br yan</w>
br ien</w>
book worms</w>
boo t</w>
bob sleds</w>
bo aten
boaten g</w>
bin ding</w>
bel ie
bee f</w>
beat les</w>
be ing</w>
be au</w>
be ach
bar o
ba king</w>
b org
b ins</w>
b ing
b ia</w>
b ate
awaken ing</w>
au dre
au di</w>
au di
at ten
at _st
arsen al</w>
arm and</w>
are as</w>
ar bor</w>
ap ache</w>
an -
amph etamine</w>
am iodarone</w>
am i
aliz er</w>
ali ve</w>
ali er</w>
al le
af fair</w>
advan ceautoparts.com</w>
ad ra
ack _
ab les</w>
a ust</w>
a us
_tra ck</w>
_s mith</w>
_fifa_world_ cup</w>
_c alifor
_b ay
_ :_
_ /_
7 37</w>
6/ 30
5 00
5 /2
45 1</w>
4 4
4 -10
3 8
3 60
2010_fifa_world_cup_ group
2005 _major_league_baseball_season</w>
16 .
15 00</w>
10 00
1/1/200 7</w>
1/1/200 4</w>
1/1/199 9</w>
1/1/1 5
1 ,</w>
1 )</w>
0 .0</w>
/200 8</w>
-2 2</w>
-1 7</w>
-1 0</w>
(_ 199
(_ 198
( ii
%2f3000 -2
é e</w>
zz i</w>
zomb ies</w>
zo v</w>
z ing
y lon</w>
y _b
x en
wor th
win d
willi a
willia mson</w>
wil l_
wid th_
width_ meters</w>
wi e</w>
wayne_ /
wayne_/ _bat
wayne_/_bat man</w>
war ner
wal ton</w>
wa i
w ir
volu mes</w>
vol ta</w>
vol ._
vo gel</w>
vil les</w>
vi olin</w>
vi der_
vider_ id</w>
veri fied</w>
velo per.
van cou
vancou ver</w>
v u
v ak</w>
used_ by_
used_by_ services</w>
usa_ )</w>
uri um</w>
ure a</w>
united_ states</w>
un titled</w>
un du
undu latus</w>
ul timate</w>
type _per_
type_per_ hundre
type_per_hundre d_
type_per_hundred_ thousand</w>
twee ty</w>
tv_ producer</w>
tv_ episodes</w>
tur n</w>
ts_,_ 2008-12-28</w>
ts_ at_
ts n</w>
tro y</w>
tri gg</w>
tri al
tr in
too th</w>
ton -
tom_ text</w>
tom ato</w>
titan ia</w>
tion al</w>
tin _
this_ genre</w>
thie f</w>
the_ wal
the us</w>
the ft_
the _p
th under
ter rit
ter bium</w>
ten ant</w>
tell urium</w>
tell ig
teles co
tele phone</w>
teen age</w>
tea cher</w>
tc m</w>
tat suya</w>
ta ung</w>
t_d amon</w>
t ut
t ch
symb io
sylvan ia</w>
sy r</w>
sw it
sw im
suz anne</w>
sun shine</w>
sugar loaf</w>
sub titles</w>
stu ck
stuck ism</w>
structure d</w>
stro m</w>
str at
stock_ exchan
stock_exchan ge.
stock_exchange. companies_
stock_exchange.companies_ traded</w>
sto ker</w>
sti n</w>
stella r</w>
ste mming_
stemming_ variation</w>
ste er
stal in</w>
stad t</w>
st. likes</w>
st o</w>
square _f
square_f oot</w>
spiri n</w>
sp ro
sp ain</w>
source_ social_
source_social_ network</w>
source_ elevation</w>
some_ spanish</w>
solo mon</w>
software_ version</w>
social_ media
social_media _po
social_media_po st.likes</w>
so v</w>
so l</w>
snow man</w>
slo gan</w>
size_ structured</w>
sing ing</w>
sil k</w>
si kor
shaw shank</w>
shang hai</w>
sh iel
sh ad
ser ial
serial s)</w>
ser bia</w>
septe mber</w>
sebasti an</w>
se dan</w>
scre w</w>
scre am</w>
sch wart
sch la
sanct uary</w>
sal om
salom on</w>
sa ab</w>
s_on_ listing_
s_on_listing_ source</w>
s_in_ this_genre</w>
s_ tsn</w>
s_ to_
s_ go
s_ con
s_ and_
s_ (_
s z
s worth</w>
s can
s art
ry_p ot
ru le
row s</w>
rome o</w>
role. tv_episodes</w>
ro un
ro ugh
ro m
ro bb
ro ad_
rhino cer
rhinocer os</w>
rhen ium</w>
reserve_ action.
reserve_action. accommod
reserve_action.accommod ation</w>
republic s</w>
rela ted</w>
red ford</w>
re com
recom men
recommen ded_
recommended_ uses</w>
rate _by_
rate_by_ type_per_hundred_thousand</w>
rank. used_by_services</w>
radio _st
radio_st ation.
radio_station. slogan</w>
ra_ sorvino</w>
r u</w>
r ill</w>
profession al.
professional. insur
professional.insur ance_accepted</w>
pro vider_id</w>
pro ble
portug al</w>
por ter</w>
po sse
po e</w>
po d
plut onium</w>
play_ technology</w>
pla ys</w>
pla nets</w>
pit t</w>
pier ce</w>
pi res</w>
pi one
physic s</w>
philo so
philadelph ia_
phen ol</w>
ph ot
pet us</w>
pau l_
part ment</w>
par c</w>
par anthropus</w>
pal la
palla dium</w>
pac ers</w>
ou l</w>
otta wa</w>
ot t</w>
osi s</w>
or din
or acle</w>
opp ins</w>
opp ers</w>
open_ house</w>
open ings</w>
on -
ol d_
o. j.</w>
o vis</w>
o vich</w>
o u</w>
number_of_ episodes</w>
nor ris</w>
nomine es</w>
no thing</w>
nin ja</w>
nic hol
ng u
ner y</w>
ne odymium</w>
ne n</w>
national_ provider_id</w>
na kad
nakad ai</w>
n un
n k-
nk- 33</w>
n ight_
n 's</w>
mäd chen</w>
mu ll
mso:tv.series_season. season_number</w>
mso:tv.series_season. number_of_episodes</w>
mso:tv.series_episode. season_number</w>
mso:tv.program. tv_producer</w>
mso:tv.crew_ role.tv_episodes</w>
mso:time.event .pre
mso:time.event.pre ce
mso:time.event.prece des</w>
mso:statistics.population_group .cri
mso:statistics.population_group.cri me_
mso:statistics.population_group.crime_ rate_by_type_per_hundred_thousand</w>
mso:sports.team. league</w>
mso:sports.sports_ competition.
mso:sports.sports_competition. statistics</w>
mso:sports.pro_athlete .current_
mso:sports.pro_athlete.current_ team</w>
mso:real_estate.house. open_house</w>
mso:real_estate.house. day
mso:real_estate.house.day s_on_listing_source</w>
mso:real_estate.house .pric
mso:real_estate.house.pric e
mso:real_estate.house.price _per_
mso:real_estate.house.price_per_ square_foot</w>
mso:people.profession. dated_
mso:people.person.sibl ing</w>
mso:people. marri
mso:people.marri age.
mso:people.marriage. type</w>
mso:organization.organization. focus_
mso:organization.organization.focus_ areas</w>
mso:music.track. engineer</w>
mso:music.track. contributions</w>
mso:music.release. album</w>
mso:music.release .re
mso:music.release.re cor
mso:music.release.recor d_label</w>
mso:military. rank.used_by_services</w>
mso:medicine.physician. national_provider_id</w>
mso:medicine.manufactured_drug_form.label_ link</w>
mso:medicine.manufactured_drug_form.label _date</w>
mso:medicine.disease.symp tom_text</w>
mso:medicine. medical_
mso:medicine. health_
mso:medicine.health_ professional.insurance_accepted</w>
mso:media_common.video _of
mso:media_common.video_of fer
mso:media_common.video_offer .pric
mso:media_common.video_offer.pric ing_
mso:media_common.video_offer.pricing_ model</w>
mso:media_common. content_rating
mso:media_common.content_rating .
mso:media_common.content_rating. content</w>
mso:measurement_unit.dimensions. width_meters</w>
mso:location. country</w>
mso:internet.social_network_user. views</w>
mso:internet.social_network_user. verified</w>
mso:internet.social_network_user. source_social_network</w>
mso:internet.social_network_user. likes</w>
mso:internet.social_network_user. agent</w>
mso:geography.river. source_elevation</w>
mso:geography.glaci er</w>
mso:food.nutrition. foo
mso:food.nutrition.foo d_
mso:food.food.serving_ size_structured</w>
mso:finance.currency. curren
mso:finance.currency.curren cy_code</w>
mso:finance. stock_exchange.companies_traded</w>
mso:film.film. trivia</w>
mso:event.play_audio_action. book</w>
mso:event. reserve_action.accommodation</w>
mso:cricket .player.
mso:cricket.player. statistics</w>
mso:computer.processor.processor _family</w>
mso:commerce.electronics_product.screen_ resolution</w>
mso:commerce.electronics_product. dis
mso:commerce.electronics_product.dis play_technology</w>
mso:commerce.digital_camer a.
mso:commerce.consumer_product. video</w>
mso:commerce.consumer_product. recommended_uses</w>
mso:commerce.consumer_product. gender</w>
mso:commerce.brand. logo</w>
mso:business.issue.issu er</w>
mso:broadcast. radio_station.slogan</w>
mso:book.scholarly_work.do c
mso:book.scholarly_work.doc _type</w>
mso:book.magaz ine_
mso:book.magazine_ genre.
mso:book.magazine_genre. magaz
mso:book.magazine_genre.magaz ine
mso:book.magazine_genre.magazine s_in_this_genre</w>
mso:book.edition. language</w>
mso:book.edition. cover
mso:book.edition.cover _price</w>
mso:book.edition. binding</w>
mso:book. social_media_post.likes</w>
mso:book. keyword.
mso:book.keyword. stemming_variation</w>
mso:book. excerp
mso:boats.ship. dra
mso:boats.ship.dra ught</w>
mso:biology.organism_classification. iti
mso:biology.organism_classification.iti s_tsn</w>
mso:biology.organism_classific ation_
mso:biology.organism_classification_ rank.
mso:award.ranked_ list.
mso:award.ranked_list. ranking</w>
mso:award.category. nominees</w>
mso:application.software_version. download_count</w>
monu ment</w>
mon ster
mon k</w>
mis ter</w>
min er
mil lau</w>
mid way</w>
mi s</w>
mi riam</w>
mi ra_sorvino</w>
mi an</w>
men ace</w>
medic al</w>
me h
me e
me dia_
me ck
mcla ren</w>
mc dor
mcdor mand</w>
maximum _speed</w>
max notes</w>
mat t_damon</w>
marti an</w>
mar ía</w>
mar qu
man chester</w>
mag loire</w>
macbe th</w>
ma tic</w>
ma t</w>
ma je
ma i
ma gn
ma dame</w>
ma -
lux e</w>
low n</w>
lon e</w>
lon don_
loc aust</w>
lo ok</w>
lis ted_
lex us</w>
len s</w>
len burg</w>
le tte</w>
le op
le e
lan ce</w>
la ser</w>
l us</w>
l ub
l .
kris h
kir k
ki d
ken ny</w>
kat rina</w>
kar ak
karak or
kan der</w>
kalo u</w>
ka sh
k yo
k us
k ung</w>
k im
k amp
journ al_
jo y
jo sh_
je ff
j ol
j ab
ite m</w>
ital y</w>
it alian</w>
it a_
ish i</w>
is abe
ira q</w>
ip ad</w>
io tt</w>
investig ation</w>
inter views</w>
indianapol is_
in- line</w>
in tellig
in o
in forma
in fin
ie ld</w>
ic us</w>
ia petus</w>
i que</w>
i ke</w>
i k</w>
i b</w>
hygie a</w>
hurrican es</w>
hur st</w>
ht c</w>
hosp ital</w>
hoo ver</w>
holly woo
ho w
ho p</w>
ho locaust</w>
hin den
hill s
her man
hen ri</w>
hed ge
hedge hog</w>
he ard</w>
har ry_pot
har old</w>
h ri
h im</w>
h ar</w>
h ans</w>
h ack
h -
gun n</w>
guil d</w>
guggen heim</w>
guardi an
gu mp</w>
gre ek</w>
gre at
grand_ theft_
goo gle_
go ing</w>
glycer in</w>
gla di
gi a
ger ard</w>
gent leman</w>
ge ar</w>
gar land</w>
gan cic
gancic lovir</w>
gabr iel</w>
ga p</w>
ga mb
g mail</w>
g ge
fü r</w>
foun d</w>
fl ies</w>
fitz gerald</w>
fic a</w>
fer ris</w>
fe lix</w>
fan ning</w>
fall ing</w>
fair y</w>
face d</w>
f lesh</w>
f c_
[...]
